{
  "version": "1.0",
  "truncation": null,
  "padding": null,
  "added_tokens": [
    {
      "id": 0,
      "content": "<s>",
      "single_word": false,
      "lstrip": false,
      "rstrip": false,
      "normalized": false,
      "special": true
    },
    {
      "id": 1,
      "content": "</s>",
      "single_word": false,
      "lstrip": false,
      "rstrip": false,
      "normalized": false,
      "special": true
    },
    {
      "id": 2,
      "content": "<unk>",
      "single_word": false,
      "lstrip": false,
      "rstrip": false,
      "normalized": false,
      "special": true
    },
    {
      "id": 3,
      "content": "<pad>",
      "single_word": false,
      "lstrip": false,
      "rstrip": false,
      "normalized": false,
      "special": true
    },
    {
      "id": 4,
      "content": "<im_start>",
      "single_word": false,
      "lstrip": false,
      "rstrip": false,
      "normalized": false,
      "special": true
    },
    {
      "id": 5,
      "content": "<im_end>",
      "single_word": false,
      "lstrip": false,
      "rstrip": false,
      "normalized": false,
      "special": true
    },
    {
      "id": 6,
      "content": "<fim_prefix>",
      "single_word": false,
      "lstrip": false,
      "rstrip": false,
      "normalized": false,
      "special": true
    },
    {
      "id": 7,
      "content": "<fim_middle>",
      "single_word": false,
      "lstrip": false,
      "rstrip": false,
      "normalized": false,
      "special": true
    },
    {
      "id": 8,
      "content": "<fim_suffix>",
      "single_word": false,
      "lstrip": false,
      "rstrip": false,
      "normalized": false,
      "special": true
    },
    {
      "id": 9,
      "content": "<mask>",
      "single_word": false,
      "lstrip": false,
      "rstrip": false,
      "normalized": false,
      "special": true
    }
  ],
  "normalizer": null,
  "pre_tokenizer": {
    "type": "ByteLevel",
    "add_prefix_space": false,
    "trim_offsets": true,
    "use_regex": true
  },
  "post_processor": {
    "type": "ByteLevel",
    "add_prefix_space": true,
    "trim_offsets": false,
    "use_regex": true
  },
  "decoder": {
    "type": "ByteLevel",
    "add_prefix_space": true,
    "trim_offsets": true,
    "use_regex": true
  },
  "model": {
    "type": "BPE",
    "dropout": null,
    "unk_token": null,
    "continuing_subword_prefix": null,
    "end_of_word_suffix": null,
    "fuse_unk": false,
    "byte_fallback": false,
    "ignore_merges": false,
    "vocab": {
      "<s>": 0,
      "</s>": 1,
      "<unk>": 2,
      "<pad>": 3,
      "<im_start>": 4,
      "<im_end>": 5,
      "<fim_prefix>": 6,
      "<fim_middle>": 7,
      "<fim_suffix>": 8,
      "<mask>": 9,
      "!": 10,
      "\"": 11,
      "#": 12,
      "$": 13,
      "%": 14,
      "&": 15,
      "'": 16,
      "(": 17,
      ")": 18,
      "*": 19,
      "+": 20,
      ",": 21,
      "-": 22,
      ".": 23,
      "/": 24,
      "0": 25,
      "1": 26,
      "2": 27,
      "3": 28,
      "4": 29,
      "5": 30,
      "6": 31,
      "7": 32,
      "8": 33,
      "9": 34,
      ":": 35,
      ";": 36,
      "<": 37,
      "=": 38,
      ">": 39,
      "?": 40,
      "@": 41,
      "A": 42,
      "B": 43,
      "C": 44,
      "D": 45,
      "E": 46,
      "F": 47,
      "G": 48,
      "H": 49,
      "I": 50,
      "J": 51,
      "K": 52,
      "L": 53,
      "M": 54,
      "N": 55,
      "O": 56,
      "P": 57,
      "Q": 58,
      "R": 59,
      "S": 60,
      "T": 61,
      "U": 62,
      "V": 63,
      "W": 64,
      "X": 65,
      "Y": 66,
      "Z": 67,
      "[": 68,
      "\\": 69,
      "]": 70,
      "^": 71,
      "_": 72,
      "`": 73,
      "a": 74,
      "b": 75,
      "c": 76,
      "d": 77,
      "e": 78,
      "f": 79,
      "g": 80,
      "h": 81,
      "i": 82,
      "j": 83,
      "k": 84,
      "l": 85,
      "m": 86,
      "n": 87,
      "o": 88,
      "p": 89,
      "q": 90,
      "r": 91,
      "s": 92,
      "t": 93,
      "u": 94,
      "v": 95,
      "w": 96,
      "x": 97,
      "y": 98,
      "z": 99,
      "{": 100,
      "|": 101,
      "}": 102,
      "~": 103,
      "¡": 104,
      "¢": 105,
      "£": 106,
      "¤": 107,
      "¥": 108,
      "¦": 109,
      "§": 110,
      "¨": 111,
      "©": 112,
      "ª": 113,
      "«": 114,
      "¬": 115,
      "®": 116,
      "¯": 117,
      "°": 118,
      "±": 119,
      "²": 120,
      "³": 121,
      "´": 122,
      "µ": 123,
      "¶": 124,
      "·": 125,
      "¸": 126,
      "¹": 127,
      "º": 128,
      "»": 129,
      "¼": 130,
      "½": 131,
      "¾": 132,
      "¿": 133,
      "À": 134,
      "Á": 135,
      "Â": 136,
      "Ã": 137,
      "Ä": 138,
      "Å": 139,
      "Æ": 140,
      "Ç": 141,
      "È": 142,
      "É": 143,
      "Ê": 144,
      "Ë": 145,
      "Ì": 146,
      "Í": 147,
      "Î": 148,
      "Ï": 149,
      "Ð": 150,
      "Ñ": 151,
      "Ò": 152,
      "Ó": 153,
      "Ô": 154,
      "Õ": 155,
      "Ö": 156,
      "×": 157,
      "Ø": 158,
      "Ù": 159,
      "Ú": 160,
      "Û": 161,
      "Ü": 162,
      "Ý": 163,
      "Þ": 164,
      "ß": 165,
      "à": 166,
      "á": 167,
      "â": 168,
      "ã": 169,
      "ä": 170,
      "å": 171,
      "æ": 172,
      "ç": 173,
      "è": 174,
      "é": 175,
      "ê": 176,
      "ë": 177,
      "ì": 178,
      "í": 179,
      "î": 180,
      "ï": 181,
      "ð": 182,
      "ñ": 183,
      "ò": 184,
      "ó": 185,
      "ô": 186,
      "õ": 187,
      "ö": 188,
      "÷": 189,
      "ø": 190,
      "ù": 191,
      "ú": 192,
      "û": 193,
      "ü": 194,
      "ý": 195,
      "þ": 196,
      "ÿ": 197,
      "Ā": 198,
      "ā": 199,
      "Ă": 200,
      "ă": 201,
      "Ą": 202,
      "ą": 203,
      "Ć": 204,
      "ć": 205,
      "Ĉ": 206,
      "ĉ": 207,
      "Ċ": 208,
      "ċ": 209,
      "Č": 210,
      "č": 211,
      "Ď": 212,
      "ď": 213,
      "Đ": 214,
      "đ": 215,
      "Ē": 216,
      "ē": 217,
      "Ĕ": 218,
      "ĕ": 219,
      "Ė": 220,
      "ė": 221,
      "Ę": 222,
      "ę": 223,
      "Ě": 224,
      "ě": 225,
      "Ĝ": 226,
      "ĝ": 227,
      "Ğ": 228,
      "ğ": 229,
      "Ġ": 230,
      "ġ": 231,
      "Ģ": 232,
      "ģ": 233,
      "Ĥ": 234,
      "ĥ": 235,
      "Ħ": 236,
      "ħ": 237,
      "Ĩ": 238,
      "ĩ": 239,
      "Ī": 240,
      "ī": 241,
      "Ĭ": 242,
      "ĭ": 243,
      "Į": 244,
      "į": 245,
      "İ": 246,
      "ı": 247,
      "Ĳ": 248,
      "ĳ": 249,
      "Ĵ": 250,
      "ĵ": 251,
      "Ķ": 252,
      "ķ": 253,
      "ĸ": 254,
      "Ĺ": 255,
      "ĺ": 256,
      "Ļ": 257,
      "ļ": 258,
      "Ľ": 259,
      "ľ": 260,
      "Ŀ": 261,
      "ŀ": 262,
      "Ł": 263,
      "ł": 264,
      "Ń": 265,
      "Ġd": 266,
      "es": 267,
      "en": 268,
      "Ġa": 269,
      "Ġde": 270,
      "er": 271,
      "Ġl": 272,
      "Ġp": 273,
      "ta": 274,
      "Ġc": 275,
      "ar": 276,
      "qu": 277,
      "el": 278,
      "ci": 279,
      "an": 280,
      "Ġi": 281,
      "on": 282,
      "Ġs": 283,
      "re": 284,
      "or": 285,
      "al": 286,
      "Ġla": 287,
      "Ġm": 288,
      "un": 289,
      "Ġqu": 290,
      "Ġel": 291,
      "ti": 292,
      "čĊ": 293,
      "Ġque": 294,
      "Ã³": 295,
      "ent": 296,
      "at": 297,
      "Ġt": 298,
      "Ġf": 299,
      "Ġv": 300,
      "os": 301,
      "Ã©": 302,
      "om": 303,
      "in": 304,
      "Ġper": 305,
      "ol": 306,
      "Ġen": 307,
      "ra": 308,
      "is": 309,
      "Ġun": 310,
      "Ġn": 311,
      "Ãł": 312,
      "ri": 313,
      "Ġh": 314,
      "Ġes": 315,
      "ciÃ³": 316,
      "Ġdel": 317,
      "em": 318,
      "Ã©s": 319,
      "res": 320,
      "ic": 321,
      "tat": 322,
      "da": 323,
      "ro": 324,
      "mb": 325,
      "Ġal": 326,
      "Ã¨": 327,
      "ÃŃ": 328,
      "ĠC": 329,
      "it": 330,
      "Ġles": 331,
      "ons": 332,
      "ia": 333,
      "gu": 334,
      "Ġcom": 335,
      "Ġse": 336,
      "ix": 337,
      "la": 338,
      "Ġre": 339,
      "ment": 340,
      "ec": 341,
      "ot": 342,
      "as": 343,
      "Ġamb": 344,
      "Ã²": 345,
      "ĠP": 346,
      "Ġin": 347,
      "Ġels": 348,
      "us": 349,
      "ques": 350,
      "Ġb": 351,
      "ant": 352,
      "Ġg": 353,
      "Ġno": 354,
      "ĠE": 355,
      "ir": 356,
      "Ġcon": 357,
      "le": 358,
      "ĠA": 359,
      "va": 360,
      "ĠM": 361,
      "Ġha": 362,
      "Ġo": 363,
      "ĠS": 364,
      "li": 365,
      "Ġuna": 366,
      "ca": 367,
      "Ġpro": 368,
      "Ġe": 369,
      "ur": 370,
      "aciÃ³": 371,
      "ĠL": 372,
      "Ġva": 373,
      "Ġdi": 374,
      "tal": 375,
      "Ġca": 376,
      "tes": 377,
      "ul": 378,
      "Ġ2": 379,
      "Ġdes": 380,
      "di": 381,
      "ts": 382,
      "ĠÃ©s": 383,
      "si": 384,
      "Ġ1": 385,
      "ad": 386,
      "tar": 387,
      "tu": 388,
      "te": 389,
      "ĠB": 390,
      "oc": 391,
      "ĠD": 392,
      "Ġpar": 393,
      "ĠmÃ©s": 394,
      "ob": 395,
      "il": 396,
      "Ġj": 397,
      "cia": 398,
      "era": 399,
      "ĠT": 400,
      "Ġ(": 401,
      "tan": 402,
      "Ã§": 403,
      "als": 404,
      "eix": 405,
      "ter": 406,
      "ona": 407,
      "Ġan": 408,
      "mp": 409,
      "Ġdels": 410,
      "vi": 411,
      "ica": 412,
      "Ãº": 413,
      "et": 414,
      "ĠG": 415,
      "ran": 416,
      "cions": 417,
      "od": 418,
      "Ã¨n": 419,
      "ĠR": 420,
      "ma": 421,
      "ell": 422,
      "ĠF": 423,
      "Ġser": 424,
      "Ġaques": 425,
      "eu": 426,
      "up": 427,
      "Ġac": 428,
      "ver": 429,
      "itz": 430,
      "ig": 431,
      "emp": 432,
      "Ġtot": 433,
      "Ġ\"": 434,
      "tra": 435,
      "Ġex": 436,
      "ac": 437,
      "itat": 438,
      "any": 439,
      "eg": 440,
      "ab": 441,
      "..": 442,
      "ada": 443,
      "tin": 444,
      "Ġcomp": 445,
      "Ġ20": 446,
      "ĠV": 447,
      "se": 448,
      "tor": 449,
      "id": 450,
      "um": 451,
      "Ġres": 452,
      "ria": 453,
      "ĠJ": 454,
      "ĠI": 455,
      "bl": 456,
      "tr": 457,
      "du": 458,
      "Ġll": 459,
      "fer": 460,
      "Ã¨ncia": 461,
      "Â·": 462,
      "im": 463,
      "ici": 464,
      "ats": 465,
      "El": 466,
      "Ġmol": 467,
      "ĠN": 468,
      "ĠEl": 469,
      "ents": 470,
      "Ġr": 471,
      "ut": 472,
      "all": 473,
      "Ġrec": 474,
      "orm": 475,
      "Ġcons": 476,
      "entre": 477,
      "ins": 478,
      "ors": 479,
      "Ġfa": 480,
      "tic": 481,
      "Ġta": 482,
      "ass": 483,
      "ist": 484,
      "Ġesp": 485,
      "ves": 486,
      "Ġpre": 487,
      "Ġpod": 488,
      "Ã³n": 489,
      "Ġpres": 490,
      "Ġsi": 491,
      "Ġfer": 492,
      "de": 493,
      "cion": 494,
      "tats": 495,
      "tres": 496,
      "ari": 497,
      "âĢ": 498,
      "ens": 499,
      "00": 500,
      "ana": 501,
      "rim": 502,
      "ans": 503,
      "bre": 504,
      "Ġar": 505,
      "Ġpos": 506,
      "oci": 507,
      "Ġseu": 508,
      "ge": 509,
      "tant": 510,
      "op": 511,
      "rÃł": 512,
      "na": 513,
      "Ġvi": 514,
      "ĠCa": 515,
      "Ġtra": 516,
      "mbÃ©": 517,
      "Ġcap": 518,
      "ed": 519,
      "end": 520,
      "ades": 521,
      "ĠLa": 522,
      "ĠU": 523,
      "Ġhi": 524,
      "ort": 525,
      "ha": 526,
      "Ġpers": 527,
      "ill": 528,
      "ili": 529,
      "obre": 530,
      "Ġap": 531,
      "ys": 532,
      "arc": 533,
      "Ġob": 534,
      "ÃŃs": 535,
      "Ġseva": 536,
      "ord": 537,
      "me": 538,
      "ora": 539,
      "Ġals": 540,
      "Ġaquest": 541,
      "des": 542,
      "Ġten": 543,
      "tament": 544,
      "gra": 545,
      "tre": 546,
      "ina": 547,
      "Ġsen": 548,
      "ers": 549,
      "ss": 550,
      "Ġpr": 551,
      "Ġmolt": 552,
      "ones": 553,
      "Ġ201": 554,
      "Ġpa": 555,
      "Ġdis": 556,
      "Ġmat": 557,
      "Ġpel": 558,
      "tiu": 559,
      "ĠperÃ²": 560,
      "Ġparti": 561,
      "pos": 562,
      "iu": 563,
      "les": 564,
      "ga": 565,
      "enta": 566,
      "Ġimp": 567,
      "car": 568,
      "ĠH": 569,
      "Ġcar": 570,
      "Ã§a": 571,
      "Ġcas": 572,
      "La": 573,
      "Ġja": 574,
      "Ġma": 575,
      "per": 576,
      "ex": 577,
      "Ġsobre": 578,
      "Ã¯": 579,
      "ĠtambÃ©": 580,
      "una": 581,
      "ess": 582,
      "tica": 583,
      "Ġ-": 584,
      "ub": 585,
      "ĠEs": 586,
      "ven": 587,
      "Ġvan": 588,
      "Ġaix": 589,
      "jec": 590,
      "Ġvol": 591,
      "ya": 592,
      "ep": 593,
      "alitz": 594,
      "Ġnos": 595,
      "ten": 596,
      "Ġhan": 597,
      "ve": 598,
      "tÃł": 599,
      "rec": 600,
      "rib": 601,
      "Ġens": 602,
      "reb": 603,
      "eb": 604,
      "pr": 605,
      "Ġprim": 606,
      "cip": 607,
      "ista": 608,
      "Ġcos": 609,
      "Ġman": 610,
      "ble": 611,
      "lar": 612,
      "Ġentre": 613,
      "ĠEn": 614,
      "Ġter": 615,
      "alitat": 616,
      "iÃ³": 617,
      "tiva": 618,
      "au": 619,
      "ĠPer": 620,
      "Ġpass": 621,
      "cies": 622,
      "ener": 623,
      "siÃ³": 624,
      "rob": 625,
      "Es": 626,
      "Ġseg": 627,
      "Ġpot": 628,
      "lo": 629,
      "Ġ3": 630,
      "Ġinf": 631,
      "Ġnom": 632,
      "Ġesc": 633,
      "vol": 634,
      "orn": 635,
      "fic": 636,
      "Ġcol": 637,
      "uc": 638,
      "ĠsÃ³n": 639,
      "Ġanys": 640,
      "Ġcre": 641,
      "Ġon": 642,
      "Ġcan": 643,
      "gut": 644,
      "Ġpl": 645,
      "ita": 646,
      "Ġmar": 647,
      "20": 648,
      "quÃ¨": 649,
      "Ġaquesta": 650,
      "ĠCatal": 651,
      "Ġfor": 652,
      "av": 653,
      "am": 654,
      "Ġinter": 655,
      "aques": 656,
      "Ġtreb": 657,
      "ĠO": 658,
      "ai": 659,
      "gi": 660,
      "alment": 661,
      "gui": 662,
      "ura": 663,
      "Ġfins": 664,
      "par": 665,
      "Ġgran": 666,
      "ni": 667,
      "Ġsup": 668,
      "esti": 669,
      "arÃł": 670,
      "pl": 671,
      "ure": 672,
      "ament": 673,
      "qui": 674,
      "tir": 675,
      "Ã¨s": 676,
      "Ġ19": 677,
      "Ġsoci": 678,
      "pi": 679,
      "Ġsol": 680,
      "Ġpor": 681,
      "gun": 682,
      "Ġmes": 683,
      "Ġpol": 684,
      "ĠMar": 685,
      "Ġlli": 686,
      "til": 687,
      "Ġins": 688,
      "ĠperquÃ¨": 689,
      "rer": 690,
      "Ġtemp": 691,
      "og": 692,
      "prÃ©s": 693,
      "Ġtrob": 694,
      "Ġdia": 695,
      "tura": 696,
      "blic": 697,
      "tit": 698,
      "Ġfin": 699,
      "Ġdon": 700,
      "urant": 701,
      "arcel": 702,
      "sos": 703,
      "min": 704,
      "Qu": 705,
      "\".": 706,
      "Ġem": 707,
      "ug": 708,
      "Ġquan": 709,
      "unya": 710,
      "En": 711,
      "Ġmateix": 712,
      "ota": 713,
      "...": 714,
      "essi": 715,
      "Ãºs": 716,
      "Ġciu": 717,
      "),": 718,
      "Ġcor": 719,
      "ants": 720,
      "Ã¼": 721,
      "Ġab": 722,
      "ren": 723,
      "via": 724,
      "Ġsegu": 725,
      ").": 726,
      "esc": 727,
      "ĠCom": 728,
      "Ġpu": 729,
      "int": 730,
      "hi": 731,
      "atge": 732,
      "vis": 733,
      "fici": 734,
      "Ġrep": 735,
      "Ġad": 736,
      "Ġmill": 737,
      "ĠCatalunya": 738,
      "ĠAl": 739,
      "Ġfet": 740,
      "ema": 741,
      "arcelona": 742,
      "jun": 743,
      "cional": 744,
      "duc": 745,
      "ena": 746,
      "ola": 747,
      "egu": 748,
      "Ġtots": 749,
      "titu": 750,
      "rat": 751,
      "Ġpart": 752,
      "Ġdem": 753,
      "Ġpersones": 754,
      "Ġcontra": 755,
      "Ãłn": 756,
      "enci": 757,
      "Ġtreball": 758,
      "Ġx": 759,
      "Ġrel": 760,
      "ges": 761,
      "Ġaf": 762,
      "Ġor": 763,
      "ĠestÃł": 764,
      "Ġconc": 765,
      "pa": 766,
      "Ġgu": 767,
      "dor": 768,
      "ÃŃn": 769,
      "Ġcal": 770,
      "Ġdifer": 771,
      "âĢĵ": 772,
      "Ġinc": 773,
      "itu": 774,
      "Ġni": 775,
      "ĠaixÃ²": 776,
      "Ġestat": 777,
      "Ġtan": 778,
      "rup": 779,
      "\",": 780,
      "Ġ|": 781,
      "Ġass": 782,
      "Ġform": 783,
      "Ã²ria": 784,
      "Ġesta": 785,
      "Ġ4": 786,
      "Ġset": 787,
      "ES": 788,
      "Ġho": 789,
      "ĠBarcelona": 790,
      "embre": 791,
      "que": 792,
      "Ġli": 793,
      "ĠIn": 794,
      "Ġmen": 795,
      "ĠÂ": 796,
      "Ãłria": 797,
      "Ġent": 798,
      "Ġmun": 799,
      "Ġcomen": 800,
      "gan": 801,
      "ics": 802,
      "Ġveu": 803,
      "Ġseus": 804,
      "itj": 805,
      "leg": 806,
      "Ġvis": 807,
      "Ġsense": 808,
      "vern": 809,
      "Ġdos": 810,
      "tivi": 811,
      "taciÃ³": 812,
      "Ġtin": 813,
      "ior": 814,
      "Ġlloc": 815,
      "ĠtÃ©": 816,
      "ing": 817,
      "men": 818,
      "ĠNo": 819,
      "ments": 820,
      "Ġcada": 821,
      "ĠdesprÃ©s": 822,
      "Ġ5": 823,
      "ert": 824,
      "ric": 825,
      "Ġemp": 826,
      "Ġgener": 827,
      "Ġaltres": 828,
      "ella": 829,
      "ud": 830,
      "Ġprojec": 831,
      "Ġresp": 832,
      "ular": 833,
      "Ġnec": 834,
      "Ġarrib": 835,
      "its": 836,
      "met": 837,
      "ĠquÃ¨": 838,
      "sa": 839,
      "Ġve": 840,
      "tim": 841,
      "Ġmo": 842,
      "ĠÃ": 843,
      "isme": 844,
      "Ġcatal": 845,
      "Ġdurant": 846,
      "Ġme": 847,
      "ula": 848,
      "aix": 849,
      "esp": 850,
      "aran": 851,
      "Ġsor": 852,
      "Ġval": 853,
      "and": 854,
      "oni": 855,
      "tis": 856,
      "rans": 857,
      "tius": 858,
      "Ġfe": 859,
      "Ġsal": 860,
      "Ġtal": 861,
      "erra": 862,
      "ĠpÃº": 863,
      "fi": 864,
      "Ġ'": 865,
      "ement": 866,
      "Ġcontin": 867,
      "Ġserve": 868,
      "overn": 869,
      "ja": 870,
      "Ġmal": 871,
      "ilitat": 872,
      "Ã¡": 873,
      "anya": 874,
      "ĠX": 875,
      "Ġparticip": 876,
      "Ġpun": 877,
      "Ġmanera": 878,
      "ui": 879,
      "Ġco": 880,
      "ret": 881,
      "Â»": 882,
      "Ġtant": 883,
      "Ġpla": 884,
      "ls": 885,
      "ĠAn": 886,
      "cara": 887,
      "ĠpolÃŃ": 888,
      "Ġdirec": 889,
      "ador": 890,
      "Ġav": 891,
      "ĠnomÃ©s": 892,
      "Ġprof": 893,
      "osa": 894,
      "Ġmillor": 895,
      "ĠSant": 896,
      "Ġprimer": 897,
      "Ġfam": 898,
      "Ġjo": 899,
      "Ãłs": 900,
      "ĠĠ": 901,
      "ĠUn": 902,
      "ard": 903,
      "rem": 904,
      "urs": 905,
      "Ġpe": 906,
      "dic": 907,
      "Ġara": 908,
      "quip": 909,
      "acions": 910,
      "Ġalgun": 911,
      "Ġaqu": 912,
      "tiques": 913,
      "ap": 914,
      "ĠJo": 915,
      "Ġtemps": 916,
      "ib": 917,
      "reu": 918,
      "Ġver": 919,
      "Ġqual": 920,
      "âĢ¦": 921,
      "tac": 922,
      "ho": 923,
      "Ġdeix": 924,
      "ont": 925,
      "ag": 926,
      "Ġas": 927,
      "ĠEls": 928,
      "Ġquals": 929,
      "juntament": 930,
      "oca": 931,
      "ll": 932,
      "Ã¨ncies": 933,
      "iciÃ³": 934,
      "rar": 935,
      "inc": 936,
      "Ġproc": 937,
      "eci": 938,
      "Ġveg": 939,
      "Ġinform": 940,
      "ĠQu": 941,
      "he": 942,
      "Ġdesc": 943,
      "cab": 944,
      "Ġdiver": 945,
      "Ġsec": 946,
      "istes": 947,
      "Ã²n": 948,
      "Ġfun": 949,
      "Ġcomun": 950,
      "Ġcul": 951,
      "han": 952,
      "Ġus": 953,
      "Ġsitu": 954,
      "ĠÂ«": 955,
      "Ġofer": 956,
      "Al": 957,
      "Ġdef": 958,
      "Ġreg": 959,
      "ĠâĢĵ": 960,
      "Els": 961,
      "Ġdu": 962,
      "Ġdir": 963,
      "Ġ6": 964,
      "ells": 965,
      "Ġactu": 966,
      "Ġforma": 967,
      "cid": 968,
      "Ġtrac": 969,
      "Per": 970,
      "aris": 971,
      "Ġvida": 972,
      "ries": 973,
      "fica": 974,
      "Ġpob": 975,
      "ns": 976,
      "eixen": 977,
      "ganitz": 978,
      "Ġcr": 979,
      "anc": 980,
      "Ġtrans": 981,
      "lia": 982,
      "ĠaixÃŃ": 983,
      "altres": 984,
      "īs": 985,
      "Ġgrup": 986,
      "ores": 987,
      "Ġmom": 988,
      "Ġperson": 989,
      "Ã²m": 990,
      "eny": 991,
      "ER": 992,
      "Ġben": 993,
      "eta": 994,
      "xa": 995,
      "ost": 996,
      "Ġciutat": 997,
      "for": 998,
      "ĠAques": 999,
      "Ġra": 1000,
      "Ġencara": 1001,
      "incip": 1002,
      "anes": 1003,
      "Ġmitj": 1004,
      "Ġexpl": 1005,
      "Ġdiferents": 1006,
      "emb": 1007,
      "fec": 1008,
      "Ġhem": 1009,
      "cat": 1010,
      "Ġnou": 1011,
      "anda": 1012,
      "esta": 1013,
      "gua": 1014,
      "Ġera": 1015,
      "ori": 1016,
      "atre": 1017,
      "tad": 1018,
      "Ġte": 1019,
      "Ġpossi": 1020,
      "Ġpas": 1021,
      "por": 1022,
      "Ġw": 1023,
      "Ġpoder": 1024,
      "19": 1025,
      "ĠW": 1026,
      "Ġcent": 1027,
      "uro": 1028,
      "Ġ9": 1029,
      "eri": 1030,
      "Ġveure": 1031,
      "empre": 1032,
      "nes": 1033,
      "ural": 1034,
      "Ġprogra": 1035,
      "Ġsub": 1036,
      "Ġam": 1037,
      "Ġtenir": 1038,
      "Ġtotes": 1039,
      "endre": 1040,
      "resa": 1041,
      "bor": 1042,
      "Ġtorn": 1043,
      "ĠCar": 1044,
      "truc": 1045,
      "tics": 1046,
      "duca": 1047,
      "ĠbÃ©": 1048,
      "ou": 1049,
      "Ãłr": 1050,
      "Ġ200": 1051,
      "lic": 1052,
      "Ġtres": 1053,
      "Ġmunici": 1054,
      "Ġproduc": 1055,
      "Ġ10": 1056,
      "mes": 1057,
      "Ġsab": 1058,
      "Ġhist": 1059,
      "Ġprimera": 1060,
      "bles": 1061,
      "Ġim": 1062,
      "oll": 1063,
      "Ġprincip": 1064,
      "ĠCon": 1065,
      "Ġmin": 1066,
      "ida": 1067,
      "Ġcla": 1068,
      "vid": 1069,
      "Ġpoden": 1070,
      "Ġcamp": 1071,
      "jor": 1072,
      "ĠCons": 1073,
      "jar": 1074,
      "Ġsin": 1075,
      "....": 1076,
      "ne": 1077,
      "Ġpo": 1078,
      "form": 1079,
      "Ġbar": 1080,
      "ines": 1081,
      "Ã§ar": 1082,
      "alla": 1083,
      "omp": 1084,
      "Ġop": 1085,
      "Ġlle": 1086,
      "var": 1087,
      "Ã¨c": 1088,
      "ru": 1089,
      "ĠÃº": 1090,
      "ĠDi": 1091,
      "ĠmÃ³n": 1092,
      "ĠCas": 1093,
      "Ġloc": 1094,
      "Ġqui": 1095,
      "Ġseves": 1096,
      "ixer": 1097,
      "Ġcel": 1098,
      "Ġrealitz": 1099,
      "Ġpassat": 1100,
      "Ġ7": 1101,
      "Ġ0": 1102,
      "mar": 1103,
      "Ġespeci": 1104,
      "ĠRe": 1105,
      "ĠmÃł": 1106,
      "ien": 1107,
      "Ġest": 1108,
      "tilitz": 1109,
      "anta": 1110,
      "Ġhab": 1111,
      "Ġet": 1112,
      "Ġti": 1113,
      "Ġbas": 1114,
      "Ġacab": 1115,
      "avant": 1116,
      "Ġhavia": 1117,
      "Ġsempre": 1118,
      "if": 1119,
      "Ġto": 1120,
      "Ġju": 1121,
      "Ġint": 1122,
      "ĠPar": 1123,
      "tives": 1124,
      "cal": 1125,
      "Ġmoment": 1126,
      "Ġuns": 1127,
      "Ġcanvi": 1128,
      "000": 1129,
      "Ġsetm": 1130,
      "econ": 1131,
      "ĠK": 1132,
      "Ġ8": 1133,
      "ars": 1134,
      "uÃ¯": 1135,
      "Ġimpor": 1136,
      "Ġprojecte": 1137,
      "uciÃ³": 1138,
      "201": 1139,
      "tors": 1140,
      "Ġpropos": 1141,
      "terior": 1142,
      "enti": 1143,
      "envol": 1144,
      "pe": 1145,
      "ĠLes": 1146,
      "etat": 1147,
      "aquest": 1148,
      "Ġacc": 1149,
      "emes": 1150,
      "ĠDes": 1151,
      "ust": 1152,
      "ÃŃc": 1153,
      "ira": 1154,
      "onsegu": 1155,
      "ser": 1156,
      "qÃ¼": 1157,
      "utilitz": 1158,
      "Ġmod": 1159,
      "Ġcer": 1160,
      "uny": 1161,
      "Ġdies": 1162,
      "dre": 1163,
      "tants": 1164,
      "entaciÃ³": 1165,
      "ĠpÃºblic": 1166,
      "versi": 1167,
      "adors": 1168,
      "Ġ18": 1169,
      "ĠDE": 1170,
      "Ġmos": 1171,
      "Ġneg": 1172,
      "ĠAr": 1173,
      "envolup": 1174,
      "ĠLl": 1175,
      "guin": 1176,
      "Ġdonar": 1177,
      "entar": 1178,
      "Ġsocial": 1179,
      "ĠVal": 1180,
      "Ġoc": 1181,
      "tudi": 1182,
      "Ġgovern": 1183,
      "cs": 1184,
      "Ġdues": 1185,
      "ĠGener": 1186,
      "evol": 1187,
      "esa": 1188,
      "Ġdiss": 1189,
      "vÃ©s": 1190,
      "ures": 1191,
      "atges": 1192,
      "dia": 1193,
      "Ġdavant": 1194,
      "rip": 1195,
      "Ġelec": 1196,
      "Ġnostre": 1197,
      "Ġpens": 1198,
      "lla": 1199,
      "dar": 1200,
      "iv": 1201,
      "Ġnostra": 1202,
      "In": 1203,
      "Ġapro": 1204,
      "ber": 1205,
      "Ġcasa": 1206,
      "Ġ/": 1207,
      "ient": 1208,
      "AR": 1209,
      "Ġz": 1210,
      "Ġaj": 1211,
      "olog": 1212,
      "igu": 1213,
      "teix": 1214,
      "no": 1215,
      "Ġgent": 1216,
      "Ajuntament": 1217,
      "Ġpresid": 1218,
      "tell": 1219,
      "Ġcop": 1220,
      "aquesta": 1221,
      "Ġri": 1222,
      "tori": 1223,
      "Ġfot": 1224,
      "Ġany": 1225,
      "est": 1226,
      "Ġdoc": 1227,
      "blica": 1228,
      "Ġsuper": 1229,
      "segu": 1230,
      "Ġrepres": 1231,
      "Ġ15": 1232,
      "Ġmajor": 1233,
      "ull": 1234,
      "gar": 1235,
      "ĠtravÃ©s": 1236,
      "Ġespany": 1237,
      "Ġpels": 1238,
      "otel": 1239,
      "Ġcontinu": 1240,
      "ses": 1241,
      "Ġcosa": 1242,
      "Ġtenen": 1243,
      "ĠSal": 1244,
      "Ġtota": 1245,
      "Aques": 1246,
      "Ġactivi": 1247,
      "ĠÃīs": 1248,
      "Ġceleb": 1249,
      "Ġconf": 1250,
      "Ġresul": 1251,
      "Ġtar": 1252,
      "lec": 1253,
      "Ġnova": 1254,
      "val": 1255,
      "dat": 1256,
      "Ġllar": 1257,
      "Ġestan": 1258,
      "cil": 1259,
      "com": 1260,
      "vell": 1261,
      "Ġsigui": 1262,
      "icaciÃ³": 1263,
      "ĠDe": 1264,
      "Ã³s": 1265,
      "AT": 1266,
      "Ġdesenvolup": 1267,
      "Ġaconsegu": 1268,
      "Ġorganitz": 1269,
      "Ġabans": 1270,
      "ron": 1271,
      "dors": 1272,
      "Ġpermet": 1273,
      "pend": 1274,
      "laciÃ³": 1275,
      "ĠfamÃŃ": 1276,
      "AN": 1277,
      "ĠVi": 1278,
      "Ġag": 1279,
      "ĠinformaciÃ³": 1280,
      "Ġaquests": 1281,
      "ols": 1282,
      "anÃ§": 1283,
      "rada": 1284,
      "gat": 1285,
      "los": 1286,
      "eria": 1287,
      "Ġreb": 1288,
      "diciÃ³": 1289,
      "ĠMa": 1290,
      "Les": 1291,
      "Ġmunicip": 1292,
      "AL": 1293,
      "Ã²g": 1294,
      "lus": 1295,
      "Ġy": 1296,
      "Ġmant": 1297,
      "Ġvos": 1298,
      "Ġvaig": 1299,
      "Ġbanda": 1300,
      "Ġprop": 1301,
      "eres": 1302,
      "Ġpoc": 1303,
      "ĠJos": 1304,
      "Ġdades": 1305,
      "Ġresta": 1306,
      "Ġnecessi": 1307,
      "ules": 1308,
      "iss": 1309,
      "Ġsist": 1310,
      "ĠFran": 1311,
      "CI": 1312,
      "ĠAix": 1313,
      "Ġ12": 1314,
      "ĠEsp": 1315,
      "Ġnostres": 1316,
      "arra": 1317,
      "able": 1318,
      "ession": 1319,
      "Ġdec": 1320,
      "EN": 1321,
      "Ġprem": 1322,
      "Ġdar": 1323,
      "ĠSi": 1324,
      "ambÃ©": 1325,
      "Ġprobl": 1326,
      "uros": 1327,
      "ĠPro": 1328,
      "ĠÃł": 1329,
      "Ġfinal": 1330,
      "ero": 1331,
      "Ġqualsevol": 1332,
      "ĠserÃł": 1333,
      "ologia": 1334,
      "anÃ§a": 1335,
      "estiÃ³": 1336,
      "Ġserveis": 1337,
      "erci": 1338,
      "Ġnecess": 1339,
      "Ġbaix": 1340,
      "rica": 1341,
      "Ar": 1342,
      "Ġcont": 1343,
      "ĠGu": 1344,
      "Ġporta": 1345,
      "Ġdispos": 1346,
      "co": 1347,
      "citat": 1348,
      "Ġall": 1349,
      "icia": 1350,
      "Ġaut": 1351,
      "ON": 1352,
      "Ġweb": 1353,
      "Ġexc": 1354,
      "istra": 1355,
      "ril": 1356,
      "!!": 1357,
      "Ã±": 1358,
      "Ġmili": 1359,
      "umen": 1360,
      "xi": 1361,
      "Ġsig": 1362,
      "uts": 1363,
      "21": 1364,
      "elles": 1365,
      "Ġconver": 1366,
      "Ġutilitz": 1367,
      "Ġcu": 1368,
      "Ġgra": 1369,
      "Ġpartir": 1370,
      "Ġcomple": 1371,
      "Ġrefer": 1372,
      "pu": 1373,
      "ros": 1374,
      "Ġsegons": 1375,
      "jo": 1376,
      "Ġecon": 1377,
      "pus": 1378,
      "Ġapar": 1379,
      "bilitat": 1380,
      "Ġhores": 1381,
      "Ġempres": 1382,
      "Ġhom": 1383,
      "Ġmolts": 1384,
      "ĠPerÃ²": 1385,
      "trat": 1386,
      "OR": 1387,
      "atura": 1388,
      "Ġtrobar": 1389,
      "rom": 1390,
      "Un": 1391,
      "af": 1392,
      "Ġclar": 1393,
      "Ġtel": 1394,
      "Ġpri": 1395,
      "Ġanar": 1396,
      "Ġpunt": 1397,
      "Ġservei": 1398,
      "Ã¨ixer": 1399,
      "Ġexper": 1400,
      "ern": 1401,
      "ots": 1402,
      "Ġsetmana": 1403,
      "Ġequip": 1404,
      "Ġide": 1405,
      "Ġ17": 1406,
      "tec": 1407,
      "ogra": 1408,
      "Ġhum": 1409,
      "edi": 1410,
      "Ġconsid": 1411,
      "taris": 1412,
      "Ġdins": 1413,
      "Ġbona": 1414,
      "Ġarribar": 1415,
      "Ġnov": 1416,
      "gn": 1417,
      "reta": 1418,
      "An": 1419,
      "Ġalg": 1420,
      "tals": 1421,
      "Ġdiu": 1422,
      "pres": 1423,
      "Ãłncia": 1424,
      "xim": 1425,
      "Ġven": 1426,
      "Ġvegada": 1427,
      "depend": 1428,
      "Ġescol": 1429,
      "Ã²s": 1430,
      "Ġau": 1431,
      "gon": 1432,
      "hom": 1433,
      "Ġcl": 1434,
      "Ġpeti": 1435,
      "Ġpat": 1436,
      "Ġjug": 1437,
      "ĠJoan": 1438,
      "aud": 1439,
      "voc": 1440,
      "Ġexemp": 1441,
      "ava": 1442,
      "Ġmet": 1443,
      "Ġcompar": 1444,
      "Ġcontr": 1445,
      "gl": 1446,
      "itats": 1447,
      "No": 1448,
      "Ġhe": 1449,
      "ĠprÃ²": 1450,
      "ĠpaÃŃs": 1451,
      "Ġref": 1452,
      "Ġro": 1453,
      "pec": 1454,
      "dis": 1455,
      "gin": 1456,
      "ral": 1457,
      "ĠAmb": 1458,
      "30": 1459,
      "Ġ14": 1460,
      "cer": 1461,
      "Ġat": 1462,
      "ww": 1463,
      "ĠhistÃ²ria": 1464,
      "sions": 1465,
      "Ġtipus": 1466,
      "Ġcam": 1467,
      "Ġdisc": 1468,
      "art": 1469,
      "Ġcentre": 1470,
      "Ġcli": 1471,
      "Ġprofession": 1472,
      "Com": 1473,
      "rets": 1474,
      "Ãºsica": 1475,
      "Ġrela": 1476,
      "aqu": 1477,
      "jectiu": 1478,
      "vers": 1479,
      "quen": 1480,
      "tia": 1481,
      "ions": 1482,
      "Ġpartit": 1483,
      "Ġposar": 1484,
      "Ġbon": 1485,
      "Ġinstal": 1486,
      "Ġrespons": 1487,
      "Ġfut": 1488,
      "ltim": 1489,
      "vesti": 1490,
      "Ġtotal": 1491,
      "Ġciutad": 1492,
      "ĠeconÃ²m": 1493,
      "Ġaquestes": 1494,
      "Ġestar": 1495,
      "isi": 1496,
      "Ġna": 1497,
      "Ġimportant": 1498,
      "uda": 1499,
      "Ġrecon": 1500,
      "Ġconeix": 1501,
      "ces": 1502,
      "Ġaltra": 1503,
      "Ġrespec": 1504,
      "Ġcri": 1505,
      "els": 1506,
      "cis": 1507,
      "iter": 1508,
      "tubre": 1509,
      "Ġgrans": 1510,
      "vat": 1511,
      "Ġmenys": 1512,
      "Ġdona": 1513,
      "Ġllen": 1514,
      "ĠSer": 1515,
      "Ġprograma": 1516,
      "ordin": 1517,
      "Ã¨m": 1518,
      "Ġpropi": 1519,
      "ĠsinÃ³": 1520,
      "Ġprom": 1521,
      "Ġaltre": 1522,
      "Ġbus": 1523,
      "aria": 1524,
      "Ġmer": 1525,
      "Ġ[": 1526,
      "labor": 1527,
      "Ġserv": 1528,
      "ĠsituaciÃ³": 1529,
      "Ġfan": 1530,
      "ÃŃa": 1531,
      "iÃ¨ncia": 1532,
      "Ãłries": 1533,
      "Ġsuport": 1534,
      "Ġexplic": 1535,
      "Ġcurs": 1536,
      "nos": 1537,
      "ĠJa": 1538,
      "illa": 1539,
      "Ġalguns": 1540,
      "Ġfaci": 1541,
      "rig": 1542,
      "Ġ13": 1543,
      "ministra": 1544,
      "Ġrecord": 1545,
      "Ġguany": 1546,
      "Ġdin": 1547,
      "ĠCal": 1548,
      "ano": 1549,
      "ĠUni": 1550,
      "ch": 1551,
      "ies": 1552,
      "retat": 1553,
      "Ġmanten": 1554,
      "rir": 1555,
      "Ġ16": 1556,
      "ublic": 1557,
      "Ġespec": 1558,
      "Ġllibre": 1559,
      "gues": 1560,
      "ducaciÃ³": 1561,
      "Des": 1562,
      "Ġpresident": 1563,
      "Ġcapa": 1564,
      "Ġmor": 1565,
      "Ġobli": 1566,
      "ĠfÃł": 1567,
      "Â´": 1568,
      "Ġdeman": 1569,
      "Ġsistema": 1570,
      "ĠMon": 1571,
      "Ġpossible": 1572,
      "Ġ11": 1573,
      "uper": 1574,
      "lu": 1575,
      "nica": 1576,
      "mat": 1577,
      "ficaciÃ³": 1578,
      "ĠprocÃ©s": 1579,
      "ine": 1580,
      "ĠsÃŃ": 1581,
      "raciÃ³": 1582,
      "unci": 1583,
      "olÃ²g": 1584,
      "unt": 1585,
      "ĠcatalÃł": 1586,
      "do": 1587,
      "Ġescri": 1588,
      "Ġcarrer": 1589,
      "tivitat": 1590,
      "Ġassegu": 1591,
      "of": 1592,
      "Ġcur": 1593,
      "ĠGeneralitat": 1594,
      "Ġcoses": 1595,
      "Ã¡n": 1596,
      "ĠtÃ¨c": 1597,
      "Ġdesp": 1598,
      "ĠBar": 1599,
      "Ġunes": 1600,
      "gia": 1601,
      "ĠLle": 1602,
      "Ġactivitats": 1603,
      "eren": 1604,
      "Ġsan": 1605,
      "omia": 1606,
      "acte": 1607,
      "elec": 1608,
      "Ġtreballa": 1609,
      "Ġdones": 1610,
      "uns": 1611,
      "ciona": 1612,
      "terna": 1613,
      "ĠpolÃŃtica": 1614,
      "Ġagra": 1615,
      "versitat": 1616,
      "ĠTambÃ©": 1617,
      "Ġdefens": 1618,
      "rÃłcies": 1619,
      "dica": 1620,
      "Ġlleg": 1621,
      "vant": 1622,
      "Ġgaud": 1623,
      "tada": 1624,
      "asc": 1625,
      "Ġgeneral": 1626,
      "ĠUna": 1627,
      "ual": 1628,
      "ordi": 1629,
      "rÃłc": 1630,
      "Ġofereix": 1631,
      "Ġmoltes": 1632,
      "imp": 1633,
      "teg": 1634,
      "Ġhaver": 1635,
      "entat": 1636,
      "Ġsent": 1637,
      "ĠGir": 1638,
      "Ġsu": 1639,
      "alitzaciÃ³": 1640,
      "rera": 1641,
      "onar": 1642,
      "teri": 1643,
      "orre": 1644,
      "Ġtracta": 1645,
      "IC": 1646,
      "ĠlÃŃ": 1647,
      "Ġmus": 1648,
      "embla": 1649,
      "Ġpublic": 1650,
      "Ġvalor": 1651,
      "odi": 1652,
      "irÃł": 1653,
      "Ġtempor": 1654,
      "oria": 1655,
      "vaciÃ³": 1656,
      "forma": 1657,
      "ĠCol": 1658,
      "hora": 1659,
      "ĠPla": 1660,
      "equip": 1661,
      "Ġinici": 1662,
      "emÃł": 1663,
      "Ġlla": 1664,
      "Ġvam": 1665,
      "Ġterme": 1666,
      "Ġafec": 1667,
      "Ġxar": 1668,
      "ĠcomenÃ§ar": 1669,
      "ĠCan": 1670,
      "eca": 1671,
      "enc": 1672,
      "actu": 1673,
      "ĠPu": 1674,
      "ala": 1675,
      "Ġ30": 1676,
      "Ġmentre": 1677,
      "Ġ,": 1678,
      "Ġbl": 1679,
      "iment": 1680,
      "assa": 1681,
      "vin": 1682,
      "Ġestudi": 1683,
      "bres": 1684,
      "Ġcaus": 1685,
      "Ġsom": 1686,
      "unda": 1687,
      "nic": 1688,
      "cionals": 1689,
      "xes": 1690,
      "ĠMan": 1691,
      "Ġcompany": 1692,
      "alta": 1693,
      "Ãłg": 1694,
      "10": 1695,
      "ĠPa": 1696,
      "ini": 1697,
      "Ġinteress": 1698,
      "dio": 1699,
      "Ġmai": 1700,
      "Ġpara": 1701,
      "Ġllarg": 1702,
      "umnes": 1703,
      "Ġdecid": 1704,
      "Ġpassar": 1705,
      "man": 1706,
      "isc": 1707,
      "Ġquatre": 1708,
      "gual": 1709,
      "Ġdif": 1710,
      "dicions": 1711,
      "Ġreun": 1712,
      "Ġur": 1713,
      "tida": 1714,
      "reg": 1715,
      "ĠprÃłc": 1716,
      "Ġzona": 1717,
      "ĠEuro": 1718,
      "ĠGovern": 1719,
      "Ġ25": 1720,
      "ĠMun": 1721,
      "Ġespanyol": 1722,
      "urÃł": 1723,
      "lacions": 1724,
      "Ġmateixa": 1725,
      "âĢĶ": 1726,
      "Ġeuros": 1727,
      "amb": 1728,
      "Ġren": 1729,
      "inter": 1730,
      "Ġpen": 1731,
      "irc": 1732,
      "ĠConsell": 1733,
      "aigua": 1734,
      "ĠTot": 1735,
      "Ġinten": 1736,
      "Ã¨r": 1737,
      "Ġpoble": 1738,
      "ĠmarÃ§": 1739,
      "itzaciÃ³": 1740,
      "ĠJosep": 1741,
      "Ġcat": 1742,
      "Ġmesos": 1743,
      "tur": 1744,
      "ritori": 1745,
      "ĠAquest": 1746,
      "Ġmeu": 1747,
      "ĠAc": 1748,
      "Ġindepend": 1749,
      "Ġqualitat": 1750,
      "ĠcÃłr": 1751,
      "Ġsocials": 1752,
      "Ġsentit": 1753,
      "drÃł": 1754,
      "Ġleg": 1755,
      "ara": 1756,
      "tima": 1757,
      "uls": 1758,
      "visiÃ³": 1759,
      "pia": 1760,
      "Ġpersona": 1761,
      "let": 1762,
      "ris": 1763,
      "Ġexemple": 1764,
      "Ġtur": 1765,
      "Ã©n": 1766,
      "Ġavui": 1767,
      "ements": 1768,
      "tru": 1769,
      "ociaciÃ³": 1770,
      "opular": 1771,
      "Ġden": 1772,
      "rac": 1773,
      "ĠJu": 1774,
      "ĠSoci": 1775,
      "Ġfem": 1776,
      "ĠPal": 1777,
      "Ġcin": 1778,
      "Ġmaig": 1779,
      "Ġsetembre": 1780,
      "ĠPol": 1781,
      "ov": 1782,
      "ode": 1783,
      "ez": 1784,
      "rid": 1785,
      "Ġinterna": 1786,
      "ĠformaciÃ³": 1787,
      "tt": 1788,
      "Ġprodu": 1789,
      "orma": 1790,
      "Ġfill": 1791,
      "Ġpersonal": 1792,
      "antil": 1793,
      "ĠfÃłcil": 1794,
      "Ġmig": 1795,
      "ĠmÃºsica": 1796,
      "Ġfil": 1797,
      "Ġgai": 1798,
      "Ġpodem": 1799,
      "Ġbo": 1800,
      "ĠfamÃŃlia": 1801,
      "ĠGirona": 1802,
      "Ġil": 1803,
      "Ġdiv": 1804,
      "Ġefec": 1805,
      "Ġtenim": 1806,
      "oma": 1807,
      "Ġnat": 1808,
      "Ġdirector": 1809,
      "Ġfent": 1810,
      "tural": 1811,
      "octubre": 1812,
      "ÃŃt": 1813,
      "und": 1814,
      "Ġjuny": 1815,
      "tot": 1816,
      "ps": 1817,
      "Ġfran": 1818,
      "Ġmanif": 1819,
      "Ġdeixar": 1820,
      "issiÃ³": 1821,
      "omen": 1822,
      "omb": 1823,
      "liol": 1824,
      "entari": 1825,
      "Ġne": 1826,
      "Ġmica": 1827,
      "Una": 1828,
      "vista": 1829,
      "Ġdist": 1830,
      "uit": 1831,
      "Esp": 1832,
      "quer": 1833,
      "lament": 1834,
      "II": 1835,
      "Ġ21": 1836,
      "ĠVall": 1837,
      "uen": 1838,
      "Si": 1839,
      "Ġsa": 1840,
      "Ġempreses": 1841,
      "Ġ2019": 1842,
      "Ġvisi": 1843,
      "11": 1844,
      "ÃĢ": 1845,
      "Ġtri": 1846,
      "acc": 1847,
      "Ġpregun": 1848,
      "//": 1849,
      "ĠCo": 1850,
      "fia": 1851,
      "erg": 1852,
      "Ġdiversos": 1853,
      "ÃŃcia": 1854,
      "âĢ¢": 1855,
      "Ġmon": 1856,
      "Ġnosaltres": 1857,
      "Ġsembla": 1858,
      "ecn": 1859,
      "Ġdesta": 1860,
      "Ġplant": 1861,
      "ides": 1862,
      "Ġnivell": 1863,
      "Ġell": 1864,
      "Ġpunts": 1865,
      "lica": 1866,
      "ĠrelaciÃ³": 1867,
      "IN": 1868,
      "hab": 1869,
      "Ġprepar": 1870,
      "Ġclas": 1871,
      "Ġmi": 1872,
      "dem": 1873,
      "eti": 1874,
      "Ġmateri": 1875,
      "ĠZ": 1876,
      "ticle": 1877,
      "ebrer": 1878,
      "Ġsegona": 1879,
      "://": 1880,
      "ata": 1881,
      "ani": 1882,
      "Ġmilions": 1883,
      "Ġimm": 1884,
      "ĠY": 1885,
      "erm": 1886,
      "oli": 1887,
      "hotel": 1888,
      "Ġmarc": 1889,
      "Ã¨x": 1890,
      "ĠĠĠĠ": 1891,
      "Ġindi": 1892,
      "ĠJordi": 1893,
      "ĠaquÃŃ": 1894,
      "ompany": 1895,
      "Ġcompte": 1896,
      "ÃŃem": 1897,
      "Ġjoc": 1898,
      "con": 1899,
      "Ġsocietat": 1900,
      "Ġafeg": 1901,
      "endres": 1902,
      "Ġconjun": 1903,
      "Ġdiverses": 1904,
      "EL": 1905,
      "ion": 1906,
      "ere": 1907,
      "Ġsector": 1908,
      "rers": 1909,
      "Ġdret": 1910,
      "ĠgestiÃ³": 1911,
      "posiciÃ³": 1912,
      "cin": 1913,
      "Ã§os": 1914,
      "Ġfeina": 1915,
      "abte": 1916,
      "ursos": 1917,
      "........": 1918,
      "vestig": 1919,
      "Ġaconseguir": 1920,
      "sc": 1921,
      "Ġnoves": 1922,
      "tarÃł": 1923,
      "eraciÃ³": 1924,
      "orta": 1925,
      "lies": 1926,
      "Ġdeb": 1927,
      "ĠVa": 1928,
      "Ġinstitu": 1929,
      "Estat": 1930,
      "Ġenti": 1931,
      "ites": 1932,
      "Ġgaudir": 1933,
      "erca": 1934,
      "Ġdeci": 1935,
      "ĠAixÃŃ": 1936,
      "Ac": 1937,
      "ficar": 1938,
      "ĠconÃ¨ixer": 1939,
      "ĠsegÃ¼": 1940,
      "Ġalumnes": 1941,
      "Ġjorn": 1942,
      "ĠAquesta": 1943,
      "st": 1944,
      "Ġseguretat": 1945,
      "ĠÃºltim": 1946,
      "Ġajud": 1947,
      "trar": 1948,
      "tures": 1949,
      "erta": 1950,
      "ÃŃstica": 1951,
      "alitzar": 1952,
      "Ġcirc": 1953,
      "Ġnous": 1954,
      "Ãĵ": 1955,
      "ibli": 1956,
      "Ġdestin": 1957,
      "Ġinclo": 1958,
      "ok": 1959,
      "ospi": 1960,
      "Ġtall": 1961,
      "IA": 1962,
      "ĠcamÃŃ": 1963,
      "enes": 1964,
      "ĠnÃº": 1965,
      "Ġjoves": 1966,
      "ĠCamp": 1967,
      "ĠforÃ§a": 1968,
      "Ġpresentar": 1969,
      "Ġvegades": 1970,
      "ultura": 1971,
      "Ġsegle": 1972,
      "Ġgen": 1973,
      "Ġnovembre": 1974,
      "Ãłm": 1975,
      "Ġsota": 1976,
      "uta": 1977,
      "Ġseua": 1978,
      "rea": 1979,
      "Ġnit": 1980,
      "IT": 1981,
      "RA": 1982,
      "Ġcontrol": 1983,
      "RE": 1984,
      "estat": 1985,
      "Ġid": 1986,
      "Ġamp": 1987,
      "veu": 1988,
      "vien": 1989,
      "unitat": 1990,
      "ĠPS": 1991,
      "Ġsegon": 1992,
      "rien": 1993,
      "Ġjuliol": 1994,
      "ip": 1995,
      "ÃŃnia": 1996,
      "Â».": 1997,
      "Ġpresenta": 1998,
      "Ġvolun": 1999,
      "Ġcontrac": 2000,
      "ografia": 2001,
      "Ġalguna": 2002,
      "Ġrealitat": 2003,
      "Aquest": 2004,
      "Ġtornar": 2005,
      "OM": 2006,
      "Ġ22": 2007,
      "Ġespai": 2008,
      "Ġsem": 2009,
      "ixa": 2010,
      "ĠrÃł": 2011,
      "Ġ2018": 2012,
      "Ġmajoria": 2013,
      "Ġuni": 2014,
      "ale": 2015,
      "Ġprojectes": 2016,
      "Ġproductes": 2017,
      "trucciÃ³": 2018,
      "Ġofici": 2019,
      "objectiu": 2020,
      "Ġterritori": 2021,
      "Ġdisseny": 2022,
      "Ġpes": 2023,
      "Ġsos": 2024,
      "Ġalgunes": 2025,
      "aj": 2026,
      "22": 2027,
      "ocup": 2028,
      "ĠhistÃ²": 2029,
      "ĠUniversitat": 2030,
      "IS": 2031,
      "Ġprofess": 2032,
      "to": 2033,
      "Ġvin": 2034,
      "Ġ2017": 2035,
      "ze": 2036,
      "Ġeduca": 2037,
      "uria": 2038,
      "Ġfebrer": 2039,
      "Ġdirig": 2040,
      "nat": 2041,
      "Ġtor": 2042,
      "Ġetc": 2043,
      "anÃ§ant": 2044,
      "Ġsaber": 2045,
      "isteix": 2046,
      "ĠMad": 2047,
      "acciÃ³": 2048,
      "venciÃ³": 2049,
      "lat": 2050,
      "ĠTer": 2051,
      "adal": 2052,
      "Ġtex": 2053,
      "Ġ2020": 2054,
      "ĠgrÃłcies": 2055,
      "Ġresid": 2056,
      "Ġtenia": 2057,
      "ĠEspanya": 2058,
      "ĠediciÃ³": 2059,
      "Ġseguir": 2060,
      "alcal": 2061,
      "Ġfutur": 2062,
      "ĠCiu": 2063,
      "abril": 2064,
      "Ġmeva": 2065,
      "ĠVila": 2066,
      "18": 2067,
      "ĠSeg": 2068,
      "Ġmesures": 2069,
      "Ġlec": 2070,
      "ĠNa": 2071,
      "Ġdom": 2072,
      "Ġfamili": 2073,
      "ĠcÃłrrec": 2074,
      "termin": 2075,
      "ĠveÃ¯": 2076,
      "arem": 2077,
      "Ġpaper": 2078,
      "umenge": 2079,
      "Ġcostat": 2080,
      "dament": 2081,
      "Ġ24": 2082,
      "ĠMaria": 2083,
      "Ã¨ri": 2084,
      "Ġpresent": 2085,
      "Public": 2086,
      "Ġfos": 2087,
      "vent": 2088,
      "ĠCentre": 2089,
      "Ġ2015": 2090,
      "ĠRo": 2091,
      "lici": 2092,
      "apar": 2093,
      "resp": 2094,
      "Ġgrups": 2095,
      "bil": 2096,
      "empresa": 2097,
      "Ġdeclar": 2098,
      "acter": 2099,
      "Ġconsum": 2100,
      "Ġcob": 2101,
      "guts": 2102,
      "Ġk": 2103,
      "net": 2104,
      "ĠqÃ¼": 2105,
      "Ġregid": 2106,
      "AC": 2107,
      "ĠSan": 2108,
      "Ġrecuper": 2109,
      "Ġmalal": 2110,
      "Ġlocal": 2111,
      "'s": 2112,
      "bol": 2113,
      "gres": 2114,
      "Ã¯sos": 2115,
      "Ġcatalana": 2116,
      "Ġlabor": 2117,
      "ĠCl": 2118,
      "inar": 2119,
      "Ġobres": 2120,
      "Ġconsul": 2121,
      "Ġviol": 2122,
      "Ġcontac": 2123,
      "Ġexplica": 2124,
      "cada": 2125,
      "ela": 2126,
      "Ġterra": 2127,
      "Ġtemporada": 2128,
      "12": 2129,
      "Ġdrets": 2130,
      "Ġpopular": 2131,
      "ducciÃ³": 2132,
      "Ġells": 2133,
      "ĠpÃłg": 2134,
      "Ġposi": 2135,
      "Ġind": 2136,
      "Ġobjec": 2137,
      "Ġresponsab": 2138,
      "Ġtu": 2139,
      "Ġdesembre": 2140,
      "Ġmunicipal": 2141,
      "essiÃ³": 2142,
      "ĠCh": 2143,
      "EC": 2144,
      "Ġcomb": 2145,
      "Ass": 2146,
      "Ġespor": 2147,
      "Ġdit": 2148,
      "Ãłl": 2149,
      "Ġof": 2150,
      "vor": 2151,
      "gen": 2152,
      "guÃ©s": 2153,
      "osta": 2154,
      "ĠTor": 2155,
      "Ãīs": 2156,
      "Ġsobretot": 2157,
      "bli": 2158,
      "ĠAra": 2159,
      "ĠpÃºblica": 2160,
      "ibliot": 2161,
      "Ġpan": 2162,
      "ĠMi": 2163,
      "egut": 2164,
      "ĠlÃŃnia": 2165,
      "Ġtecn": 2166,
      "escola": 2167,
      "Ġnorm": 2168,
      "Ġinicia": 2169,
      "Ġpromo": 2170,
      "den": 2171,
      "Ġparlar": 2172,
      "Ġvul": 2173,
      "talla": 2174,
      "Ġllum": 2175,
      "Ġcomprom": 2176,
      "Ġespecial": 2177,
      "Ġpin": 2178,
      "Ġ23": 2179,
      "hir": 2180,
      "ĠMus": 2181,
      "aut": 2182,
      "Ġnens": 2183,
      "tina": 2184,
      "Ġtras": 2185,
      "abor": 2186,
      "Ġesper": 2187,
      "lex": 2188,
      "acord": 2189,
      "Ġdesenvolupament": 2190,
      "AS": 2191,
      "ivil": 2192,
      "ĠEx": 2193,
      "Ġcinc": 2194,
      "laboraciÃ³": 2195,
      "Ġrespos": 2196,
      "edia": 2197,
      "Ġcultura": 2198,
      "Ġtr": 2199,
      "Ġmort": 2200,
      "mÃł": 2201,
      "Ġconven": 2202,
      "ecu": 2203,
      "De": 2204,
      "mbit": 2205,
      "Ġtreballar": 2206,
      "',": 2207,
      "Ġselec": 2208,
      "Ġjun": 2209,
      "altra": 2210,
      "der": 2211,
      "ms": 2212,
      "tÃłn": 2213,
      "Ġmedi": 2214,
      "lida": 2215,
      "ital": 2216,
      "estar": 2217,
      "Ġfi": 2218,
      "Ġgaran": 2219,
      "tudis": 2220,
      "Ġtas": 2221,
      "Ġ2016": 2222,
      "Ġestava": 2223,
      "âĤ": 2224,
      "rÃ©s": 2225,
      "Ġsalut": 2226,
      "Ġevi": 2227,
      "Ġpassa": 2228,
      "ĠSol": 2229,
      "Ġespa": 2230,
      "ĠCap": 2231,
      "Esc": 2232,
      "Ġproper": 2233,
      "Ġesti": 2234,
      "Ġproblemes": 2235,
      "Ġfre": 2236,
      "ĠCastell": 2237,
      "formaciÃ³": 2238,
      "Ġdarrer": 2239,
      "âĤ¬": 2240,
      "ĠTarra": 2241,
      "OS": 2242,
      "ds": 2243,
      "ĠnÃºm": 2244,
      "ej": 2245,
      "grat": 2246,
      "Ġenc": 2247,
      "Ġmodel": 2248,
      "Ġautor": 2249,
      "vocat": 2250,
      "lÃŃc": 2251,
      "ĠVic": 2252,
      "istÃ¨ncia": 2253,
      "cionar": 2254,
      "tista": 2255,
      "gona": 2256,
      "ĠFer": 2257,
      "ania": 2258,
      "ĠSanta": 2259,
      "tagon": 2260,
      "Ġcasos": 2261,
      "Ġ199": 2262,
      "Ġprofessionals": 2263,
      "Ġrespecte": 2264,
      "ĠparticipaciÃ³": 2265,
      "Ġtele": 2266,
      "ĠpoblaciÃ³": 2267,
      "oses": 2268,
      "tenir": 2269,
      "Ġaug": 2270,
      "ĠRec": 2271,
      "Ġteu": 2272,
      "Ġdescob": 2273,
      "Ġdissabte": 2274,
      "Ãį": 2275,
      "Ġconfi": 2276,
      "ĠCor": 2277,
      "ĠMart": 2278,
      "Con": 2279,
      "ÃŃcies": 2280,
      "Ġacompany": 2281,
      "Ġcrear": 2282,
      "Ġcompl": 2283,
      "go": 2284,
      "Ġminuts": 2285,
      "Ãłc": 2286,
      "ĠMas": 2287,
      "edir": 2288,
      "Ġesde": 2289,
      "Ġ:": 2290,
      "Ġfacili": 2291,
      "OL": 2292,
      "Ġdur": 2293,
      "ĠmatÃŃ": 2294,
      "Ġcampanya": 2295,
      "Ġdub": 2296,
      "duir": 2297,
      "estival": 2298,
      "sol": 2299,
      "Ġanim": 2300,
      "tecciÃ³": 2301,
      "ĠMadrid": 2302,
      "vos": 2303,
      "ĠPP": 2304,
      "15": 2305,
      "Ġdeu": 2306,
      "Ġmostra": 2307,
      "Ġlliure": 2308,
      "ĠValÃ¨ncia": 2309,
      "Ġtema": 2310,
      "Ġacabar": 2311,
      "tion": 2312,
      "Ġmovi": 2313,
      "agra": 2314,
      "ÃŃstiques": 2315,
      "Ġdivendres": 2316,
      "efici": 2317,
      "ĠReg": 2318,
      "Ġigual": 2319,
      "Ġfac": 2320,
      "Ã¨p": 2321,
      "obra": 2322,
      "Ġvic": 2323,
      "undaciÃ³": 2324,
      "ĠMol": 2325,
      "rimoni": 2326,
      "Ġtren": 2327,
      "titut": 2328,
      "AD": 2329,
      "Ġeuro": 2330,
      "trac": 2331,
      "ssa": 2332,
      "ĠmitjanÃ§ant": 2333,
      "Ġservir": 2334,
      "Ġanti": 2335,
      "ĠplaÃ§a": 2336,
      "Ġvalenci": 2337,
      "Ġfora": 2338,
      "Ġseny": 2339,
      "Ġusu": 2340,
      "200": 2341,
      "Ġcot": 2342,
      "davant": 2343,
      "tistes": 2344,
      "Ġurb": 2345,
      "Ġentitats": 2346,
      "Ġorig": 2347,
      "Ġmassa": 2348,
      "Ġcreix": 2349,
      "toni": 2350,
      "Ġprotagon": 2351,
      "Amb": 2352,
      "Ġfas": 2353,
      "ĠLA": 2354,
      "Ġconsell": 2355,
      "Ġidenti": 2356,
      "Ġpodria": 2357,
      "Ġ.": 2358,
      "icle": 2359,
      "Ġdigi": 2360,
      "jous": 2361,
      "Ġpartits": 2362,
      "Ã¨tica": 2363,
      "Ã²r": 2364,
      "Ins": 2365,
      "za": 2366,
      "ÃŃde": 2367,
      "ocrÃł": 2368,
      "Ġcentres": 2369,
      "osos": 2370,
      "Ġdoncs": 2371,
      "rebÃ©": 2372,
      "ĠTe": 2373,
      "lan": 2374,
      "Ġconjunt": 2375,
      "Ġafir": 2376,
      "avi": 2377,
      "adora": 2378,
      "ĠcomunicaciÃ³": 2379,
      "niques": 2380,
      "Ġdemos": 2381,
      "Ġcausa": 2382,
      "bert": 2383,
      "Ġtothom": 2384,
      "Ġtroba": 2385,
      "Ġsigni": 2386,
      "sup": 2387,
      "âĨ": 2388,
      "Ġcomerci": 2389,
      "Ġresol": 2390,
      "Ġcastell": 2391,
      "Ġproblema": 2392,
      "Ġbase": 2393,
      "Ġple": 2394,
      "Ġcondicions": 2395,
      "Ġedi": 2396,
      "alt": 2397,
      "ÃŃtica": 2398,
      "itzar": 2399,
      "aquests": 2400,
      "querra": 2401,
      "Ġtext": 2402,
      "Ġtingut": 2403,
      "tratÃ¨": 2404,
      "itÃłria": 2405,
      "ĠpodrÃł": 2406,
      "gies": 2407,
      "cial": 2408,
      "Ġmillorar": 2409,
      "Ġprincipal": 2410,
      "Ġmantenir": 2411,
      "xe": 2412,
      "tenciÃ³": 2413,
      "Â»,": 2414,
      "Ġrecom": 2415,
      "Ġjornada": 2416,
      "Ġnatural": 2417,
      "ado": 2418,
      "Ġpremi": 2419,
      "ĠGran": 2420,
      "Ġdiumenge": 2421,
      "ĠTarragona": 2422,
      "Ġrecursos": 2423,
      "aula": 2424,
      "ĠEsc": 2425,
      "ĠprÃłctica": 2426,
      "ospital": 2427,
      "ficat": 2428,
      "ĠfamÃŃlies": 2429,
      "dit": 2430,
      "Ã¯t": 2431,
      "Ġcorresp": 2432,
      "erat": 2433,
      "Ġjust": 2434,
      "Ġmil": 2435,
      "glÃ©s": 2436,
      "Ġcomentari": 2437,
      "ĠAixÃ²": 2438,
      "Ġson": 2439,
      "Ġcaracter": 2440,
      "tivament": 2441,
      "50": 2442,
      "amp": 2443,
      "ront": 2444,
      "Ġmitjans": 2445,
      "Ġvir": 2446,
      "Publicat": 2447,
      "organitz": 2448,
      "Ġfons": 2449,
      "Ã¨mia": 2450,
      "pro": 2451,
      "vors": 2452,
      "tual": 2453,
      "gaf": 2454,
      "Ġdetermin": 2455,
      "ÃŃfic": 2456,
      "Ġviat": 2457,
      "ba": 2458,
      "ribu": 2459,
      "ce": 2460,
      "Ġ2014": 2461,
      "Ġqueda": 2462,
      "ical": 2463,
      "tany": 2464,
      "Ġfavor": 2465,
      "Ġnot": 2466,
      "Ġ2021": 2467,
      "Ġllengua": 2468,
      "Ġmob": 2469,
      "AM": 2470,
      "Ġmolta": 2471,
      "Ġllei": 2472,
      "Ġrealitzar": 2473,
      "Ġdedic": 2474,
      "Ġparla": 2475,
      "Ġviure": 2476,
      "Ġllocs": 2477,
      "itaciÃ³": 2478,
      "Ġproposta": 2479,
      "ide": 2480,
      "Ġport": 2481,
      "Ġpare": 2482,
      "Ġllibres": 2483,
      "ĠDesprÃ©s": 2484,
      "Ġdol": 2485,
      "ĠHi": 2486,
      "Ã²nica": 2487,
      "ĠFundaciÃ³": 2488,
      "Ġmot": 2489,
      "Ġnegoci": 2490,
      "enya": 2491,
      "ĠcomenÃ§a": 2492,
      "encial": 2493,
      "ET": 2494,
      "Ġeren": 2495,
      "pre": 2496,
      "entment": 2497,
      "iments": 2498,
      "ĠRa": 2499,
      "ĠRam": 2500,
      "ĠcomenÃ§": 2501,
      "ÃŃtol": 2502,
      "Ġrisc": 2503,
      "Ġsubs": 2504,
      "ratuÃ¯": 2505,
      "Ġ50": 2506,
      "ĠgairebÃ©": 2507,
      "Ġsortir": 2508,
      "Ġsimp": 2509,
      "iques": 2510,
      "ĠPuig": 2511,
      "eric": 2512,
      "Ġenf": 2513,
      "ĠhaurÃł": 2514,
      "Ġ28": 2515,
      "ĠJun": 2516,
      "ĠLli": 2517,
      "ĠBen": 2518,
      "Ġparticipar": 2519,
      "xima": 2520,
      "icar": 2521,
      "Ġclients": 2522,
      "ĠfarÃł": 2523,
      "activitat": 2524,
      "Ġlliber": 2525,
      "Ġespecialment": 2526,
      "Ġliter": 2527,
      "Ġgl": 2528,
      "Ġmul": 2529,
      "Ġresultats": 2530,
      "Ex": 2531,
      "Ġsuc": 2532,
      "Ġmotiu": 2533,
      "Ġocup": 2534,
      "ĠallÃ²": 2535,
      "Ġ27": 2536,
      "Ġpodeu": 2537,
      "Ġvia": 2538,
      "gular": 2539,
      "Ġllu": 2540,
      "Ġxarxa": 2541,
      "gers": 2542,
      "Ġperi": 2543,
      "Aquesta": 2544,
      "Ġresultat": 2545,
      "IL": 2546,
      "Ġvist": 2547,
      "Ġconn": 2548,
      "tÃ²ria": 2549,
      "arca": 2550,
      "Ġmemb": 2551,
      "ĠpaÃ¯sos": 2552,
      "Ġfesta": 2553,
      "tades": 2554,
      "Ã©u": 2555,
      "Ġinvestig": 2556,
      "Ġcorrespon": 2557,
      "Ġgas": 2558,
      "ĠvÃŃde": 2559,
      "Ġconsci": 2560,
      "Ġnombre": 2561,
      "ogrÃł": 2562,
      "Ġestem": 2563,
      "Ġmarca": 2564,
      "Ġhauria": 2565,
      "Ġportar": 2566,
      "Ġquin": 2567,
      "Ġacord": 2568,
      "Ġ2012": 2569,
      "ocia": 2570,
      "Ġexpres": 2571,
      "ĠLe": 2572,
      "Ġcrisi": 2573,
      "Ġespais": 2574,
      "EM": 2575,
      "ĠGar": 2576,
      "Ġ#": 2577,
      "Ġnacional": 2578,
      "Ġcateg": 2579,
      "pren": 2580,
      "ĠLleida": 2581,
      "quit": 2582,
      "ilar": 2583,
      "ĠcreaciÃ³": 2584,
      "Ġ2013": 2585,
      "Ġrob": 2586,
      "Ġrom": 2587,
      "orca": 2588,
      "Ġperfec": 2589,
      "Ġdim": 2590,
      "ĠPere": 2591,
      "Ġpis": 2592,
      "Ġ26": 2593,
      "viat": 2594,
      "Ġexp": 2595,
      "Ã¨rie": 2596,
      "quÃŃ": 2597,
      "Ã¨ria": 2598,
      "ĠDia": 2599,
      "ĠServe": 2600,
      "maciÃ³": 2601,
      "Ġsens": 2602,
      "Ġfes": 2603,
      "Ġmillors": 2604,
      "ume": 2605,
      "Ġcapacitat": 2606,
      "ID": 2607,
      "Ġconser": 2608,
      "Ġsols": 2609,
      "Ġparaules": 2610,
      "guany": 2611,
      "Ġanterior": 2612,
      "guer": 2613,
      "16": 2614,
      "asi": 2615,
      "inici": 2616,
      "Ġevitar": 2617,
      "Ġimatge": 2618,
      "ĠValenci": 2619,
      "--": 2620,
      "UP": 2621,
      "her": 2622,
      "Ġfou": 2623,
      "Ġlos": 2624,
      "14": 2625,
      "Ġeleccions": 2626,
      "Ġcandi": 2627,
      "ingÃº": 2628,
      "ĠmÃłxim": 2629,
      "ecres": 2630,
      "Ġformat": 2631,
      "dora": 2632,
      "ĠMo": 2633,
      "Ġsupos": 2634,
      "Ġmercat": 2635,
      "etes": 2636,
      "ĠgratuÃ¯": 2637,
      "tora": 2638,
      "Ġrecerca": 2639,
      "ilitats": 2640,
      "Ġidea": 2641,
      "cep": 2642,
      "cament": 2643,
      "CIÃĵ": 2644,
      "ĠdifÃŃ": 2645,
      "Ġcultural": 2646,
      "Ġtermin": 2647,
      "Ġconsidera": 2648,
      "Ġpressup": 2649,
      "Ġenll": 2650,
      "Ãłmbit": 2651,
      "ocs": 2652,
      "Ġdefin": 2653,
      "Ġteva": 2654,
      "17": 2655,
      "eli": 2656,
      "rop": 2657,
      "Ġhagi": 2658,
      "Ġtractament": 2659,
      "Ġhora": 2660,
      "Ġmunicipi": 2661,
      "QU": 2662,
      "Ġsis": 2663,
      "ĠMer": 2664,
      "ger": 2665,
      "ĠconstrucciÃ³": 2666,
      "lluns": 2667,
      "quel": 2668,
      "guen": 2669,
      "Ġvostra": 2670,
      "Ġtre": 2671,
      "Ġrebut": 2672,
      "Ġdic": 2673,
      "Ġ100": 2674,
      "vada": 2675,
      "Ġaplic": 2676,
      "Ġincor": 2677,
      "Ġprincipals": 2678,
      "Ġcompta": 2679,
      "Ġcara": 2680,
      "uals": 2681,
      "Ġprou": 2682,
      "Ġprimers": 2683,
      "Ġfunciona": 2684,
      "port": 2685,
      "Ġ2011": 2686,
      "Ġimpos": 2687,
      "Ġbenefici": 2688,
      "Ġrem": 2689,
      "Ġvac": 2690,
      "Tot": 2691,
      "Ġquedar": 2692,
      "fa": 2693,
      "Ġelectr": 2694,
      "Or": 2695,
      "tique": 2696,
      "ĠAd": 2697,
      "Ġvisita": 2698,
      "Ġquanti": 2699,
      "Ġlim": 2700,
      "inal": 2701,
      "ĠMos": 2702,
      "Ġpugui": 2703,
      "Ġcatalans": 2704,
      "ĠtindrÃł": 2705,
      "ĠsÃ¨rie": 2706,
      "Ġfalta": 2707,
      "Ġconte": 2708,
      "Ġnecessitat": 2709,
      "menta": 2710,
      "Ġseria": 2711,
      "Ã²nic": 2712,
      "Ġcomentaris": 2713,
      "jament": 2714,
      "vui": 2715,
      "voca": 2716,
      "aten": 2717,
      "Ġfigu": 2718,
      "ĠDep": 2719,
      "Ġinternacional": 2720,
      "Ġmembres": 2721,
      "Ã³r": 2722,
      "ĠPres": 2723,
      "Ġclasse": 2724,
      "Ġvig": 2725,
      "eure": 2726,
      "ĠParlament": 2727,
      "Aix": 2728,
      "Ġlocals": 2729,
      "13": 2730,
      "ĠtrÃł": 2731,
      "ting": 2732,
      "cap": 2733,
      "glÃ©sia": 2734,
      "Ġbi": 2735,
      "Ġconstitu": 2736,
      "alitzat": 2737,
      "IM": 2738,
      "Ġdisp": 2739,
      "Ã¨xit": 2740,
      "ĠpolÃŃtics": 2741,
      "Ġand": 2742,
      "Ġdilluns": 2743,
      "Ġestr": 2744,
      "ĠRep": 2745,
      "Ġveh": 2746,
      "ĠAntoni": 2747,
      "ĠQuan": 2748,
      "estudi": 2749,
      "Ġmir": 2750,
      "ĠPod": 2751,
      "Ġ2010": 2752,
      "Ġresposta": 2753,
      "estiu": 2754,
      "Ġella": 2755,
      "Ġpotser": 2756,
      "Ġsortida": 2757,
      "www": 2758,
      "Ġexplicar": 2759,
      "iblioteca": 2760,
      "Ġart": 2761,
      "Ġbarri": 2762,
      "ĠsegÃ¼ent": 2763,
      "ĠNacional": 2764,
      "jat": 2765,
      "sim": 2766,
      "ĠpresÃ¨ncia": 2767,
      "itacions": 2768,
      "Ġmare": 2769,
      "Ġdefensa": 2770,
      "ĠAb": 2771,
      "ĠÃĢ": 2772,
      "espai": 2773,
      "ĠpolÃŃtiques": 2774,
      "Ġtarda": 2775,
      "Ġlo": 2776,
      "Ġpreu": 2777,
      "ollir": 2778,
      "uix": 2779,
      "Ġdigital": 2780,
      "Ġrepar": 2781,
      "Ġmesura": 2782,
      "ĠdemocrÃł": 2783,
      "Ġactual": 2784,
      "ĠpresentaciÃ³": 2785,
      "Ġreser": 2786,
      "aquestes": 2787,
      "ĠperÃŃ": 2788,
      "ĠOr": 2789,
      "Ġthe": 2790,
      "ticular": 2791,
      "Ġobra": 2792,
      "Ġpetit": 2793,
      "dial": 2794,
      "istre": 2795,
      "ENT": 2796,
      "accÃ©s": 2797,
      "apl": 2798,
      "Ġprocess": 2799,
      "Ġaquell": 2800,
      "oles": 2801,
      "Ġemo": 2802,
      "guda": 2803,
      "Ġrelacion": 2804,
      "ties": 2805,
      "Ġpaci": 2806,
      "Ġespectac": 2807,
      "pen": 2808,
      "apro": 2809,
      "icat": 2810,
      "Ġcreu": 2811,
      "Ġdocu": 2812,
      "agost": 2813,
      "ĠPrem": 2814,
      "Ġanat": 2815,
      "Ġvoltant": 2816,
      "ĠprÃ²pia": 2817,
      "Ġclub": 2818,
      "Ġhavien": 2819,
      "lusiÃ³": 2820,
      "Ġnecessitats": 2821,
      "Ã¨dia": 2822,
      "Ġsob": 2823,
      "ĠfÃŃs": 2824,
      "ances": 2825,
      "Ġmarxa": 2826,
      "fon": 2827,
      "Ġfeia": 2828,
      "olo": 2829,
      "ĠBo": 2830,
      "Ġdecidir": 2831,
      "Ġcompeti": 2832,
      "ĠbÃłs": 2833,
      "litat": 2834,
      "Ġadministra": 2835,
      "Ġvo": 2836,
      "Ġestabl": 2837,
      "ĠeconÃ²mica": 2838,
      "alcalde": 2839,
      "encia": 2840,
      "Ġdijous": 2841,
      "ripciÃ³": 2842,
      "Ġsap": 2843,
      "educaciÃ³": 2844,
      "ofer": 2845,
      "Ġai": 2846,
      "entrada": 2847,
      "Ã©ixer": 2848,
      "Ġpropostes": 2849,
      "Ġdiners": 2850,
      "Ġusuaris": 2851,
      "essin": 2852,
      "che": 2853,
      "gel": 2854,
      "icip": 2855,
      "ttp": 2856,
      "Ġhabitu": 2857,
      "vo": 2858,
      "ast": 2859,
      "taforma": 2860,
      "Ġmira": 2861,
      "Ġnord": 2862,
      "cad": 2863,
      "Ġaspec": 2864,
      "Re": 2865,
      "ĠInterna": 2866,
      "Ġimpuls": 2867,
      "nies": 2868,
      "Ġtreballadors": 2869,
      "dap": 2870,
      "Ġ29": 2871,
      "oble": 2872,
      "Ġsur": 2873,
      "Ġaquells": 2874,
      "Ġcontacte": 2875,
      "lement": 2876,
      "ĠDa": 2877,
      "anys": 2878,
      "len": 2879,
      "Ġtoc": 2880,
      "Ġinteg": 2881,
      "quet": 2882,
      "Ġfru": 2883,
      "Ġagaf": 2884,
      "Ġfar": 2885,
      "Ġreconeix": 2886,
      "eqÃ¼": 2887,
      "lem": 2888,
      "Ġmenjar": 2889,
      "Ġjut": 2890,
      "Ġtradi": 2891,
      "vidu": 2892,
      "Ġexplicat": 2893,
      "dac": 2894,
      "rega": 2895,
      "Ġplat": 2896,
      "Ġactivitat": 2897,
      "ĠCer": 2898,
      "ĠexperiÃ¨ncia": 2899,
      "ĠningÃº": 2900,
      "ĠThe": 2901,
      "Ġocas": 2902,
      "iÃ¨ncies": 2903,
      "estruc": 2904,
      "Ġbat": 2905,
      "Ġcolor": 2906,
      "Ġvari": 2907,
      "ĠpolÃŃtic": 2908,
      "Ġmetres": 2909,
      "ĠEL": 2910,
      "Ġmaterial": 2911,
      "tint": 2912,
      "ĠpÃºblics": 2913,
      "ĠGeneral": 2914,
      "uari": 2915,
      "Ġdiferent": 2916,
      "Ġrecol": 2917,
      "exper": 2918,
      "Ġterc": 2919,
      "Ġparticipants": 2920,
      "ĠveÃ¯ns": 2921,
      "anar": 2922,
      "aquÃŃ": 2923,
      "Ġvinc": 2924,
      "Ġmas": 2925,
      "ĠcanÃ§": 2926,
      "ĠproducciÃ³": 2927,
      "Ġpogut": 2928,
      "Ġllibertat": 2929,
      "Ġade": 2930,
      "gÃ¨ncia": 2931,
      "Ġobs": 2932,
      "Ġfets": 2933,
      "ik": 2934,
      "ong": 2935,
      "udi": 2936,
      "Ġord": 2937,
      "inaciÃ³": 2938,
      "ÃŃstic": 2939,
      "ĠdirecciÃ³": 2940,
      "ible": 2941,
      "sic": 2942,
      "tric": 2943,
      "itari": 2944,
      "ĠmÃ²": 2945,
      "Ġprofessional": 2946,
      "Ġsembl": 2947,
      "lles": 2948,
      "Ãºl": 2949,
      "ach": 2950,
      "Ġlluita": 2951,
      "cina": 2952,
      "sion": 2953,
      "espec": 2954,
      "alu": 2955,
      "Ġmans": 2956,
      "ÃŃfica": 2957,
      "ĠSab": 2958,
      "Ãºblica": 2959,
      "Ġrecep": 2960,
      "tri": 2961,
      "oport": 2962,
      "Ġplan": 2963,
      "ĠfunciÃ³": 2964,
      "quitec": 2965,
      "ĠdÃ¨": 2966,
      "Ġpropor": 2967,
      "ĠBa": 2968,
      "Ġanomen": 2969,
      "Ġrecla": 2970,
      "forÃ§": 2971,
      "Ġul": 2972,
      "Ġexpos": 2973,
      "Ġpuguin": 2974,
      "Espanya": 2975,
      "Ġsim": 2976,
      "ĠFranc": 2977,
      "Ġciutadans": 2978,
      "lada": 2979,
      "ovint": 2980,
      "Ġelements": 2981,
      "Ã¨poca": 2982,
      "autor": 2983,
      "ulaciÃ³": 2984,
      "grÃ©s": 2985,
      "ĠHa": 2986,
      "Ġoport": 2987,
      "ĠreferÃ¨ncia": 2988,
      "ĠSocial": 2989,
      "Ġvista": 2990,
      "Ġimport": 2991,
      "ĠJaume": 2992,
      "ĠTerra": 2993,
      "Ġjudi": 2994,
      "Ġgerm": 2995,
      "ĠconseqÃ¼": 2996,
      "Ġpetits": 2997,
      "ĠMunicip": 2998,
      "UN": 2999,
      "Ġarriba": 3000,
      "ĠAm": 3001,
      "Ġcapital": 3002,
      "Ġimpres": 3003,
      "Ġresponsable": 3004,
      "Ġmem": 3005,
      "Ġbal": 3006,
      "Ġcrea": 3007,
      "Ġconcep": 3008,
      "alles": 3009,
      "ĠnÃºmero": 3010,
      "Ġadequ": 3011,
      "hib": 3012,
      "vem": 3013,
      "Ġendavant": 3014,
      "Ã¨l": 3015,
      "Ġcab": 3016,
      "Ġpares": 3017,
      "ferÃ¨ncia": 3018,
      "lÃŃcula": 3019,
      "Ġfona": 3020,
      "ĠCultura": 3021,
      "tari": 3022,
      "onts": 3023,
      "ĠPrim": 3024,
      "log": 3025,
      "Ġ...": 3026,
      "esper": 3027,
      "Ġsus": 3028,
      "enari": 3029,
      "arrib": 3030,
      "ĠmÃ¨": 3031,
      "Ã³na": 3032,
      "ribun": 3033,
      "ficul": 3034,
      "ĠMor": 3035,
      "Ġ198": 3036,
      "titz": 3037,
      "Ġutilitzar": 3038,
      "Ġtit": 3039,
      "Ġtaula": 3040,
      "cle": 3041,
      "ĠMont": 3042,
      "tem": 3043,
      "Ġseran": 3044,
      "Ġexig": 3045,
      "iem": 3046,
      "Ġrebre": 3047,
      "Ġconeixement": 3048,
      "Ġjove": 3049,
      "aren": 3050,
      "omes": 3051,
      "OC": 3052,
      "ĠgÃ¨n": 3053,
      "Ġjur": 3054,
      "pea": 3055,
      "ef": 3056,
      "Ġsala": 3057,
      "Ġvolem": 3058,
      "ÃŃnim": 3059,
      "03": 3060,
      "UR": 3061,
      "Ġcompet": 3062,
      "Ġpensar": 3063,
      "guem": 3064,
      "Ġcomunitat": 3065,
      "ets": 3066,
      "Ġadap": 3067,
      "torn": 3068,
      "Ġrepresen": 3069,
      "Ġiniciativa": 3070,
      "mo": 3071,
      "ĠTur": 3072,
      "Ġmoviment": 3073,
      "idar": 3074,
      "Ġdebat": 3075,
      "erts": 3076,
      "Ġtran": 3077,
      "Ġinfantil": 3078,
      "Ġahir": 3079,
      "adell": 3080,
      "Ġllista": 3081,
      "Ã¼es": 3082,
      "ates": 3083,
      "Ġpossibilitat": 3084,
      "ĠMonts": 3085,
      "Ġpal": 3086,
      "Ġdemanar": 3087,
      "Ġfills": 3088,
      "Di": 3089,
      "Ġtemes": 3090,
      "mentar": 3091,
      "Ġlas": 3092,
      "ĠSegu": 3093,
      "Ġaccep": 3094,
      "Ġhomes": 3095,
      "olÃ²gica": 3096,
      "01": 3097,
      "enda": 3098,
      "Ġllavors": 3099,
      "bo": 3100,
      "Ġmunicipals": 3101,
      "Ġprofessor": 3102,
      "tingut": 3103,
      "cel": 3104,
      "osc": 3105,
      "Ġviatge": 3106,
      "Ġempresa": 3107,
      "atenciÃ³": 3108,
      "OT": 3109,
      "Ġdipu": 3110,
      "Ġfranc": 3111,
      "Ġsenz": 3112,
      "ĠPor": 3113,
      "eixi": 3114,
      "Ġasseny": 3115,
      "truir": 3116,
      "05": 3117,
      "Ġdetal": 3118,
      "Ġreal": 3119,
      "Ġfamiliar": 3120,
      "ĠdifÃŃcil": 3121,
      "Ġgesti": 3122,
      "Ġimportants": 3123,
      "Ġequips": 3124,
      "Ġconta": 3125,
      "ĠAnd": 3126,
      "olÃ²gic": 3127,
      "Ġcompanyia": 3128,
      "Ġajudar": 3129,
      "omÃł": 3130,
      "ĠPat": 3131,
      "Ġesdeven": 3132,
      "ĠenllÃł": 3133,
      "loc": 3134,
      "Ġdefini": 3135,
      "Ġsatis": 3136,
      "'.": 3137,
      "Ġprova": 3138,
      "Ġfra": 3139,
      "ĠEN": 3140,
      "uran": 3141,
      "ĠCatalana": 3142,
      "Ġintel": 3143,
      "Ġhome": 3144,
      "Ġsosten": 3145,
      "Ġpil": 3146,
      "Ġir": 3147,
      "ĠCent": 3148,
      "ĠpÃłgina": 3149,
      "Ġexerci": 3150,
      "Ġguanyar": 3151,
      "Ġcanvis": 3152,
      "ĠmÃŃnim": 3153,
      "Ġsegui": 3154,
      "Ã²p": 3155,
      "entatge": 3156,
      "ĠEuropa": 3157,
      "erÃ§": 3158,
      "quis": 3159,
      "reix": 3160,
      "Ġsegur": 3161,
      "Ġdificul": 3162,
      "ĠcarÃłc": 3163,
      "Ġcost": 3164,
      "Ġpressupost": 3165,
      "AB": 3166,
      "Ġapr": 3167,
      "Ġdonat": 3168,
      "Ġguerra": 3169,
      "Ġentorn": 3170,
      "ĠviolÃ¨ncia": 3171,
      "ĠcarÃłcter": 3172,
      "Ġhor": 3173,
      "Ġnovel": 3174,
      "Ġ40": 3175,
      "ĠClub": 3176,
      "uel": 3177,
      "ĠdÃ³na": 3178,
      "ĠaccÃ©s": 3179,
      "Ġfotos": 3180,
      "cant": 3181,
      "ense": 3182,
      "inf": 3183,
      "Ġevid": 3184,
      "ĠRes": 3185,
      "Ġmillora": 3186,
      "Ġsuperior": 3187,
      "Escola": 3188,
      "Ġdisponi": 3189,
      "Ġimatges": 3190,
      "Ġdura": 3191,
      "tanya": 3192,
      "Ġdescon": 3193,
      "Ġrepresenta": 3194,
      "Ġindividu": 3195,
      "orda": 3196,
      "Ġdreta": 3197,
      "Ġobtenir": 3198,
      "gament": 3199,
      "Ġconfir": 3200,
      "Ġcient": 3201,
      "Ġmiss": 3202,
      "marts": 3203,
      "Ġfl": 3204,
      "inat": 3205,
      "rit": 3206,
      "ĠEmp": 3207,
      "ĠDipu": 3208,
      "Ġcert": 3209,
      "ĠPr": 3210,
      "ustri": 3211,
      "ĠperÃŃode": 3212,
      "Ġinfants": 3213,
      "Ġcanviar": 3214,
      "25": 3215,
      "rent": 3216,
      "Ġveritat": 3217,
      "ĠalgÃº": 3218,
      "las": 3219,
      "Ġplanta": 3220,
      "Institut": 3221,
      "sitat": 3222,
      "¿½": 3223,
      "ï¿½": 3224,
      "isteri": 3225,
      "rades": 3226,
      "Ġsex": 3227,
      "ĠSe": 3228,
      "Ġsenti": 3229,
      "Ġmoments": 3230,
      "Ġclau": 3231,
      "err": 3232,
      "metre": 3233,
      "Ġsiguin": 3234,
      "ĠInter": 3235,
      "teriors": 3236,
      "omÃ©s": 3237,
      "io": 3238,
      "Ġpots": 3239,
      "Ġcadasc": 3240,
      "ĠĠĠ": 3241,
      "Ġcoordin": 3242,
      "Ġperiod": 3243,
      "cie": 3244,
      "incid": 3245,
      "09": 3246,
      "havia": 3247,
      "Ġentrar": 3248,
      "estaciÃ³": 3249,
      "iten": 3250,
      "07": 3251,
      "ĠestratÃ¨": 3252,
      "ĠRib": 3253,
      "Ġxarxes": 3254,
      "alum": 3255,
      "Ġquad": 3256,
      "Ãłleg": 3257,
      "ĠprotecciÃ³": 3258,
      "IB": 3259,
      "Ġparticular": 3260,
      "Quan": 3261,
      "Ġllegir": 3262,
      "Ġmasc": 3263,
      "tiga": 3264,
      "urar": 3265,
      "Ġposa": 3266,
      "IV": 3267,
      "ĠMiquel": 3268,
      "aments": 3269,
      "Ġdemana": 3270,
      "Ġdimecres": 3271,
      "ĠGra": 3272,
      "ĠHo": 3273,
      "Ġcorrec": 3274,
      "DesprÃ©s": 3275,
      "):": 3276,
      "Ġconcent": 3277,
      "xar": 3278,
      "ensa": 3279,
      "Ġmodi": 3280,
      "erar": 3281,
      "ĠÃºltims": 3282,
      "ĠNe": 3283,
      "sses": 3284,
      "Ġbaixa": 3285,
      "Ġinforma": 3286,
      "Ġfinalment": 3287,
      "Ġrespon": 3288,
      "ĠInternacional": 3289,
      "Ġped": 3290,
      "vador": 3291,
      "Ġtram": 3292,
      "Ġhagut": 3293,
      "Ġciutadania": 3294,
      "inalment": 3295,
      "ĠPen": 3296,
      "Ġdestac": 3297,
      "Ġsignifica": 3298,
      "itatge": 3299,
      "dorra": 3300,
      "Ġvostre": 3301,
      "ĠJosÃ©": 3302,
      "ĠDÃ©u": 3303,
      "artament": 3304,
      "Ġcontemp": 3305,
      "Ġcinema": 3306,
      "Ġprendre": 3307,
      "Ġespanyola": 3308,
      "organitzaciÃ³": 3309,
      "ton": 3310,
      "iran": 3311,
      ".\"": 3312,
      "Pro": 3313,
      "Ġsetmanes": 3314,
      "Jo": 3315,
      "Ġvolen": 3316,
      "Ġtind": 3317,
      "pid": 3318,
      "Ġestudis": 3319,
      "ĠPas": 3320,
      "Ġpand": 3321,
      "liment": 3322,
      "Ġamics": 3323,
      "Ġtard": 3324,
      "ĠMuseu": 3325,
      "Ġcandidat": 3326,
      "cades": 3327,
      "istir": 3328,
      "Ġnorma": 3329,
      "Ġdimarts": 3330,
      "Ġobjectiu": 3331,
      "entitat": 3332,
      "ĠFranÃ§a": 3333,
      "ĠLlu": 3334,
      "36": 3335,
      "ĠRos": 3336,
      "Ġapun": 3337,
      "Ġquar": 3338,
      "legi": 3339,
      "ĠsessiÃ³": 3340,
      "alitats": 3341,
      "be": 3342,
      "Ġanunci": 3343,
      "Ġrecorre": 3344,
      "Ġampli": 3345,
      "06": 3346,
      "Ġec": 3347,
      "icles": 3348,
      "ministraciÃ³": 3349,
      "chez": 3350,
      "ĠMarc": 3351,
      "Ġcrec": 3352,
      "cio": 3353,
      "Ġaccions": 3354,
      "Ġpodran": 3355,
      "Ġmalgrat": 3356,
      "ĠSalut": 3357,
      "04": 3358,
      "Ġtend": 3359,
      "Ġconegu": 3360,
      "24": 3361,
      "onat": 3362,
      "Ġani": 3363,
      "titud": 3364,
      "ĠIns": 3365,
      "Seg": 3366,
      "Ġfoc": 3367,
      "Ġcentral": 3368,
      "Ġcelebrar": 3369,
      "ĠdecisiÃ³": 3370,
      "Euro": 3371,
      "Ġcuina": 3372,
      "ras": 3373,
      "Ãłss": 3374,
      "alitzada": 3375,
      "Ġnecessari": 3376,
      "Ġquantitat": 3377,
      "23": 3378,
      "Ġ+": 3379,
      "ĠES": 3380,
      "Ãºn": 3381,
      "ĠtÃŃtol": 3382,
      "unes": 3383,
      "ĠTV": 3384,
      "euros": 3385,
      "edat": 3386,
      "Ġvoluntat": 3387,
      "quin": 3388,
      "Ġfutbol": 3389,
      "Ġconvocat": 3390,
      "ke": 3391,
      "Ġfront": 3392,
      "Ġposat": 3393,
      "Ġ197": 3394,
      "AssociaciÃ³": 3395,
      ".[": 3396,
      "LA": 3397,
      "Ġsovint": 3398,
      "viar": 3399,
      "Ġextra": 3400,
      "Ġobert": 3401,
      "Ġcarrers": 3402,
      "ĠDepartament": 3403,
      "ums": 3404,
      "Ġhas": 3405,
      "Ġpost": 3406,
      "cionat": 3407,
      "Ġedifici": 3408,
      "ĠimportÃłncia": 3409,
      "TA": 3410,
      "Ġinno": 3411,
      "haver": 3412,
      "dad": 3413,
      "Ġcorreu": 3414,
      "Ġrelacions": 3415,
      "vall": 3416,
      "ĠPau": 3417,
      "ĠSa": 3418,
      "Ġsentir": 3419,
      "ografi": 3420,
      "anÃ§ar": 3421,
      "ocal": 3422,
      "ĠLu": 3423,
      "amor": 3424,
      "turals": 3425,
      "ĠgÃ¨nere": 3426,
      "oris": 3427,
      "orig": 3428,
      "Ġtercer": 3429,
      "Ġzones": 3430,
      "OV": 3431,
      "Ġfit": 3432,
      "Ã²nia": 3433,
      "Ġmena": 3434,
      "Ġactualment": 3435,
      "ĠSegons": 3436,
      "ĠvÃŃdeo": 3437,
      "vel": 3438,
      "Ġdata": 3439,
      "Ġincorpor": 3440,
      "ĠMunicipal": 3441,
      "quia": 3442,
      "allar": 3443,
      "Ġpreocup": 3444,
      "Ġtermini": 3445,
      "tava": 3446,
      "ĠPi": 3447,
      "Ġmateixos": 3448,
      "ĠQue": 3449,
      "Ġaviat": 3450,
      "Ġperdre": 3451,
      "Ġconvertir": 3452,
      "ĠposiciÃ³": 3453,
      "AP": 3454,
      "indic": 3455,
      "mpoc": 3456,
      "ĠpandÃ¨mia": 3457,
      "ĠÂ»": 3458,
      "Ġcontingut": 3459,
      "Ġlaboral": 3460,
      "Ġbla": 3461,
      "ial": 3462,
      "otjament": 3463,
      "02": 3464,
      "ĠâĤ¬": 3465,
      "rÃŃ": 3466,
      "ĠsÃ©": 3467,
      "Ġobjectius": 3468,
      "Ġconvi": 3469,
      "ĠGo": 3470,
      "Ġvalors": 3471,
      "ĠtelevisiÃ³": 3472,
      "Ġcategoria": 3473,
      "Ġsolu": 3474,
      "Ġtinc": 3475,
      "ED": 3476,
      "gent": 3477,
      "Ġmed": 3478,
      "Ġentren": 3479,
      "ĠXX": 3480,
      "ĠPSC": 3481,
      "bliques": 3482,
      "ĠNadal": 3483,
      "ederaciÃ³": 3484,
      "peu": 3485,
      "Inici": 3486,
      "ĠCiutad": 3487,
      "ht": 3488,
      "vera": 3489,
      "ĠâĢĶ": 3490,
      "oto": 3491,
      "ĠEm": 3492,
      "Ġtampoc": 3493,
      "Ġincre": 3494,
      "magin": 3495,
      "Ġcontinguts": 3496,
      "zar": 3497,
      "Ġperill": 3498,
      "tegra": 3499,
      "altre": 3500,
      "Ġrealment": 3501,
      "Ġmapa": 3502,
      "Ġbuscar": 3503,
      "siva": 3504,
      "ĠGrup": 3505,
      "tivitats": 3506,
      "Ġproducte": 3507,
      "ĠqÃ¼estiÃ³": 3508,
      "ĠMal": 3509,
      "Ġarribat": 3510,
      "ĠXavi": 3511,
      "Ġfus": 3512,
      "Ġhotel": 3513,
      "carre": 3514,
      "tisme": 3515,
      "ĠTeatre": 3516,
      "Ġconcurs": 3517,
      "Ġtasca": 3518,
      "Ġtrobada": 3519,
      "ttps": 3520,
      "Ġfal": 3521,
      "opera": 3522,
      "llaÃ§": 3523,
      "Ġdarrera": 3524,
      "Ġredu": 3525,
      "ĠversiÃ³": 3526,
      "Ġintro": 3527,
      "Ġelector": 3528,
      "Ara": 3529,
      "capa": 3530,
      "ĠCarles": 3531,
      "ĠeconÃ²mic": 3532,
      "Ġpublica": 3533,
      "Ġrelle": 3534,
      "Ġgarantir": 3535,
      "ĠDiputaciÃ³": 3536,
      "Ġpodia": 3537,
      "Ġtrobem": 3538,
      "ales": 3539,
      "Ġmusical": 3540,
      "ÃŃm": 3541,
      "Ġsepar": 3542,
      "usti": 3543,
      "ĠRÃł": 3544,
      "Ġlectura": 3545,
      "ĠBat": 3546,
      "ega": 3547,
      "Ġobser": 3548,
      "anÃ§ament": 3549,
      "Ġpetita": 3550,
      "xt": 3551,
      "estÃł": 3552,
      "Ġteatre": 3553,
      "Ġviu": 3554,
      "Ġ=": 3555,
      "Ġsegueix": 3556,
      "emÃłtica": 3557,
      "vist": 3558,
      "Ġpec": 3559,
      "istents": 3560,
      "Ġoferir": 3561,
      "Ġglob": 3562,
      "ĠDel": 3563,
      "Ġposterior": 3564,
      "Ġinsc": 3565,
      "Ġvisitar": 3566,
      "Ġcivil": 3567,
      "Ġelabor": 3568,
      "ĠvÃŃc": 3569,
      "Ġproteg": 3570,
      "Ġpatrimoni": 3571,
      "ĠÃºs": 3572,
      "Ġestruc": 3573,
      "âĢ¦]": 3574,
      "toria": 3575,
      "ĠFrancesc": 3576,
      "Ġ31": 3577,
      "Ġcontinuar": 3578,
      "Ad": 3579,
      "ĠMin": 3580,
      "Ġfuncion": 3581,
      "ĠActu": 3582,
      "Ġextre": 3583,
      "ident": 3584,
      "Ġsigut": 3585,
      "Ġtorna": 3586,
      "Ã²ries": 3587,
      "Ġindic": 3588,
      "Ġjugar": 3589,
      "Ġdiari": 3590,
      "Ġtransport": 3591,
      "................": 3592,
      "fil": 3593,
      "Ġvuit": 3594,
      "Ġdirectament": 3595,
      "Ġrestaurant": 3596,
      "rats": 3597,
      "Ġrevol": 3598,
      "Ġfinals": 3599,
      "27": 3600,
      "ond": 3601,
      "orar": 3602,
      "ĠDiari": 3603,
      "glÃ¨s": 3604,
      "ĠSet": 3605,
      "ork": 3606,
      "ĠVer": 3607,
      "ĠDirec": 3608,
      "Ġreno": 3609,
      "ismes": 3610,
      "Ġinver": 3611,
      "can": 3612,
      "Ġfu": 3613,
      "IX": 3614,
      "Ġlegis": 3615,
      "hores": 3616,
      "Ġalhora": 3617,
      "ĠParc": 3618,
      "isti": 3619,
      "tatge": 3620,
      "Ġret": 3621,
      "Ã§ada": 3622,
      "Ġreiv": 3623,
      "ĠreuniÃ³": 3624,
      "Ġso": 3625,
      "ĠmÃ²bil": 3626,
      "Ãºltim": 3627,
      "Ġdeixa": 3628,
      "26": 3629,
      "Ġpi": 3630,
      "onada": 3631,
      "Ġapor": 3632,
      "iscal": 3633,
      "Ġdubte": 3634,
      "Ġgir": 3635,
      "aire": 3636,
      "ĠqÃ¼esti": 3637,
      "ĠLla": 3638,
      "Ġdib": 3639,
      "ibilitat": 3640,
      "urals": 3641,
      "ĠBale": 3642,
      "Ġxif": 3643,
      "ĠÃºnica": 3644,
      "Ġcontinua": 3645,
      "tacions": 3646,
      "Ġexcep": 3647,
      "EU": 3648,
      "vÃ©": 3649,
      "Ġperd": 3650,
      "Ġguard": 3651,
      "Ġobstant": 3652,
      "__": 3653,
      "reus": 3654,
      "Ġquina": 3655,
      "ĠFel": 3656,
      "Ġpremis": 3657,
      "Ġmalaltia": 3658,
      "Ġsil": 3659,
      "emble": 3660,
      "Ġprincipi": 3661,
      "ĠprÃ²xim": 3662,
      "lexi": 3663,
      "Ġpresentat": 3664,
      "jecte": 3665,
      "Ġdarrers": 3666,
      "TambÃ©": 3667,
      "Ġ2008": 3668,
      "lectiu": 3669,
      "Ġoficial": 3670,
      "estr": 3671,
      "exposiciÃ³": 3672,
      "PerÃ²": 3673,
      "edifici": 3674,
      "Ġfase": 3675,
      "uf": 3676,
      "essions": 3677,
      "Ã¡nchez": 3678,
      "Ġagrada": 3679,
      "redi": 3680,
      "Ġmic": 3681,
      "otes": 3682,
      "Ġalt": 3683,
      "otÃŃcies": 3684,
      "eracions": 3685,
      "ĠmemÃ²ria": 3686,
      "article": 3687,
      "Ġcomodi": 3688,
      "ĠDEL": 3689,
      "agrada": 3690,
      "ka": 3691,
      "rg": 3692,
      "Ġrecordar": 3693,
      "Ġinstitucions": 3694,
      "ribunal": 3695,
      "TES": 3696,
      "one": 3697,
      "Ã¨tic": 3698,
      "ĠmatÃ¨ria": 3699,
      "Ġriu": 3700,
      "!!!": 3701,
      "08": 3702,
      "sar": 3703,
      "ertes": 3704,
      "Ġpremsa": 3705,
      "dats": 3706,
      "ĠMall": 3707,
      "Ġtreballs": 3708,
      "Ġviatgers": 3709,
      "ĠEntre": 3710,
      "Ġabsol": 3711,
      "Ã¡s": 3712,
      "OE": 3713,
      "RC": 3714,
      "45": 3715,
      "acab": 3716,
      "Ġbri": 3717,
      "ĠVol": 3718,
      "onÃ²m": 3719,
      "Ġcreixement": 3720,
      "vir": 3721,
      "Ġfonamen": 3722,
      "Ġprefer": 3723,
      "Ġpais": 3724,
      "Ġsuposa": 3725,
      "ĠUniÃ³": 3726,
      "Ġcompartir": 3727,
      "Ġclassi": 3728,
      "Hi": 3729,
      "mit": 3730,
      "ĠPed": 3731,
      "ĠprÃ¨": 3732,
      "Ġ[âĢ¦]": 3733,
      "Emp": 3734,
      "ESC": 3735,
      "quets": 3736,
      "ingÃ¼": 3737,
      "cl": 3738,
      "oti": 3739,
      "Ġ>": 3740,
      "Ġpocs": 3741,
      "Ġconcert": 3742,
      "Ġplataforma": 3743,
      "Ġfunda": 3744,
      "Ja": 3745,
      "Ġsum": 3746,
      "Ġsud": 3747,
      "Ġpasse": 3748,
      "blement": 3749,
      "Ġconflic": 3750,
      "Ġaspectes": 3751,
      "tria": 3752,
      "alar": 3753,
      "roc": 3754,
      "Ġambient": 3755,
      "ĠTra": 3756,
      "Ġcomprar": 3757,
      "Ġemb": 3758,
      "nics": 3759,
      "Ġderi": 3760,
      "Ġperm": 3761,
      "Ãłb": 3762,
      "expl": 3763,
      "guns": 3764,
      "Ġentendre": 3765,
      "Ġaconseguit": 3766,
      "Ġconnec": 3767,
      "Ġfuncionament": 3768,
      "Ġama": 3769,
      "are": 3770,
      "ĠtelÃ¨": 3771,
      "Ġefectes": 3772,
      "jada": 3773,
      "ĠBaix": 3774,
      "orial": 3775,
      "MÃ©s": 3776,
      "ÃĪ": 3777,
      "teu": 3778,
      "Ġdirecte": 3779,
      "ĠÂ·": 3780,
      "Ġcicle": 3781,
      "ĠelÃ¨c": 3782,
      "Ġmunicipis": 3783,
      "entorn": 3784,
      "Ġlluny": 3785,
      "Ġtroben": 3786,
      "Ġaquella": 3787,
      "Ġperdu": 3788,
      "Ġtreballant": 3789,
      "AixÃŃ": 3790,
      "Car": 3791,
      "rant": 3792,
      "Ġub": 3793,
      "quem": 3794,
      "ĠMen": 3795,
      "ERC": 3796,
      "Ġresponsabilitat": 3797,
      "Ãłlisi": 3798,
      "ografies": 3799,
      "tel": 3800,
      "metres": 3801,
      "ĠBarÃ§a": 3802,
      "ĠComp": 3803,
      "Ġdescobrir": 3804,
      "ĠPremi": 3805,
      "40": 3806,
      "mer": 3807,
      "ome": 3808,
      "Ġdelic": 3809,
      "ĠMat": 3810,
      "âĨĳ": 3811,
      "Ġtir": 3812,
      "ĠCivil": 3813,
      "Ġprincipis": 3814,
      "ĠraÃ³": 3815,
      "Ġcomarca": 3816,
      "Ġpret": 3817,
      "ĠEstats": 3818,
      "Ġtraslla": 3819,
      "ologies": 3820,
      "Ġmec": 3821,
      "Ġnomb": 3822,
      "fiques": 3823,
      "ĠReus": 3824,
      "Ġcelebra": 3825,
      "Ġindependen": 3826,
      "Ġpren": 3827,
      "Ãłstic": 3828,
      ".-": 3829,
      "cats": 3830,
      "quil": 3831,
      "ticles": 3832,
      "Ġmaterials": 3833,
      "ĠPl": 3834,
      "ĠSÃ¡nchez": 3835,
      "Ġeix": 3836,
      "dez": 3837,
      "ĠcompromÃŃs": 3838,
      "ua": 3839,
      "Ġpsic": 3840,
      "ompl": 3841,
      "Ġproves": 3842,
      "umental": 3843,
      "ĠDavid": 3844,
      "ang": 3845,
      "Ġcoincid": 3846,
      "Ġsituat": 3847,
      "icions": 3848,
      "esquerra": 3849,
      "Ġrelig": 3850,
      "ories": 3851,
      "Ġinclou": 3852,
      "Ġtaller": 3853,
      "Ġdibuix": 3854,
      "Â«": 3855,
      "ĠPe": 3856,
      "ĠUnits": 3857,
      "udes": 3858,
      "Ġvesti": 3859,
      "Ġestim": 3860,
      "Ġobrir": 3861,
      "ĠJuan": 3862,
      "ociacions": 3863,
      "istÃ²ria": 3864,
      "Ġ2009": 3865,
      "ĠBr": 3866,
      "rics": 3867,
      "Ġpersonatges": 3868,
      "28": 3869,
      "ws": 3870,
      "Ġpista": 3871,
      "ĠBe": 3872,
      "ficient": 3873,
      "Ġpersonals": 3874,
      "ĠclÃłss": 3875,
      "ĠindependÃ¨ncia": 3876,
      "Ġgui": 3877,
      "ĠPR": 3878,
      "Ġrecorregut": 3879,
      "vas": 3880,
      "Ġactes": 3881,
      "eses": 3882,
      "ĠcÃ²m": 3883,
      "ĠSec": 3884,
      "pies": 3885,
      "Ġpolicia": 3886,
      "Ġoblig": 3887,
      "vats": 3888,
      "ĠBer": 3889,
      "Ġajuda": 3890,
      "lusi": 3891,
      "Ġtreure": 3892,
      "Ġpell": 3893,
      "Ġpub": 3894,
      "Ġprob": 3895,
      "29": 3896,
      "ĠcomÃº": 3897,
      "Ġcompra": 3898,
      "espera": 3899,
      "Ġsindic": 3900,
      "Ġhabitacions": 3901,
      "ĠValenciana": 3902,
      "ĠFestival": 3903,
      "Ã±a": 3904,
      "rarÃł": 3905,
      "ertura": 3906,
      "ĠDurant": 3907,
      "Ġprevist": 3908,
      "Ġimplic": 3909,
      "Ġformar": 3910,
      "Ġestran": 3911,
      "ĠPalau": 3912,
      "anisme": 3913,
      "urg": 3914,
      "ĠEns": 3915,
      "Ġcotxe": 3916,
      "Ġconstruir": 3917,
      "ĠAlbert": 3918,
      "tas": 3919,
      "gueu": 3920,
      "ĠAss": 3921,
      "ulat": 3922,
      "Ġciutats": 3923,
      "Ġgar": 3924,
      "Ġseguit": 3925,
      "ĠMartÃŃn": 3926,
      "riure": 3927,
      "Ġess": 3928,
      "arcal": 3929,
      "Ġtancar": 3930,
      "ĠpÃºbliques": 3931,
      "ino": 3932,
      "Ġacte": 3933,
      "Ġagents": 3934,
      "Ġgrau": 3935,
      "Ġtotalment": 3936,
      "Ġpublicat": 3937,
      "Ġindustri": 3938,
      "etats": 3939,
      "expres": 3940,
      "Ġaccedir": 3941,
      "Ġmostrar": 3942,
      "itor": 3943,
      "Ġjard": 3944,
      "Ġconvid": 3945,
      "Ġprogrames": 3946,
      "Ġescoles": 3947,
      "Ġcontext": 3948,
      "Ġ2007": 3949,
      "Ġrecuperar": 3950,
      "ĠLluÃŃs": 3951,
      "org": 3952,
      "uncia": 3953,
      "ĠCUP": 3954,
      "giques": 3955,
      "Ġassol": 3956,
      "Ġpreveu": 3957,
      "Ġ196": 3958,
      "tana": 3959,
      "vistes": 3960,
      "Ġjuntament": 3961,
      "ĠCul": 3962,
      "2019": 3963,
      "Ġnete": 3964,
      "EducaciÃ³": 3965,
      "eus": 3966,
      "Ġalterna": 3967,
      "Ġestudiants": 3968,
      "Ġder": 3969,
      "riol": 3970,
      "errat": 3971,
      "Ġfestival": 3972,
      "Ã²leg": 3973,
      "ables": 3974,
      "ĠmitjÃł": 3975,
      "Ġ60": 3976,
      "Ġescriure": 3977,
      "lle": 3978,
      "Ġpuc": 3979,
      "Ġfix": 3980,
      "Ġnota": 3981,
      "ĠRÃłdio": 3982,
      "wit": 3983,
      "Ġregu": 3984,
      "ĠgrÃł": 3985,
      "ĠJes": 3986,
      "Ġformes": 3987,
      "Ġmitjana": 3988,
      "economia": 3989,
      "Ġdesenvolupar": 3990,
      "Ġjugadors": 3991,
      "ĠsegÃ¼ents": 3992,
      "ĠMed": 3993,
      "Ġdestaca": 3994,
      "mor": 3995,
      "ĠBra": 3996,
      "Ġincl": 3997,
      "Ġactuacions": 3998,
      "Ġfestes": 3999,
      "Ġneu": 4000,
      "Ġganes": 4001,
      "Ġparts": 4002,
      "dacciÃ³": 4003,
      "Ġdetec": 4004,
      "ĠSÃŃ": 4005,
      "ribuciÃ³": 4006,
      "Ġanimals": 4007,
      "ĠelectrÃ²nic": 4008,
      "Barcelona": 4009,
      "ki": 4010,
      "olÃŃ": 4011,
      "Ġconegut": 4012,
      "Ġconsol": 4013,
      "Ġportes": 4014,
      "Europa": 4015,
      "ump": 4016,
      "Ġrequer": 4017,
      "ĠPot": 4018,
      "Ġpagar": 4019,
      "Ġterren": 4020,
      "ĠRamon": 4021,
      "Ġfigura": 4022,
      "ĠSabadell": 4023,
      "bi": 4024,
      "Ġeta": 4025,
      "ĠTreb": 4026,
      "Ġexisteix": 4027,
      "Segons": 4028,
      "enf": 4029,
      "usuari": 4030,
      "dores": 4031,
      "Ġprimeres": 4032,
      "anim": 4033,
      "ĠVil": 4034,
      "ĠJuli": 4035,
      "equ": 4036,
      "ore": 4037,
      "Ġfel": 4038,
      "Ġbe": 4039,
      "Ġgos": 4040,
      "Ã³rrer": 4041,
      "opa": 4042,
      "ĠtÃ¨cnica": 4043,
      "Ġdenunci": 4044,
      "iental": 4045,
      "vÃ¨ncia": 4046,
      "odes": 4047,
      "Ġacus": 4048,
      "Ġcompos": 4049,
      "ĠprÃ¨via": 4050,
      "Ġfab": 4051,
      "ĠCasa": 4052,
      "Ġacabat": 4053,
      "Ġnega": 4054,
      "ĠallÃł": 4055,
      "ĠLlei": 4056,
      "Ġregidor": 4057,
      "ĠcaracterÃŃstiques": 4058,
      "ĠBalears": 4059,
      "ĠTen": 4060,
      "Ġ193": 4061,
      "Ġvenda": 4062,
      "Ġescrit": 4063,
      "mon": 4064,
      "Ġbomb": 4065,
      "vades": 4066,
      "amÃŃ": 4067,
      "ler": 4068,
      "Ġacos": 4069,
      "ĠsÃ²": 4070,
      "Ã³c": 4071,
      "ĠPel": 4072,
      "Ġaprofi": 4073,
      "Ġhumans": 4074,
      "Ġdiuen": 4075,
      "Ġblanc": 4076,
      "lant": 4077,
      "rÃŃc": 4078,
      "ĠMari": 4079,
      "Ġnav": 4080,
      "tituciÃ³": 4081,
      "Ġdespla": 4082,
      "ĠconfianÃ§a": 4083,
      "Cal": 4084,
      "fÃŃ": 4085,
      "ĠMÃ©s": 4086,
      "ĠBi": 4087,
      "Ġabs": 4088,
      "Ġbloc": 4089,
      "ĠMallorca": 4090,
      "ite": 4091,
      "Ġretorn": 4092,
      "ĠRob": 4093,
      "home": 4094,
      "Durant": 4095,
      "ich": 4096,
      "Ġplena": 4097,
      "ĠNova": 4098,
      "gatz": 4099,
      "sible": 4100,
      "Ġparaula": 4101,
      "escrip": 4102,
      "Ġtercera": 4103,
      "ĠÃ¨xit": 4104,
      "rot": 4105,
      "Ġalta": 4106,
      "Ġgol": 4107,
      "Ġge": 4108,
      "idors": 4109,
      "nima": 4110,
      "Ġmeitat": 4111,
      "Ġcontribu": 4112,
      "experiÃ¨ncia": 4113,
      "Ġtecnologia": 4114,
      "Ġpeu": 4115,
      "arr": 4116,
      "Ġcosta": 4117,
      "ĠrÃłpi": 4118,
      "ĠMartÃŃ": 4119,
      "ĠTots": 4120,
      "ack": 4121,
      "Ġculturals": 4122,
      "Ġdisposi": 4123,
      "origen": 4124,
      "ox": 4125,
      "Ġlid": 4126,
      "Ã¨rica": 4127,
      "Ġarticle": 4128,
      "ĠtÃ¨cnic": 4129,
      "'t": 4130,
      "Ġpleg": 4131,
      "ĠpÃ¨r": 4132,
      "taran": 4133,
      "ĠTel": 4134,
      "Ġguia": 4135,
      "Ġprior": 4136,
      "Ġrecoman": 4137,
      "US": 4138,
      "Ġnove": 4139,
      "2018": 4140,
      "ay": 4141,
      "Ġ&": 4142,
      "rez": 4143,
      "iniÃ³": 4144,
      "2020": 4145,
      "Ġsort": 4146,
      "Ġvaria": 4147,
      "Ġinfer": 4148,
      "Ġclasses": 4149,
      "Ġvesp": 4150,
      "ĠCiutat": 4151,
      "vic": 4152,
      "guÃ©": 4153,
      "ĠPER": 4154,
      "ANT": 4155,
      "Ġmis": 4156,
      "exc": 4157,
      "ĠfreqÃ¼": 4158,
      "Ġfom": 4159,
      "Ġbanc": 4160,
      "ĠpresÃ³": 4161,
      "Ġgust": 4162,
      "actual": 4163,
      "ted": 4164,
      "ĠDon": 4165,
      "giny": 4166,
      "Ġtitular": 4167,
      "Ġcad": 4168,
      "ĠsoluciÃ³": 4169,
      "ĠcontinuaciÃ³": 4170,
      "Ġnecessita": 4171,
      "Ġestil": 4172,
      "erament": 4173,
      "partament": 4174,
      "ĠcrÃŃ": 4175,
      "zz": 4176,
      "enten": 4177,
      "Ġperme": 4178,
      "ĠBor": 4179,
      "ĠFac": 4180,
      "versari": 4181,
      "enar": 4182,
      "Ġhip": 4183,
      "Ġaplica": 4184,
      "ental": 4185,
      "itzat": 4186,
      "forme": 4187,
      "Avui": 4188,
      "nis": 4189,
      "Ġcolors": 4190,
      "Ġparticipa": 4191,
      "retera": 4192,
      "Ãłrdia": 4193,
      "eig": 4194,
      "ĠIs": 4195,
      "Ġdestacar": 4196,
      "emblea": 4197,
      "rament": 4198,
      "ĠCi": 4199,
      "Ġcamin": 4200,
      "Ġpeces": 4201,
      "gim": 4202,
      "ue": 4203,
      "Ġmuntanya": 4204,
      "Ġdeixat": 4205,
      "ĠSala": 4206,
      "xiu": 4207,
      "Ġparella": 4208,
      "EG": 4209,
      "Ġdesitj": 4210,
      "interÃ¨s": 4211,
      "Ġquil": 4212,
      "Ġheu": 4213,
      "Ġeines": 4214,
      "Ġcompor": 4215,
      "Ġfamiliars": 4216,
      "Ġnuc": 4217,
      "Ġescrip": 4218,
      "vocar": 4219,
      "eral": 4220,
      "Ġconduc": 4221,
      "orament": 4222,
      "Ens": 4223,
      "Ġtallers": 4224,
      "78": 4225,
      "Ġcondi": 4226,
      "Ġaband": 4227,
      "estructura": 4228,
      "Rec": 4229,
      "atori": 4230,
      "Ġinau": 4231,
      "pita": 4232,
      "tides": 4233,
      "Ġpolici": 4234,
      "Ġaquelles": 4235,
      "Ġgaire": 4236,
      "Ġmembre": 4237,
      "oms": 4238,
      "Ġban": 4239,
      "ĠvisiÃ³": 4240,
      "Ġpregunta": 4241,
      "nia": 4242,
      "Ġfort": 4243,
      "riu": 4244,
      "Ġparc": 4245,
      "times": 4246,
      "Ġsatisf": 4247,
      "witter": 4248,
      "Ab": 4249,
      "IR": 4250,
      "Ġcontes": 4251,
      "ĠrÃ¨": 4252,
      "enciar": 4253,
      "ĠavanÃ§": 4254,
      "ĠsecciÃ³": 4255,
      "Ġaprof": 4256,
      "ire": 4257,
      "ando": 4258,
      "Ġllarga": 4259,
      "ĠpÃ¨rdu": 4260,
      ");": 4261,
      "iny": 4262,
      "Ġrit": 4263,
      "Ġperman": 4264,
      "ĠEuropea": 4265,
      "Ġplante": 4266,
      "Ġinaugu": 4267,
      "pes": 4268,
      "Ġinterpre": 4269,
      "Ġaigua": 4270,
      "Par": 4271,
      "ĠCamb": 4272,
      "ĠdiferÃ¨ncia": 4273,
      "Ġvehicles": 4274,
      "ĠcÃłn": 4275,
      "onomia": 4276,
      "Ġenerg": 4277,
      "Ġgreu": 4278,
      "Ġrecull": 4279,
      "Ġpau": 4280,
      "ĠvictÃ²ria": 4281,
      "ĠAL": 4282,
      "ĠMedi": 4283,
      "Ġcorona": 4284,
      "Ġverm": 4285,
      "ĠcelebraciÃ³": 4286,
      "ĠServei": 4287,
      "ĠCab": 4288,
      "truÃ¯": 4289,
      "Ġru": 4290,
      "ĠdisposiciÃ³": 4291,
      "ias": 4292,
      "ĠSÃ³n": 4293,
      "gatzem": 4294,
      "ACIÃĵ": 4295,
      "hor": 4296,
      "Ġis": 4297,
      "Ġacaba": 4298,
      "Ġkm": 4299,
      "del": 4300,
      "rees": 4301,
      "Ġtru": 4302,
      "Ġeng": 4303,
      "Ġpossibles": 4304,
      "tiquetes": 4305,
      "Ġnombros": 4306,
      "Ġrecorda": 4307,
      "ĠGuerra": 4308,
      "Ġtrobat": 4309,
      "Ġapareix": 4310,
      "ĠfÃŃsica": 4311,
      "ĠComun": 4312,
      "Ġproced": 4313,
      "Ca": 4314,
      "Ġress": 4315,
      "Ġrepro": 4316,
      "Ġidees": 4317,
      "Ġfemen": 4318,
      "ĠOl": 4319,
      "Ġconcre": 4320,
      "Ġrealitzat": 4321,
      "Ġmilitar": 4322,
      "Ġfonts": 4323,
      "ĠRub": 4324,
      "avui": 4325,
      "ĠprÃłctiques": 4326,
      "aplicaciÃ³": 4327,
      "Ġbici": 4328,
      "Ġempresari": 4329,
      "sign": 4330,
      "ĠII": 4331,
      "Ġsolid": 4332,
      "ĠĠĠĠĠĠĠ": 4333,
      "Ġdocument": 4334,
      "cen": 4335,
      "toc": 4336,
      "Ġllo": 4337,
      "Ġfoto": 4338,
      "Ġportaveu": 4339,
      "ĠtelÃ¨fon": 4340,
      "mos": 4341,
      "Ġadqui": 4342,
      "ĠXV": 4343,
      "ÃĴ": 4344,
      "siques": 4345,
      "exp": 4346,
      "ocupaciÃ³": 4347,
      "Va": 4348,
      "rb": 4349,
      "usiÃ³": 4350,
      "ĠERC": 4351,
      "tren": 4352,
      "lars": 4353,
      "ĠâĢ¦": 4354,
      "Ġpreguntes": 4355,
      "ĠMossos": 4356,
      "ĠconvocatÃ²ria": 4357,
      "interior": 4358,
      "ĠFins": 4359,
      "Ġulls": 4360,
      "th": 4361,
      "Ġmad": 4362,
      "Ġdesapar": 4363,
      "ĠselecciÃ³": 4364,
      "gles": 4365,
      "Ġestic": 4366,
      "Ãºnic": 4367,
      "menys": 4368,
      "Ġescolar": 4369,
      "enÃ§a": 4370,
      "Ġdedica": 4371,
      "Ġvols": 4372,
      "Ġreconeixement": 4373,
      "PA": 4374,
      "ĠmÃºs": 4375,
      "ĠMajor": 4376,
      "ĠlÃŃnies": 4377,
      "IG": 4378,
      "ph": 4379,
      "Ġreduir": 4380,
      "ĠPir": 4381,
      "ĠFa": 4382,
      "ĠIN": 4383,
      "lecciÃ³": 4384,
      "ĠpromociÃ³": 4385,
      "ogrÃłfic": 4386,
      "enÃ§": 4387,
      "ĠRod": 4388,
      "Ġuniversi": 4389,
      "Ġteniu": 4390,
      "Ãºstria": 4391,
      "Ġafirma": 4392,
      "Ebre": 4393,
      "tip": 4394,
      "Ġvel": 4395,
      "ĠBal": 4396,
      "Ġmaj": 4397,
      "Ġvolia": 4398,
      "eries": 4399,
      "Ġfotografia": 4400,
      "Ġtradicional": 4401,
      "Ġbones": 4402,
      "istent": 4403,
      "obregat": 4404,
      "ĠintervenciÃ³": 4405,
      "Ġcerta": 4406,
      "Ġvostres": 4407,
      "istori": 4408,
      "ilib": 4409,
      "Ġplaces": 4410,
      "2017": 4411,
      "ĠtÃ¨cniques": 4412,
      "tÃłncies": 4413,
      "enyament": 4414,
      "Ãłrea": 4415,
      "ĠFor": 4416,
      "Ġaporta": 4417,
      "Ġhabitual": 4418,
      "informaciÃ³": 4419,
      "ĠFern": 4420,
      "Ġdispu": 4421,
      "ogle": 4422,
      "Ġplantes": 4423,
      "ĠJesÃºs": 4424,
      "Ġcura": 4425,
      "ÃŃssi": 4426,
      "Ġrepresentants": 4427,
      "Ġelim": 4428,
      "ĠGal": 4429,
      "ansa": 4430,
      "gida": 4431,
      "ĠComissiÃ³": 4432,
      "Ãī": 4433,
      "Ġdeleg": 4434,
      "Ġblog": 4435,
      "Ġcarretera": 4436,
      "Ġmagn": 4437,
      "Ġdonen": 4438,
      "Ġvuln": 4439,
      "ĠRepÃºblica": 4440,
      ".,": 4441,
      "enca": 4442,
      "ĠPre": 4443,
      "Ġpermetre": 4444,
      "cul": 4445,
      "Ġnenes": 4446,
      "Ġsecreta": 4447,
      "Ġturisme": 4448,
      "Ġdeia": 4449,
      "cit": 4450,
      "emanya": 4451,
      "ĠSuper": 4452,
      "licitat": 4453,
      "Ġeurope": 4454,
      "apren": 4455,
      "Ġinflu": 4456,
      "ports": 4457,
      "ecutiu": 4458,
      "ĠXavier": 4459,
      "Cons": 4460,
      "Ġsop": 4461,
      "ĠCat": 4462,
      "activitats": 4463,
      "Ġcarrera": 4464,
      "Ġassum": 4465,
      "ĠInf": 4466,
      "Ġsistemes": 4467,
      "Ġdam": 4468,
      "Ġtens": 4469,
      "ters": 4470,
      "olesc": 4471,
      "Ġdesper": 4472,
      "Ġruta": 4473,
      "Ġarreu": 4474,
      "ĠcomenÃ§at": 4475,
      "Ġaprendre": 4476,
      "aven": 4477,
      "ossa": 4478,
      "Ġpassada": 4479,
      "QuÃ¨": 4480,
      "onor": 4481,
      "Ġquedat": 4482,
      "Ġfuncions": 4483,
      "ĠServeis": 4484,
      "Ġfelici": 4485,
      "ente": 4486,
      "Ġincid": 4487,
      "ĠLocal": 4488,
      "Ġcomoditats": 4489,
      "Ġcompro": 4490,
      "Ã¯da": 4491,
      "Ġvolgut": 4492,
      "ĠdistÃłncia": 4493,
      "ĠVallÃ¨s": 4494,
      "bal": 4495,
      "hn": 4496,
      "Ġfinalitat": 4497,
      "vells": 4498,
      "Ġend": 4499,
      "ĠmantÃ©": 4500,
      "Ġexperim": 4501,
      "OMP": 4502,
      "virus": 4503,
      "Ġbra": 4504,
      "ĠTan": 4505,
      "teixen": 4506,
      "Ġjocs": 4507,
      "ĠAjuntament": 4508,
      "ĠNomÃ©s": 4509,
      "Ġconseller": 4510,
      "Ġsenzill": 4511,
      "Ġfaran": 4512,
      "siu": 4513,
      "ĠRi": 4514,
      "ĠFira": 4515,
      "Ġpassant": 4516,
      "bilitats": 4517,
      "gica": 4518,
      "Ġdoble": 4519,
      "Ã²c": 4520,
      "ĠLlobregat": 4521,
      "ror": 4522,
      "rin": 4523,
      "estre": 4524,
      "Ġby": 4525,
      "Ã§at": 4526,
      "ĠFederaciÃ³": 4527,
      "ĠComunitat": 4528,
      "Ġorganitzat": 4529,
      "alumnat": 4530,
      "onal": 4531,
      "ĠPort": 4532,
      "Ġprohib": 4533,
      "erac": 4534,
      "Ġsituacions": 4535,
      "ecuciÃ³": 4536,
      "Ġtenien": 4537,
      "ĠmÃłxima": 4538,
      "ĠCosta": 4539,
      "Ġinteressant": 4540,
      "item": 4541,
      "Ġargu": 4542,
      "Ġcomercial": 4543,
      "Ġcondem": 4544,
      "mentat": 4545,
      "ĠrecuperaciÃ³": 4546,
      "ĠcastellÃł": 4547,
      "Ġconstant": 4548,
      "Ġdestacat": 4549,
      "gis": 4550,
      "sin": 4551,
      "Ġmodern": 4552,
      "Ġmorir": 4553,
      "licitu": 4554,
      "Ġoriginal": 4555,
      "Ġprocessos": 4556,
      "ĠpretÃ©n": 4557,
      "fÃŃcie": 4558,
      "Ob": 4559,
      "Ġimagin": 4560,
      "Ġvot": 4561,
      "ĠRom": 4562,
      "igÃ¼es": 4563,
      "pez": 4564,
      "Ġmanteniment": 4565,
      "Ġjudici": 4566,
      "Ġdo": 4567,
      "Ġsot": 4568,
      "Ġreflex": 4569,
      "Ġfacilitar": 4570,
      "ĠBiblioteca": 4571,
      "Ġquali": 4572,
      "ĠMag": 4573,
      "ĠBl": 4574,
      "Ġvolta": 4575,
      "americ": 4576,
      "ĠOc": 4577,
      "Ġassegura": 4578,
      "Ġcompanys": 4579,
      "encials": 4580,
      "ĠnecessÃłria": 4581,
      "Ġelectoral": 4582,
      "ordÃł": 4583,
      "Entre": 4584,
      "Ġxi": 4585,
      "Ġexcel": 4586,
      "unitats": 4587,
      "ĠBon": 4588,
      "Ġtranquil": 4589,
      "Pel": 4590,
      "http": 4591,
      "teris": 4592,
      "Ġpublicar": 4593,
      "Ġfont": 4594,
      "Ġenguany": 4595,
      "ĠSu": 4596,
      "ĠSup": 4597,
      "queta": 4598,
      "Ġbusca": 4599,
      "cadÃ¨m": 4600,
      "tador": 4601,
      "cisament": 4602,
      "ĠvalenciÃł": 4603,
      "fe": 4604,
      "ity": 4605,
      "erada": 4606,
      "ĠNat": 4607,
      "ĠTerrassa": 4608,
      "Ġcant": 4609,
      "Ġteix": 4610,
      "ĠDis": 4611,
      "ĠGarc": 4612,
      "adores": 4613,
      "ĠacciÃ³": 4614,
      "operaciÃ³": 4615,
      "Ã²nim": 4616,
      "ĠinvestigaciÃ³": 4617,
      "UL": 4618,
      "issions": 4619,
      "dura": 4620,
      "EST": 4621,
      "Ġsorg": 4622,
      "Ġele": 4623,
      "ĠCada": 4624,
      "Ġpagament": 4625,
      "Ġmeus": 4626,
      "Ġ80": 4627,
      "Ġassegurar": 4628,
      "Ġiniciar": 4629,
      "Ġresponsables": 4630,
      "Ġmissatge": 4631,
      "Ġnaveg": 4632,
      "Ãºria": 4633,
      "Ġmobilitat": 4634,
      "Ġrevista": 4635,
      "Ġprec": 4636,
      "Ġordin": 4637,
      "entes": 4638,
      "Ġrei": 4639,
      "ĠLL": 4640,
      "Ġartistes": 4641,
      "2021": 4642,
      "Ġsign": 4643,
      "Ġrepe": 4644,
      "mi": 4645,
      "Ġmu": 4646,
      "ĠFesta": 4647,
      "rere": 4648,
      "ONS": 4649,
      "ĠMundial": 4650,
      "inari": 4651,
      "ico": 4652,
      "ĠMÃºsica": 4653,
      "Ġcursos": 4654,
      "dria": 4655,
      "ĠcomerÃ§": 4656,
      "ulta": 4657,
      "icacions": 4658,
      "ĠOli": 4659,
      "Ġprogram": 4660,
      "pir": 4661,
      "rÃ²": 4662,
      "Pos": 4663,
      "tro": 4664,
      "Ġvots": 4665,
      "jant": 4666,
      "arques": 4667,
      "itza": 4668,
      "Ġcorre": 4669,
      "Ġcerca": 4670,
      "ĠPaÃŃs": 4671,
      "dal": 4672,
      "our": 4673,
      "Ġqued": 4674,
      "Ġnarra": 4675,
      "Ġoper": 4676,
      "ĠIlles": 4677,
      "ĠUN": 4678,
      "Ġintentar": 4679,
      "Ġliteratura": 4680,
      "line": 4681,
      "Ġsessions": 4682,
      "Ġreac": 4683,
      "Ġanem": 4684,
      "ĠJust": 4685,
      "Ġvisitants": 4686,
      "Ġful": 4687,
      "Ġpobles": 4688,
      "ILL": 4689,
      "ama": 4690,
      "ugi": 4691,
      "Ġreforma": 4692,
      "ĠAs": 4693,
      "ults": 4694,
      "Ġfeta": 4695,
      "actuaciÃ³": 4696,
      "Ġpacients": 4697,
      "efec": 4698,
      "ĠcÃłm": 4699,
      "prendre": 4700,
      "Ġadre": 4701,
      "udit": 4702,
      "Ġmotius": 4703,
      "Ġdocum": 4704,
      "ĠPSOE": 4705,
      "Ġquart": 4706,
      "Ġnen": 4707,
      "Ã¨nd": 4708,
      "Ġoberta": 4709,
      "vencions": 4710,
      "Ġsuperar": 4711,
      "ĠrepresentaciÃ³": 4712,
      "Ġba": 4713,
      "Ġpreus": 4714,
      "ĠtradiciÃ³": 4715,
      "endes": 4716,
      "ĠÃºtil": 4717,
      "ĠhaguÃ©s": 4718,
      "ĠRaf": 4719,
      "mac": 4720,
      "grama": 4721,
      "tÃłria": 4722,
      "Ġdamunt": 4723,
      "84": 4724,
      "Ġerr": 4725,
      "iga": 4726,
      "Ġcompon": 4727,
      "ĠautÃ²n": 4728,
      "Ġconeixements": 4729,
      "Ġpropietat": 4730,
      "Ġconsulta": 4731,
      "OB": 4732,
      "mem": 4733,
      "Ġingres": 4734,
      "Ġbons": 4735,
      "ĠdiÃłleg": 4736,
      "ĠFl": 4737,
      "Ġentrada": 4738,
      "Ġvisites": 4739,
      "Ãºltima": 4740,
      "Ġinvesti": 4741,
      "ĠUE": 4742,
      "gram": 4743,
      "uraciÃ³": 4744,
      "Ġpantalla": 4745,
      "ck": 4746,
      "ow": 4747,
      "Ã²giques": 4748,
      "Ġbosc": 4749,
      "Ġviva": 4750,
      "Ġ35": 4751,
      "Ġsilenci": 4752,
      "Ġdorm": 4753,
      "ÃŃp": 4754,
      "Ġperspec": 4755,
      "tÃłlia": 4756,
      "Ġtingui": 4757,
      "ĠprogramaciÃ³": 4758,
      "espectac": 4759,
      "Mol": 4760,
      "oraciÃ³": 4761,
      "Ġfres": 4762,
      "Ġvide": 4763,
      "osten": 4764,
      "venil": 4765,
      "ĠOn": 4766,
      "Ġsabem": 4767,
      "ĠgratuÃ¯t": 4768,
      "ĠMontserrat": 4769,
      "his": 4770,
      "Ġalcal": 4771,
      "ĠTribunal": 4772,
      "III": 4773,
      "ionat": 4774,
      "jud": 4775,
      "ĠSerra": 4776,
      "ĠFont": 4777,
      "Ġconcret": 4778,
      "Ġpersonatge": 4779,
      "anova": 4780,
      "Ġsubstitu": 4781,
      "ĠcientÃŃfic": 4782,
      "Ġglobal": 4783,
      "OP": 4784,
      "Ġvull": 4785,
      "Ġperfil": 4786,
      "uss": 4787,
      "Ġprogres": 4788,
      "Ġpujar": 4789,
      "ĠCultural": 4790,
      "Ġquant": 4791,
      "Ãłvem": 4792,
      "ORS": 4793,
      "ĠpublicaciÃ³": 4794,
      "erna": 4795,
      "Ġllengu": 4796,
      "ĠCastellÃ³": 4797,
      "Ġdra": 4798,
      "Ġarr": 4799,
      "energia": 4800,
      "Ġmenor": 4801,
      "Ġ90": 4802,
      "Ġcotxes": 4803,
      "Ġprotagonista": 4804,
      "enat": 4805,
      "riÃł": 4806,
      "liquen": 4807,
      "Ġmanca": 4808,
      "ĠOb": 4809,
      "Ġadop": 4810,
      "Ġelles": 4811,
      "Ġforces": 4812,
      "ulars": 4813,
      "Ġparticipat": 4814,
      "Ġreflexi": 4815,
      "Ġassegurat": 4816,
      "Ġdificultats": 4817,
      "Mar": 4818,
      "pora": 4819,
      "Ġanteriors": 4820,
      "Ġconsta": 4821,
      "ĠespÃ¨": 4822,
      "Ãłmica": 4823,
      "Ġplatja": 4824,
      "guera": 4825,
      "ÃŃstics": 4826,
      "Ġvoler": 4827,
      "ĠConc": 4828,
      "Ġproduir": 4829,
      "Us": 4830,
      "Ġsocis": 4831,
      "ĠopciÃ³": 4832,
      "Ġdefinitiva": 4833,
      "Ġdescar": 4834,
      "Ġsectors": 4835,
      "Ġobligat": 4836,
      "ĠlÃŃder": 4837,
      "Actu": 4838,
      "arribada": 4839,
      "ĠCiutadans": 4840,
      "ĠGarcÃŃa": 4841,
      "ry": 4842,
      "rÃ³": 4843,
      "Ġafegir": 4844,
      "Ġpopulars": 4845,
      "ĠcanÃ§ons": 4846,
      "ordre": 4847,
      "ugat": 4848,
      "ĠAquests": 4849,
      "ĠCongrÃ©s": 4850,
      "Ġeducatiu": 4851,
      "eixin": 4852,
      "Ġapren": 4853,
      "mig": 4854,
      "quina": 4855,
      "Ġalim": 4856,
      "Ġinteressos": 4857,
      "On": 4858,
      "antat": 4859,
      "timent": 4860,
      "Ġseues": 4861,
      "ĠNou": 4862,
      "ĠlocalitzaciÃ³": 4863,
      "diovis": 4864,
      "Ã³pez": 4865,
      "oss": 4866,
      "ĠNotÃŃcies": 4867,
      "avor": 4868,
      "Ġvisc": 4869,
      "ĠÃģ": 4870,
      "Ġcatalanes": 4871,
      "ĠAquestes": 4872,
      "ĠPolicia": 4873,
      "Ġafegit": 4874,
      "cÃ³": 4875,
      "Ġbany": 4876,
      "abs": 4877,
      "rened": 4878,
      "ĠconseqÃ¼Ã¨ncia": 4879,
      "Ġfitx": 4880,
      "Ġfiscal": 4881,
      "ĠCatalÃł": 4882,
      "Ãłnia": 4883,
      "Ã¡ndez": 4884,
      "ĠintenciÃ³": 4885,
      "ĠTreball": 4886,
      "Ġatrac": 4887,
      "Ġhttp": 4888,
      "Ġindica": 4889,
      "Ġmenors": 4890,
      "ficacions": 4891,
      "ĠÃŃn": 4892,
      "esglÃ©sia": 4893,
      "ĠAg": 4894,
      "Ġcases": 4895,
      "Ġformen": 4896,
      "Ġfotografies": 4897,
      "Ġunivers": 4898,
      "Ġdarrere": 4899,
      "fons": 4900,
      "esia": 4901,
      "Ġtret": 4902,
      "Ġvost": 4903,
      "ĠVan": 4904,
      "Ġdescomp": 4905,
      "UM": 4906,
      "ĠacadÃ¨m": 4907,
      "Ġdepartament": 4908,
      "osi": 4909,
      "ĠLi": 4910,
      "tÃłncia": 4911,
      "rgell": 4912,
      "Ġperdut": 4913,
      "ĠatenciÃ³": 4914,
      "ĠAC": 4915,
      "alitza": 4916,
      "Ġxoc": 4917,
      "Ġregis": 4918,
      "Ġrendi": 4919,
      "ĠmÃ¨t": 4920,
      "AV": 4921,
      "Ġpac": 4922,
      "Ġtoca": 4923,
      "Ġesca": 4924,
      "Ġtenint": 4925,
      "exerci": 4926,
      "Ġestable": 4927,
      "Ġcerti": 4928,
      "Ġritme": 4929,
      "aprenentatge": 4930,
      "Ġprac": 4931,
      "Ġclient": 4932,
      "Ġconcepte": 4933,
      "Ġcita": 4934,
      "lab": 4935,
      "Ġdesig": 4936,
      "Ġ2022": 4937,
      "idor": 4938,
      "ĠpÃłgines": 4939,
      "hem": 4940,
      "mbits": 4941,
      "Ġdiscurs": 4942,
      "Ġconfigu": 4943,
      "Ġsolucions": 4944,
      "33": 4945,
      "urien": 4946,
      "administraciÃ³": 4947,
      "Ãºnica": 4948,
      "Ġestaven": 4949,
      "mateix": 4950,
      "Ġnormativa": 4951,
      "Cat": 4952,
      "rants": 4953,
      "Ġpend": 4954,
      "Ġunitat": 4955,
      "ĠMir": 4956,
      "Ġnivells": 4957,
      "Ġdecisions": 4958,
      "48": 4959,
      "Ġvaren": 4960,
      "Ġpodrien": 4961,
      "ollit": 4962,
      "Ġtasques": 4963,
      "UT": 4964,
      "itar": 4965,
      "lent": 4966,
      "ĠprevenciÃ³": 4967,
      "Ġsensi": 4968,
      "Ġdecidit": 4969,
      "ĠjustÃŃcia": 4970,
      "cons": 4971,
      "Ġdimen": 4972,
      "Ġjusti": 4973,
      "Ġ70": 4974,
      "emÃłtiques": 4975,
      "Ġmirar": 4976,
      "Ġderro": 4977,
      "Ġllui": 4978,
      "Ġdonant": 4979,
      "Ġpetites": 4980,
      "Ġcurt": 4981,
      "RES": 4982,
      "hes": 4983,
      "itants": 4984,
      "Ġfilla": 4985,
      "guis": 4986,
      "adap": 4987,
      "Ġtransform": 4988,
      "Ġrecollida": 4989,
      "IP": 4990,
      "rani": 4991,
      "llat": 4992,
      "Ġorganitza": 4993,
      "ĠhistÃ²ric": 4994,
      "Ġassenyal": 4995,
      "Ġsof": 4996,
      "Ġbiblioteca": 4997,
      "ĠMu": 4998,
      "ĠTrans": 4999,
      "anyola": 5000,
      "Ġcarta": 5001,
      "Em": 5002,
      "ĠOfer": 5003,
      "Ġopcions": 5004,
      "Ã±o": 5005,
      "Ġcomplex": 5006,
      "ĠhumÃł": 5007,
      "cindi": 5008,
      "Hospital": 5009,
      "quad": 5010,
      "Ġeste": 5011,
      "usa": 5012,
      "ĠLÃ³pez": 5013,
      "Ġplu": 5014,
      "Ġprocedi": 5015,
      "Ġcuri": 5016,
      "ĠcapaÃ§": 5017,
      "Ġxerra": 5018,
      "Ġdiversitat": 5019,
      "Ġvenir": 5020,
      "ĠvÃŃctimes": 5021,
      "fes": 5022,
      "ito": 5023,
      "urat": 5024,
      "Ġcreat": 5025,
      "ĠcrÃŃtica": 5026,
      "mÃłtic": 5027,
      "Ġurban": 5028,
      "Ġroba": 5029,
      "ĠAM": 5030,
      "Ġllic": 5031,
      "Ġinterior": 5032,
      "Ġfinanc": 5033,
      "ĠPodem": 5034,
      "mits": 5035,
      "mplia": 5036,
      "ĠPerquÃ¨": 5037,
      "Ġrepublic": 5038,
      "Art": 5039,
      "actualitat": 5040,
      "ĠrÃ¨gim": 5041,
      "Ġperc": 5042,
      "ĠHe": 5043,
      "nsit": 5044,
      "Ġpossibilitats": 5045,
      "Ġpena": 5046,
      "ĠsÃ³c": 5047,
      "Ġeina": 5048,
      "Ġ36": 5049,
      "Ġestada": 5050,
      "ĠdemocrÃłcia": 5051,
      "Ġfron": 5052,
      "Ãłnica": 5053,
      "Ġmundial": 5054,
      "tadors": 5055,
      "Ġestigui": 5056,
      "ĠjurÃŃ": 5057,
      "Ġfonamental": 5058,
      "bia": 5059,
      "Ġdep": 5060,
      "Ġvers": 5061,
      "guessin": 5062,
      "epres": 5063,
      "ĠfinanÃ§ament": 5064,
      "arcelon": 5065,
      "Ġdemostra": 5066,
      "van": 5067,
      "Ãłtica": 5068,
      "Ġevol": 5069,
      "Ã§al": 5070,
      "Ġinternacionals": 5071,
      "Ġreserva": 5072,
      "-,": 5073,
      "EP": 5074,
      "Ġajuntament": 5075,
      "eros": 5076,
      "onda": 5077,
      "Ġsac": 5078,
      "Ġmida": 5079,
      "ĠGe": 5080,
      "rontar": 5081,
      "Ġinicial": 5082,
      "Ġaplicar": 5083,
      "ltima": 5084,
      "ĠnÃ©ixer": 5085,
      "Ã²sit": 5086,
      "Ġindividual": 5087,
      "ĠMartÃŃnez": 5088,
      "Âº": 5089,
      "Ġompl": 5090,
      "onats": 5091,
      "ĠCC": 5092,
      "itÃłries": 5093,
      "ĠPep": 5094,
      "Ġcaure": 5095,
      "arien": 5096,
      "Ġtractar": 5097,
      "ĠreferÃ¨nd": 5098,
      "olÃ²gics": 5099,
      "habitatge": 5100,
      "fort": 5101,
      "ook": 5102,
      "ĠJorn": 5103,
      "prom": 5104,
      "Ġconveni": 5105,
      "Ġtocar": 5106,
      "Am": 5107,
      "Hos": 5108,
      "ĠNav": 5109,
      "Ġcontrari": 5110,
      "ventut": 5111,
      "Ġagafar": 5112,
      "ĠcanÃ§Ã³": 5113,
      "idaritat": 5114,
      "ĠfrancÃ¨s": 5115,
      "Ġcoronavirus": 5116,
      "Veure": 5117,
      "Ġtesti": 5118,
      "Ġintegra": 5119,
      "ĠanglÃ¨s": 5120,
      "ĠGer": 5121,
      "toris": 5122,
      "associaciÃ³": 5123,
      "ficina": 5124,
      "ĠGuÃłrdia": 5125,
      "Ġclara": 5126,
      "ĠManresa": 5127,
      "ĠresoluciÃ³": 5128,
      "Ġoportunitat": 5129,
      "Pres": 5130,
      "Ġquins": 5131,
      "ĠSon": 5132,
      "teres": 5133,
      "ranca": 5134,
      "ĠfaÃ§": 5135,
      "lusiva": 5136,
      "ati": 5137,
      "Ġvaix": 5138,
      "rana": 5139,
      "Ġcomptar": 5140,
      "graf": 5141,
      "cipl": 5142,
      "eroport": 5143,
      "onz": 5144,
      "Ġquasi": 5145,
      "Ġconten": 5146,
      "anyol": 5147,
      "ablement": 5148,
      "alls": 5149,
      "edit": 5150,
      "ĠUs": 5151,
      "aixÃ²": 5152,
      "Ġdefensar": 5153,
      "Ġnaturals": 5154,
      "Ġocasions": 5155,
      "Ġvota": 5156,
      "egant": 5157,
      "venir": 5158,
      "igual": 5159,
      "Ġdocuments": 5160,
      "Ġvespre": 5161,
      "pers": 5162,
      "Ġpoca": 5163,
      "Ġgens": 5164,
      "Ġarticles": 5165,
      "Ġescola": 5166,
      "Ġtransc": 5167,
      "Ġpermeten": 5168,
      "Ġdisposa": 5169,
      "ĠhistÃ²rica": 5170,
      "Ġresoldre": 5171,
      "----": 5172,
      "Ġdut": 5173,
      "Ġqueden": 5174,
      "onament": 5175,
      "Ġantic": 5176,
      "gacions": 5177,
      "Ġfant": 5178,
      "ĠrÃłpid": 5179,
      "lÃŃcules": 5180,
      "GT": 5181,
      "mana": 5182,
      "pat": 5183,
      "Ġfrac": 5184,
      "Ġep": 5185,
      "tuals": 5186,
      "ego": 5187,
      "Ġvolum": 5188,
      "Ġbarre": 5189,
      "ĠÃłmbits": 5190,
      "Ġconvertit": 5191,
      "Ġcrida": 5192,
      "ĠqÃ¼estions": 5193,
      "35": 5194,
      "Pod": 5195,
      "jol": 5196,
      "tÃŃ": 5197,
      "ĠÃ¨poca": 5198,
      "ĠCr": 5199,
      "ĠForm": 5200,
      "rÃłcia": 5201,
      "ÃŃssim": 5202,
      "Ġclaus": 5203,
      "ĠsuperfÃŃcie": 5204,
      "ĠtÃ¨cnics": 5205,
      "Ġcontracte": 5206,
      "Ġrecomana": 5207,
      "Ġmel": 5208,
      "ĠvÃł": 5209,
      "Oc": 5210,
      "Ġatac": 5211,
      "ĠCu": 5212,
      "Ġreci": 5213,
      "Ġbot": 5214,
      "Ġwww": 5215,
      "Ġpropis": 5216,
      "Ġrod": 5217,
      "ner": 5218,
      "enatge": 5219,
      "Ġpic": 5220,
      "empres": 5221,
      "Ġtrajec": 5222,
      "part": 5223,
      "formes": 5224,
      "Ġdocumental": 5225,
      "ĠCovid": 5226,
      "tali": 5227,
      "ĠAvui": 5228,
      "atur": 5229,
      "Ġhttps": 5230,
      "mada": 5231,
      "ĠHem": 5232,
      "ĠTurisme": 5233,
      "capacitat": 5234,
      "Ġenrere": 5235,
      "ĠHotel": 5236,
      "Ġmaneres": 5237,
      "Ġdiagn": 5238,
      "Ġnegre": 5239,
      "ĠManuel": 5240,
      "ugu": 5241,
      "Ġ;": 5242,
      "tarÃ³": 5243,
      "Ġparell": 5244,
      "Ġcomptes": 5245,
      "endari": 5246,
      "exiÃ³": 5247,
      "ribuÃ¯": 5248,
      "Ġdescans": 5249,
      "Ġcomunitats": 5250,
      "ĠCentral": 5251,
      "ðŁ": 5252,
      "Ġpon": 5253,
      "orci": 5254,
      "def": 5255,
      "Ġfines": 5256,
      "Ġmitja": 5257,
      "Inter": 5258,
      "Ġescoltar": 5259,
      "Ġextraordin": 5260,
      "ĠpÃ¨rdua": 5261,
      "Ġfum": 5262,
      "olla": 5263,
      "inament": 5264,
      "Ġgenerar": 5265,
      "Ġactuals": 5266,
      "ĠÃºnic": 5267,
      "Ġespanyols": 5268,
      "Ġideal": 5269,
      "ĠindÃºstria": 5270,
      "Ġperiodista": 5271,
      "Ġetapa": 5272,
      "ĠCris": 5273,
      "ĠRosa": 5274,
      "ĠexposiciÃ³": 5275,
      "utri": 5276,
      "ĠMarta": 5277,
      "Fi": 5278,
      "ĠSim": 5279,
      "Ġcarre": 5280,
      "ĠComarcal": 5281,
      "Ġamic": 5282,
      "ĠestarÃł": 5283,
      "ĠInternet": 5284,
      "ĠcÃł": 5285,
      "Ġsant": 5286,
      "Ġprove": 5287,
      "ĠDoc": 5288,
      "dessa": 5289,
      "Ġassoci": 5290,
      "ĠmanifestaciÃ³": 5291,
      "Etiquetes": 5292,
      "Ġfeu": 5293,
      "Ġtornat": 5294,
      "Ġsang": 5295,
      "ĠsentÃ¨ncia": 5296,
      "Ġcomplir": 5297,
      "ĠsensaciÃ³": 5298,
      "%.": 5299,
      "quena": 5300,
      "igital": 5301,
      "Ġespera": 5302,
      "Ġlliura": 5303,
      "ĠÂ¿": 5304,
      "Ġhumana": 5305,
      "Ġllenguatge": 5306,
      "47": 5307,
      "OG": 5308,
      "ixen": 5309,
      "ĠreducciÃ³": 5310,
      "Ġhagin": 5311,
      "Ġedit": 5312,
      "ĠdemÃł": 5313,
      "Ġminut": 5314,
      "Ġresidus": 5315,
      "aluaciÃ³": 5316,
      "ĠGoogle": 5317,
      "gaciÃ³": 5318,
      "ĠmÃŃ": 5319,
      "lustra": 5320,
      "Ġvosaltres": 5321,
      "Ġdemanat": 5322,
      "Ġmilers": 5323,
      "ks": 5324,
      "Ġdepend": 5325,
      "Ã¨ries": 5326,
      "Ġpresents": 5327,
      "Ġmantin": 5328,
      "Ġcoopera": 5329,
      "Ġofereixen": 5330,
      "ĠreferÃ¨ndum": 5331,
      "ff": 5332,
      "vÃŃn": 5333,
      "ĠBern": 5334,
      "eller": 5335,
      "arÃłs": 5336,
      "Ġcodi": 5337,
      "Ġinterac": 5338,
      "Andorra": 5339,
      "demont": 5340,
      "ajuntament": 5341,
      "hum": 5342,
      "ĠQU": 5343,
      "Ġencar": 5344,
      "ĠNord": 5345,
      "Ãłnim": 5346,
      "Ġcompleta": 5347,
      "ĠLliga": 5348,
      "ĠocasiÃ³": 5349,
      "Ġle": 5350,
      "olÃ²giques": 5351,
      "ĠCin": 5352,
      "Ġprotes": 5353,
      "Ġequ": 5354,
      "Ġcristi": 5355,
      "ĠPened": 5356,
      "sia": 5357,
      "Ġhis": 5358,
      "ĠcomissiÃ³": 5359,
      "199": 5360,
      "odifica": 5361,
      "Ġneteja": 5362,
      "alg": 5363,
      "Ġretir": 5364,
      "Ġplani": 5365,
      "Ġvacances": 5366,
      "pp": 5367,
      "Ġ@": 5368,
      "ĠlingÃ¼": 5369,
      "ĠDani": 5370,
      "taments": 5371,
      "ĠgeneraciÃ³": 5372,
      "Ġcriteris": 5373,
      "Ġlegal": 5374,
      "ĠSocietat": 5375,
      "Ġpartida": 5376,
      "Ġinstru": 5377,
      "Ġ2006": 5378,
      "Ġ09": 5379,
      "Ġconflicte": 5380,
      "46": 5381,
      "amar": 5382,
      "Ġconcerts": 5383,
      "ĠprÃ²pies": 5384,
      "Ġmalalties": 5385,
      "UC": 5386,
      "Ġregular": 5387,
      "Ġarquitec": 5388,
      "Ġreptes": 5389,
      "itud": 5390,
      "Ġministre": 5391,
      "Ġ08": 5392,
      "dag": 5393,
      "Ġacum": 5394,
      "allotjament": 5395,
      "Ġdirectora": 5396,
      "Ġimmedia": 5397,
      "Ġger": 5398,
      "ĠDESC": 5399,
      "icili": 5400,
      "Ġimplica": 5401,
      "escol": 5402,
      "Ġdemanda": 5403,
      "etari": 5404,
      "Ġpropera": 5405,
      "Ġsurt": 5406,
      "ĠcÃłncer": 5407,
      "Ġmera": 5408,
      "ineu": 5409,
      "ĠCla": 5410,
      "2015": 5411,
      "ajuda": 5412,
      "Ġpedra": 5413,
      "Ġindustrial": 5414,
      "ĠciÃ¨ncia": 5415,
      "etre": 5416,
      "Ġacti": 5417,
      "Ġlleug": 5418,
      "39": 5419,
      "Ha": 5420,
      "Ġavis": 5421,
      "Ġpitj": 5422,
      "Ã²metres": 5423,
      "tall": 5424,
      "Ġpatir": 5425,
      "Ġpresidenta": 5426,
      "ÃįN": 5427,
      "Ġveloci": 5428,
      "Ġvulnera": 5429,
      "bar": 5430,
      "cor": 5431,
      "Ġequi": 5432,
      "icament": 5433,
      "Ġferro": 5434,
      "Ġnatura": 5435,
      "eixo": 5436,
      "Ġadver": 5437,
      "ĠQuÃ¨": 5438,
      "Ġamor": 5439,
      "Ġconsultar": 5440,
      "ĠnotÃŃcia": 5441,
      "49": 5442,
      "55": 5443,
      "Ġvint": 5444,
      "ĠDec": 5445,
      "Ġpron": 5446,
      "Ġimprescindi": 5447,
      "Ġsecretari": 5448,
      "Ag": 5449,
      "anca": 5450,
      "ind": 5451,
      "independ": 5452,
      "Ġalmenys": 5453,
      "ĠAut": 5454,
      "ĠFamÃŃ": 5455,
      "Ġassistir": 5456,
      "ĠhabitaciÃ³": 5457,
      "Ġpropers": 5458,
      "ĠexperiÃ¨ncies": 5459,
      "adalona": 5460,
      "ĠconsciÃ¨ncia": 5461,
      "ĠPenedÃ¨s": 5462,
      "PS": 5463,
      "ngel": 5464,
      "Ġgal": 5465,
      "ĠMILL": 5466,
      "Ġhauran": 5467,
      "ĠFinalment": 5468,
      "Ġplantej": 5469,
      "ogrÃłfica": 5470,
      "Ġrelacionats": 5471,
      "OVID": 5472,
      "Que": 5473,
      "ĠpeÃ§a": 5474,
      "Ġproposa": 5475,
      "Ġigualtat": 5476,
      "ĠnotÃŃcies": 5477,
      "ĠLuis": 5478,
      "lel": 5479,
      "estes": 5480,
      "erÃł": 5481,
      "arda": 5482,
      "Ġrepte": 5483,
      "eguda": 5484,
      "Ġcomplet": 5485,
      "ÃŃtols": 5486,
      "habili": 5487,
      "Fa": 5488,
      "tiner": 5489,
      "ĠconstruÃ¯": 5490,
      "Ġmateixes": 5491,
      "2016": 5492,
      "ELL": 5493,
      "Ġcontamin": 5494,
      "Ġsostenible": 5495,
      "lum": 5496,
      "Ġdalt": 5497,
      "ĠMe": 5498,
      "Ġarran": 5499,
      "Ġfruit": 5500,
      "Ġaniversari": 5501,
      "ergia": 5502,
      "ate": 5503,
      "Ġtraves": 5504,
      "escenari": 5505,
      "Ġtreballat": 5506,
      "ĠactuaciÃ³": 5507,
      "Ġaprovar": 5508,
      "Ġvirus": 5509,
      "Ġlloguer": 5510,
      "ie": 5511,
      "ĠTom": 5512,
      "Ġpodi": 5513,
      "ĠParÃŃs": 5514,
      "Ġcircums": 5515,
      "Ġirre": 5516,
      "Ġseguiment": 5517,
      "Pre": 5518,
      "Tots": 5519,
      "trica": 5520,
      "ĠPopular": 5521,
      "itatges": 5522,
      "ariciÃ³": 5523,
      "audi": 5524,
      "ĠsanitÃłria": 5525,
      "Ġpromoure": 5526,
      "Ġsenyor": 5527,
      "ĠtrÃłnsit": 5528,
      "Ġcontempor": 5529,
      "jos": 5530,
      "Ġbell": 5531,
      "ĠAgu": 5532,
      "ĠRoca": 5533,
      "Ġnoms": 5534,
      "Ġcamps": 5535,
      "Ġresulta": 5536,
      "ALL": 5537,
      "Ġjugador": 5538,
      "Ġcursa": 5539,
      "hotels": 5540,
      "Ġdurada": 5541,
      "gic": 5542,
      "rals": 5543,
      "ĠPos": 5544,
      "iÃ³s": 5545,
      "Ġcalor": 5546,
      "ĠAndorra": 5547,
      "Ġorganitzacions": 5548,
      "Ġjornades": 5549,
      "ĠJunta": 5550,
      "ĠcompeticiÃ³": 5551,
      "Catal": 5552,
      "esde": 5553,
      "ĠDom": 5554,
      "Ġcomplic": 5555,
      "Ġterres": 5556,
      "Ġdedicat": 5557,
      "ĠMinisteri": 5558,
      "ĠreflexiÃ³": 5559,
      "31": 5560,
      "Ġcrim": 5561,
      "ÃŃg": 5562,
      "Ġcavall": 5563,
      "truccions": 5564,
      "Ġrefugi": 5565,
      "Ġpertany": 5566,
      "Ġprotoc": 5567,
      "Ġfusta": 5568,
      "ĠjardÃŃ": 5569,
      "gÃ³": 5570,
      "rÃ©": 5571,
      "Ġproxim": 5572,
      "opos": 5573,
      "ĠEspa": 5574,
      "Ġtreballen": 5575,
      "âĨĴ": 5576,
      "Ġestablir": 5577,
      "Ġevident": 5578,
      "Ġsexual": 5579,
      "Ġviuen": 5580,
      "Ġvoleu": 5581,
      "ĠinterÃ¨s": 5582,
      "Ġsola": 5583,
      "Ġcomunicat": 5584,
      "Ġgastr": 5585,
      "ĠconcentraciÃ³": 5586,
      "Ġterreny": 5587,
      "rÃŃem": 5588,
      "tells": 5589,
      "ali": 5590,
      "Ġfals": 5591,
      "istit": 5592,
      "Ġenten": 5593,
      "Ġsecund": 5594,
      "Ġtarge": 5595,
      "ĠtrajectÃ²ria": 5596,
      "mun": 5597,
      "ith": 5598,
      "tern": 5599,
      "uch": 5600,
      "Ġmotor": 5601,
      "ĠValenciÃł": 5602,
      "eques": 5603,
      "evi": 5604,
      "inada": 5605,
      "Ġenca": 5606,
      "ĠSar": 5607,
      "ĠBla": 5608,
      "teria": 5609,
      "ĠVeure": 5610,
      "ĠSalvador": 5611,
      "ĠÃłrees": 5612,
      "Ġedificis": 5613,
      "judi": 5614,
      "inals": 5615,
      "ĠGl": 5616,
      "aller": 5617,
      "insc": 5618,
      "Ġbases": 5619,
      "Ġfen": 5620,
      "ĠFar": 5621,
      "Ġpreci": 5622,
      "Ġteus": 5623,
      "Ġhabitants": 5624,
      "ĠYork": 5625,
      "ĠconseqÃ¼Ã¨ncies": 5626,
      "Ġaprofitar": 5627,
      "uti": 5628,
      "Ġnaix": 5629,
      "icals": 5630,
      "Ġeducatius": 5631,
      "ĠcompetÃ¨ncies": 5632,
      "ĠinversiÃ³": 5633,
      "56": 5634,
      "Ġsug": 5635,
      "alim": 5636,
      "Ġvent": 5637,
      "itges": 5638,
      "Ġcomarques": 5639,
      "aco": 5640,
      "Ġales": 5641,
      "ĠCugat": 5642,
      "obli": 5643,
      "ĠFC": 5644,
      "Ġsaluda": 5645,
      "cident": 5646,
      "Ġmigdia": 5647,
      "Ġaugmentar": 5648,
      "Ġbeneficis": 5649,
      "rell": 5650,
      "Ġcaigu": 5651,
      "Ġprecisament": 5652,
      "Ġorganitzar": 5653,
      "Ġespectacle": 5654,
      "promÃŃs": 5655,
      "500": 5656,
      "omf": 5657,
      "ĠMitj": 5658,
      "daria": 5659,
      "ĠMatarÃ³": 5660,
      "Ġcompletament": 5661,
      "Ġconsider": 5662,
      "ĠdistribuciÃ³": 5663,
      "Ġtecnologies": 5664,
      "ĠCerd": 5665,
      "Ġdot": 5666,
      "Ġenvol": 5667,
      "Ãłtic": 5668,
      "ĠUrb": 5669,
      "ĠPalma": 5670,
      "vestigaciÃ³": 5671,
      "Ġexpress": 5672,
      "Ġmedia": 5673,
      "Ġfla": 5674,
      "Ġrevis": 5675,
      "ĠMill": 5676,
      "ultat": 5677,
      "Ġconsisteix": 5678,
      "Ġtermes": 5679,
      "ĠXar": 5680,
      "ĠÃłmplia": 5681,
      "ĠdeclaraciÃ³": 5682,
      "Ġnormal": 5683,
      "ĠMediter": 5684,
      "Ġquants": 5685,
      "Ġcoll": 5686,
      "Ġveus": 5687,
      "Ġtranspar": 5688,
      "Ġmanifesta": 5689,
      "Ġprofessors": 5690,
      "Ġmoviments": 5691,
      "Ġdetalls": 5692,
      "37": 5693,
      "vals": 5694,
      "eratura": 5695,
      "Ġflu": 5696,
      "ĠCOVID": 5697,
      "ĠPob": 5698,
      "Ġband": 5699,
      "Ġparal": 5700,
      "Ġrecollir": 5701,
      "rÃłs": 5702,
      "Ġinfra": 5703,
      "Ġestabli": 5704,
      "ĠcontinuÃ¯": 5705,
      "lectius": 5706,
      "Ġaugment": 5707,
      "Ġidentitat": 5708,
      "38": 5709,
      "ĠâĨĴ": 5710,
      "orat": 5711,
      "Ġmala": 5712,
      "Ġ%": 5713,
      "Ġator": 5714,
      "Ġcim": 5715,
      "indica": 5716,
      "ĠLleg": 5717,
      "ĠprimÃłria": 5718,
      "Ġentrevista": 5719,
      "Ġplantil": 5720,
      "Ġhuman": 5721,
      "espectacle": 5722,
      "The": 5723,
      "cÃ©s": 5724,
      "ressiÃ³": 5725,
      "Ġprovoca": 5726,
      "idal": 5727,
      "Ġplans": 5728,
      "Ġassess": 5729,
      "esport": 5730,
      "Ġregistre": 5731,
      "Ġajuntaments": 5732,
      "DI": 5733,
      "asa": 5734,
      "ĠCam": 5735,
      "ĠtransformaciÃ³": 5736,
      "Ġbastant": 5737,
      "Ġmobil": 5738,
      "Ġpermanent": 5739,
      "lista": 5740,
      "Ġquines": 5741,
      "ĠEste": 5742,
      "Ġassociacions": 5743,
      "Ġautoritats": 5744,
      "ĠPuigdemont": 5745,
      "Ġmajors": 5746,
      "Ġitali": 5747,
      "ĠEncara": 5748,
      "Ġseguint": 5749,
      "Ġoferta": 5750,
      "liaciÃ³": 5751,
      "Ġdoctor": 5752,
      "Ġmanifest": 5753,
      "Ġconeguda": 5754,
      "jador": 5755,
      "lis": 5756,
      "ley": 5757,
      "ĠCarlos": 5758,
      "Ġpoques": 5759,
      "ĠGarcia": 5760,
      "Ġvehicle": 5761,
      "Ġgestionar": 5762,
      "Ġreivindic": 5763,
      "exercici": 5764,
      "zo": 5765,
      "ĠcÃ²": 5766,
      "ixes": 5767,
      "Ġpag": 5768,
      "Ġaddi": 5769,
      "Alt": 5770,
      "Ġmodels": 5771,
      "ĠreconÃ¨ixer": 5772,
      "Ġpresenten": 5773,
      "51": 5774,
      "ĠGonz": 5775,
      "Ġexac": 5776,
      "aconsegu": 5777,
      "Ġpati": 5778,
      "ficats": 5779,
      "Ġforta": 5780,
      "Ġadolesc": 5781,
      "Ġjunts": 5782,
      "Ġcorresponent": 5783,
      "oportunitat": 5784,
      "Ġpaisatge": 5785,
      "Ġperspectiva": 5786,
      "DA": 5787,
      "Ġpet": 5788,
      "Ġobtin": 5789,
      "Ġcarb": 5790,
      "ebook": 5791,
      "ĠAnna": 5792,
      "Ġconsiderar": 5793,
      "Ġmorts": 5794,
      "ĠdenÃºn": 5795,
      "Ġproximitat": 5796,
      "CAT": 5797,
      "SA": 5798,
      "ediciÃ³": 5799,
      "gment": 5800,
      "cils": 5801,
      "ÃŃfiques": 5802,
      "guez": 5803,
      "ĠItÃłlia": 5804,
      "Ġenseny": 5805,
      "marca": 5806,
      "Ġespecials": 5807,
      "ĠorganitzaciÃ³": 5808,
      "Ġtriar": 5809,
      "pitalet": 5810,
      "ĠdocumentaciÃ³": 5811,
      "ĠClar": 5812,
      "Ġcommem": 5813,
      "ĠeducaciÃ³": 5814,
      "ĠFil": 5815,
      "Ġconsistori": 5816,
      "Ġdismin": 5817,
      "Ġinterp": 5818,
      "Ġmestres": 5819,
      "Ġestudiar": 5820,
      "Ġfranqu": 5821,
      "ergÃ¨ncia": 5822,
      "Ġregidora": 5823,
      "Ġmirada": 5824,
      "xill": 5825,
      "estan": 5826,
      "Ġmass": 5827,
      "Ġfid": 5828,
      "ulari": 5829,
      "ĠCiU": 5830,
      "Hem": 5831,
      "TE": 5832,
      "ositat": 5833,
      "ĠAquÃŃ": 5834,
      "obertura": 5835,
      "Ġtemperatura": 5836,
      "ficial": 5837,
      "ecial": 5838,
      "Ġpoesia": 5839,
      "ĠpermetrÃł": 5840,
      "ĠprÃłcticament": 5841,
      "quadra": 5842,
      "eno": 5843,
      "Ġfeli": 5844,
      "Ġboca": 5845,
      "ĠSense": 5846,
      "Ġanava": 5847,
      "Ġcalendari": 5848,
      "Ġdolor": 5849,
      "Ġxifra": 5850,
      "Ġacostu": 5851,
      "Ġbicicle": 5852,
      "ues": 5853,
      "Ġaliments": 5854,
      "ĠSo": 5855,
      "ĠTa": 5856,
      "Ġmatin": 5857,
      "ostos": 5858,
      "Ġsopar": 5859,
      "Ġfir": 5860,
      "ĠCE": 5861,
      "ĠMare": 5862,
      "ĠPolÃŃtica": 5863,
      "ĠOfertes": 5864,
      "osament": 5865,
      "ĠPri": 5866,
      "ĠBadalona": 5867,
      "Ġcanal": 5868,
      "Ġlliures": 5869,
      "entaris": 5870,
      "ĠÃºltimes": 5871,
      "ĠDESCOMP": 5872,
      "entura": 5873,
      "ĠesforÃ§": 5874,
      "Ġregi": 5875,
      "ĠMic": 5876,
      "ĠDol": 5877,
      "adament": 5878,
      "Ġresum": 5879,
      "ĠHer": 5880,
      "ĠMILLORS": 5881,
      "Ġelement": 5882,
      "ĠColl": 5883,
      "ĠCON": 5884,
      "ĠEcon": 5885,
      "ĠLÃįN": 5886,
      "Ġcamb": 5887,
      "Ġexecu": 5888,
      "Ġdisf": 5889,
      "Ġinclos": 5890,
      "Ġreunions": 5891,
      "Ġsimplement": 5892,
      "Ġenviar": 5893,
      "Ġbru": 5894,
      "ĠTorre": 5895,
      "estil": 5896,
      "rupciÃ³": 5897,
      "iguel": 5898,
      "Ġprodueix": 5899,
      "44": 5900,
      "ky": 5901,
      "camp": 5902,
      "ĠprovÃŃn": 5903,
      "ONA": 5904,
      "joy": 5905,
      "Ġdestinacions": 5906,
      "Ġprotagonistes": 5907,
      "Ġvotar": 5908,
      "ĠDESCOMPTES": 5909,
      "ĠNi": 5910,
      "Ãłster": 5911,
      "ago": 5912,
      "Ġvege": 5913,
      "Ġrecordat": 5914,
      "ĠÃ²p": 5915,
      "Ġdig": 5916,
      "gunes": 5917,
      "Ġdinar": 5918,
      "Ġpositiu": 5919,
      "ĠvÃŃdeos": 5920,
      "ene": 5921,
      "Ġment": 5922,
      "Ġestal": 5923,
      "ussiÃ³": 5924,
      "abilitat": 5925,
      "Ġpeus": 5926,
      "2012": 5927,
      "ĠeconÃ²mics": 5928,
      "ĠMerc": 5929,
      "Hospitalet": 5930,
      "ĠLÃįNIA": 5931,
      "Ġtes": 5932,
      "ĠPers": 5933,
      "Ġros": 5934,
      "dex": 5935,
      "Ġvila": 5936,
      "Ġprincipalment": 5937,
      "ĠAntonio": 5938,
      "Ġdiputat": 5939,
      "Ġesdeveniments": 5940,
      "otidi": 5941,
      "utor": 5942,
      "encs": 5943,
      "ĠLos": 5944,
      "ĠurbÃł": 5945,
      "dol": 5946,
      "Ġ*": 5947,
      "isa": 5948,
      "Ġautors": 5949,
      "ĠSeguretat": 5950,
      "AG": 5951,
      "endi": 5952,
      "Ġlog": 5953,
      "ĠFigu": 5954,
      "lou": 5955,
      "Ġtancat": 5956,
      "Ãłstica": 5957,
      "Ġexperts": 5958,
      "Ġporten": 5959,
      "Ġsenzilla": 5960,
      "Ġclic": 5961,
      "ferÃ¨ncies": 5962,
      "ĠValls": 5963,
      "Ġdisponible": 5964,
      "Ġnucli": 5965,
      "34": 5966,
      "Ġali": 5967,
      "ĠCreu": 5968,
      "usos": 5969,
      "ĠDem": 5970,
      "ĠTri": 5971,
      "Ġ300": 5972,
      "pira": 5973,
      "Ġcelebrat": 5974,
      "ĠdifusiÃ³": 5975,
      "Ġperfecte": 5976,
      "Urgell": 5977,
      "ĠlÃ²g": 5978,
      "Ġquotidi": 5979,
      "Ġrequis": 5980,
      "ult": 5981,
      "Ġterror": 5982,
      "ĠavanÃ§ar": 5983,
      "Ġtriomf": 5984,
      "ĠhistÃ²ries": 5985,
      "Ġjudicial": 5986,
      "missiÃ³": 5987,
      "Ġos": 5988,
      "enllaÃ§": 5989,
      "Ġpeix": 5990,
      "tits": 5991,
      "Ġcomanda": 5992,
      "ĠBell": 5993,
      "ĠFab": 5994,
      "opciÃ³": 5995,
      "Ġtinguin": 5996,
      "Ġverita": 5997,
      "cionada": 5998,
      "ICA": 5999,
      "Ġpreparar": 6000,
      "okies": 6001,
      "Ġadministracions": 6002,
      "Ġrespondre": 6003,
      "ĠelÃ¨ctric": 6004,
      "Ġplegat": 6005,
      "mant": 6006,
      "mavera": 6007,
      "Ġexterior": 6008,
      "ticar": 6009,
      "Ġentrades": 6010,
      "Ġfemin": 6011,
      "Ġeducativa": 6012,
      "Ġdomicili": 6013,
      "Ġcomercials": 6014,
      "ĠinnovaciÃ³": 6015,
      "Ġvess": 6016,
      "Ã©rez": 6017,
      "Ġbu": 6018,
      "ĠGR": 6019,
      "Ġrecurs": 6020,
      "Ġpresti": 6021,
      "ĠCaixa": 6022,
      "ĠSanti": 6023,
      "Ġjutge": 6024,
      "Ġnovetats": 6025,
      "54": 6026,
      "ĠRoc": 6027,
      "Ġsuma": 6028,
      "oferta": 6029,
      "Ġvarietat": 6030,
      "carregar": 6031,
      "Ġol": 6032,
      "ĠSeu": 6033,
      "Ġimpar": 6034,
      "ĠHum": 6035,
      "Ġteat": 6036,
      "ĠrestauraciÃ³": 6037,
      "ĠSergi": 6038,
      "ĠfaÃ§ana": 6039,
      "Ġorgan": 6040,
      "Ġbenestar": 6041,
      "Ġafectats": 6042,
      "Ġdirigit": 6043,
      "Ġtirar": 6044,
      "80": 6045,
      "IU": 6046,
      "brer": 6047,
      "mad": 6048,
      "estal": 6049,
      "istat": 6050,
      "ĠLo": 6051,
      "Ġpassen": 6052,
      "Ġlliga": 6053,
      "Ġassistents": 6054,
      "ESO": 6055,
      "Ġgenerals": 6056,
      "Ġentitat": 6057,
      "Ġiniciatives": 6058,
      "Ġvelocitat": 6059,
      "gÃ¼es": 6060,
      "escal": 6061,
      "Ġdirecta": 6062,
      "Ġ2005": 6063,
      "Ġmicro": 6064,
      "ĠVilanova": 6065,
      "anti": 6066,
      "Ã¨cia": 6067,
      "ĠLES": 6068,
      "ĠOs": 6069,
      "Ġportat": 6070,
      "Ġtancament": 6071,
      "Ġregal": 6072,
      "ĠregiÃ³": 6073,
      "Ġnecessaris": 6074,
      "ĠnecessÃłries": 6075,
      "Ġprivada": 6076,
      "Ġtindran": 6077,
      "57": 6078,
      "SS": 6079,
      "Ġnasc": 6080,
      "ricultura": 6081,
      "Ġameric": 6082,
      "Ġpiscina": 6083,
      "itÃł": 6084,
      "Ġhaurien": 6085,
      "Ġcompren": 6086,
      "ĠcrÃ¨": 6087,
      "59": 6088,
      "po": 6089,
      "ĠCD": 6090,
      "usta": 6091,
      "magatzem": 6092,
      "ĠpressiÃ³": 6093,
      "alitzats": 6094,
      "Ġaproxima": 6095,
      "''": 6096,
      "Finalment": 6097,
      "Sant": 6098,
      "oo": 6099,
      "Ġforn": 6100,
      "Ġball": 6101,
      "Ġactuar": 6102,
      "ĠFrancis": 6103,
      "Ġprotegir": 6104,
      "ĠvostÃ¨": 6105,
      "orts": 6106,
      "entren": 6107,
      "Ġfira": 6108,
      "informe": 6109,
      "ĠCre": 6110,
      "Ġgo": 6111,
      "ĠQui": 6112,
      "Ġpensament": 6113,
      "isseny": 6114,
      "Ġnormes": 6115,
      "Ġfred": 6116,
      "ĠRegne": 6117,
      "nec": 6118,
      "ĠdÃ²": 6119,
      "lacant": 6120,
      "ĠToni": 6121,
      "edes": 6122,
      "Ġimplem": 6123,
      "EsglÃ©sia": 6124,
      "Ġ500": 6125,
      "ĠPartit": 6126,
      "Ġbotiga": 6127,
      "ĠFeliu": 6128,
      "Ġdepen": 6129,
      "Ġigu": 6130,
      "osaltres": 6131,
      "lez": 6132,
      "ĠAN": 6133,
      "ĠAll": 6134,
      "quetes": 6135,
      "Ġteves": 6136,
      "ĠautomÃł": 6137,
      "ĠPotser": 6138,
      "ĠquilÃ²metres": 6139,
      "Ġempresarial": 6140,
      "labora": 6141,
      "ĠBis": 6142,
      "ĠBus": 6143,
      "Ġsimb": 6144,
      "Ġviv": 6145,
      "Ġcarn": 6146,
      "Ġmestre": 6147,
      "ĠXina": 6148,
      "2011": 6149,
      "Ġnecessiten": 6150,
      "Ġsimple": 6151,
      "ĠgratuÃ¯ta": 6152,
      "Ġindependentista": 6153,
      "Ġreligi": 6154,
      "58": 6155,
      "aeroport": 6156,
      "hol": 6157,
      "ĠPrat": 6158,
      "eixa": 6159,
      "ĠCarme": 6160,
      "2014": 6161,
      "Ġefecte": 6162,
      "ĠFerran": 6163,
      "Ġrelacionades": 6164,
      "Ãºltip": 6165,
      "Ġanunciat": 6166,
      ".)": 6167,
      "??": 6168,
      "Ol": 6169,
      "Ãļ": 6170,
      "quesa": 6171,
      "siciÃ³": 6172,
      "ĠBas": 6173,
      "ĠDr": 6174,
      "obreix": 6175,
      "Ãłnic": 6176,
      "Ġfeien": 6177,
      "Ġestona": 6178,
      "Ġserveix": 6179,
      "ofia": 6180,
      "ĠPlaÃ§a": 6181,
      "ĠconnexiÃ³": 6182,
      "estructures": 6183,
      "Ġoportunitats": 6184,
      "bit": 6185,
      "seg": 6186,
      "Ġpacte": 6187,
      "onÃ¨s": 6188,
      "ĠcrÃ©ixer": 6189,
      "Article": 6190,
      "Ġpluja": 6191,
      "32": 6192,
      "fera": 6193,
      "elabor": 6194,
      "Ġgel": 6195,
      "ĠSom": 6196,
      "Ġdivid": 6197,
      "ulats": 6198,
      "ĠGuill": 6199,
      "alcaldessa": 6200,
      "ĠPrincip": 6201,
      "Ġgarant": 6202,
      "ires": 6203,
      "ĠPÃ©rez": 6204,
      "Ġllet": 6205,
      "issabte": 6206,
      "Ġdespeses": 6207,
      "Ġtextos": 6208,
      "ĠEscola": 6209,
      "Ġordre": 6210,
      "Ġfomentar": 6211,
      "licitud": 6212,
      "].": 6213,
      "ila": 6214,
      "ĠâĢ¢": 6215,
      "ĠBel": 6216,
      "ĠComerÃ§": 6217,
      "ripcions": 6218,
      "Ġafecta": 6219,
      "Ġimmig": 6220,
      "Ġdubtes": 6221,
      "Ġaire": 6222,
      "IF": 6223,
      "cos": 6224,
      "table": 6225,
      "arro": 6226,
      "ĠPo": 6227,
      "Ġcompliment": 6228,
      "Ġvies": 6229,
      "hivern": 6230,
      "ricte": 6231,
      "Ġreconegut": 6232,
      "Ġboti": 6233,
      "Ġdedicar": 6234,
      "ĠAndreu": 6235,
      "Igual": 6236,
      "Ġcog": 6237,
      "Ġestiu": 6238,
      "ender": 6239,
      "Ġrealitza": 6240,
      "ĠPujol": 6241,
      "ĠinstituciÃ³": 6242,
      "Ġacompanyat": 6243,
      "Ġbrill": 6244,
      "jats": 6245,
      "ĠEra": 6246,
      "Ġprovin": 6247,
      "instal": 6248,
      "ciones": 6249,
      "Estudis": 6250,
      "Ġcantant": 6251,
      "Ġfacin": 6252,
      "by": 6253,
      "Ġfesti": 6254,
      "Ġvas": 6255,
      "Ġrefor": 6256,
      "Ġprote": 6257,
      "Ġconsells": 6258,
      "cionalment": 6259,
      "Ġaposta": 6260,
      "Ġportal": 6261,
      "ĠXIX": 6262,
      "Ġroda": 6263,
      "Ġlaborals": 6264,
      "dec": 6265,
      "Ġcans": 6266,
      "arquitec": 6267,
      "adre": 6268,
      "Ġmalament": 6269,
      "Ġasc": 6270,
      "berg": 6271,
      "estran": 6272,
      "ĠautÃ¨n": 6273,
      "Ġreflec": 6274,
      "Ġsuficient": 6275,
      "Ġvirtual": 6276,
      "ĠRajoy": 6277,
      "Ġobligades": 6278,
      "ĠGord": 6279,
      "Ġtanca": 6280,
      "ĠmociÃ³": 6281,
      "Ġpoeta": 6282,
      "ĠProf": 6283,
      "Ġhaur": 6284,
      "diques": 6285,
      "ĠFre": 6286,
      "Ġpros": 6287,
      "jectes": 6288,
      "Ġmental": 6289,
      "%,": 6290,
      "UB": 6291,
      "iz": 6292,
      "ly": 6293,
      "Ġvaga": 6294,
      "anyes": 6295,
      "ĠNO": 6296,
      "evoluciÃ³": 6297,
      "vinguda": 6298,
      "Ã¨rcit": 6299,
      "Ġseleccion": 6300,
      "Ġvicepres": 6301,
      "SÃŃ": 6302,
      "ile": 6303,
      "Ġservi": 6304,
      "desa": 6305,
      "Ġexclusiva": 6306,
      "titzaciÃ³": 6307,
      "Ġdisponibles": 6308,
      "Ġplantilla": 6309,
      "ban": 6310,
      "eda": 6311,
      "oda": 6312,
      "Ġpero": 6313,
      "Ġnutri": 6314,
      "ĠIm": 6315,
      "Ġtardor": 6316,
      "Ġpreparat": 6317,
      "ĠaplicaciÃ³": 6318,
      "ders": 6319,
      "ociÃ³": 6320,
      "Ġher": 6321,
      "Ġaleg": 6322,
      "actes": 6323,
      "ĠconvivÃ¨ncia": 6324,
      "ĠPedro": 6325,
      "oposiciÃ³": 6326,
      "UA": 6327,
      "ele": 6328,
      "Ġbreu": 6329,
      "Ġparlant": 6330,
      "essa": 6331,
      "Ġveiem": 6332,
      "Ġassign": 6333,
      "ĠÃºltima": 6334,
      "ĠReial": 6335,
      "Ġreferent": 6336,
      "havien": 6337,
      "ĠUnit": 6338,
      "Ġamena": 6339,
      "Ġreunir": 6340,
      "Ġindependent": 6341,
      "etaris": 6342,
      "Ġ00": 6343,
      "iner": 6344,
      "ĠMiguel": 6345,
      "lim": 6346,
      "Ġposada": 6347,
      "Ġdistin": 6348,
      "Ġtanta": 6349,
      "Ġaprovat": 6350,
      "ĠPrograma": 6351,
      "licitar": 6352,
      "ĠRafa": 6353,
      "presa": 6354,
      "yo": 6355,
      "abel": 6356,
      "Ġobjectes": 6357,
      "Ġtradicionals": 6358,
      "Ġcadascun": 6359,
      "Ġcens": 6360,
      "Ġcadi": 6361,
      "Ġrat": 6362,
      "Ġarriben": 6363,
      "ance": 6364,
      "Ġjuvenil": 6365,
      "novaciÃ³": 6366,
      "Ġciutadana": 6367,
      "Ġsucce": 6368,
      "Ġimpossible": 6369,
      "Ġdiputats": 6370,
      "esdeven": 6371,
      "ea": 6372,
      "mÃ©s": 6373,
      "arts": 6374,
      "uni": 6375,
      "Ġambiental": 6376,
      "Ġmoda": 6377,
      "Ġinforme": 6378,
      "ĠmÃºltip": 6379,
      "Ġvid": 6380,
      "rits": 6381,
      "guard": 6382,
      "ĠPle": 6383,
      "liber": 6384,
      "inam": 6385,
      "Ġmarge": 6386,
      "ĠCatalans": 6387,
      "Espai": 6388,
      "AixÃ²": 6389,
      "ĠSetmana": 6390,
      "Ġpitjor": 6391,
      "https": 6392,
      "Ġatra": 6393,
      "citats": 6394,
      "rils": 6395,
      "Ġhid": 6396,
      "Ġnoia": 6397,
      "ĠAt": 6398,
      "lib": 6399,
      "viament": 6400,
      "apariciÃ³": 6401,
      "impacte": 6402,
      "ĠSocials": 6403,
      "Ã³rm": 6404,
      "Ġprobablement": 6405,
      "Ġcomprovar": 6406,
      "Ġaleshores": 6407,
      "Gu": 6408,
      "MA": 6409,
      "Ġblo": 6410,
      "Ġconform": 6411,
      "ĠTemp": 6412,
      "ĠTwitter": 6413,
      "versions": 6414,
      "ĠRobert": 6415,
      "Ġdedicada": 6416,
      "Ġfarem": 6417,
      "Ġxic": 6418,
      "Ġinformar": 6419,
      "ART": 6420,
      "Ġsignat": 6421,
      "rossa": 6422,
      "Ġprivat": 6423,
      "ĠespecÃŃfic": 6424,
      "Ġfilm": 6425,
      "Ġdomini": 6426,
      "Ġesportiva": 6427,
      "Ġpasseig": 6428,
      "Ġfeix": 6429,
      "ĠCha": 6430,
      "gull": 6431,
      "ĠMod": 6432,
      "ĠGab": 6433,
      "Ġsortit": 6434,
      "Ġlocalitat": 6435,
      "ĠTerritori": 6436,
      "Ġmulti": 6437,
      "ĠMercat": 6438,
      "ĠrÃłpidament": 6439,
      "ĠSuperior": 6440,
      "antatges": 6441,
      "Jos": 6442,
      "Ġer": 6443,
      "olls": 6444,
      "Ġcomo": 6445,
      "ĠSc": 6446,
      "vim": 6447,
      "ardo": 6448,
      "ANC": 6449,
      "ĠautonÃ²m": 6450,
      "ĠeconÃ²miques": 6451,
      "Ġguanyat": 6452,
      "expressiÃ³": 6453,
      "Ġinferior": 6454,
      "diovisual": 6455,
      "Ġlluitar": 6456,
      "har": 6457,
      "hospital": 6458,
      "ood": 6459,
      "Ġsou": 6460,
      "Ġbut": 6461,
      "Ġets": 6462,
      "ional": 6463,
      "Ġdeclaracions": 6464,
      "Ġpilota": 6465,
      "gma": 6466,
      "mol": 6467,
      "uig": 6468,
      "esforÃ§": 6469,
      "ĠPunt": 6470,
      "Ġpreten": 6471,
      "Ġcalc": 6472,
      "Ġ45": 6473,
      "ĠConselleria": 6474,
      "Ġgenera": 6475,
      "ITAT": 6476,
      "43": 6477,
      "Ġlu": 6478,
      "ĠenllaÃ§": 6479,
      "ĠPic": 6480,
      "Ġrestes": 6481,
      "Ġsolidaritat": 6482,
      "Ġori": 6483,
      "cidental": 6484,
      "Ġpintura": 6485,
      "EB": 6486,
      "esme": 6487,
      "anÃłlisi": 6488,
      "onia": 6489,
      "ante": 6490,
      "Ġhaure": 6491,
      "onestir": 6492,
      "Esquadra": 6493,
      "Ġmarques": 6494,
      "Ġmarxar": 6495,
      "Ġcomuns": 6496,
      "Ġsituada": 6497,
      "ĠContin": 6498,
      "Ġallotjament": 6499,
      "Ġesperar": 6500,
      "tanyes": 6501,
      "ĠActualment": 6502,
      "ĠComunicaciÃ³": 6503,
      "42": 6504,
      "chi": 6505,
      "hu": 6506,
      "loure": 6507,
      "ĠrealitzaciÃ³": 6508,
      "Ġintens": 6509,
      "xius": 6510,
      "mÃłtica": 6511,
      "ĠPirineu": 6512,
      "bat": 6513,
      "rus": 6514,
      "rendre": 6515,
      "ĠcondiciÃ³": 6516,
      "ĠTar": 6517,
      "Ġrestric": 6518,
      "ĠImp": 6519,
      "Ġconsens": 6520,
      "ĠMarÃŃa": 6521,
      "Ġpedag": 6522,
      "llaÃ§os": 6523,
      "Ġdemostrar": 6524,
      "ĠDirecciÃ³": 6525,
      "gudes": 6526,
      "Ġopos": 6527,
      "Ġcomporta": 6528,
      "Ãłrrega": 6529,
      "Ġconfinament": 6530,
      "ĠDef": 6531,
      "Ġregidors": 6532,
      "Ġidentificar": 6533,
      "Ã²rum": 6534,
      "Ġreclama": 6535,
      "Ġmascul": 6536,
      "Ġmeravell": 6537,
      "Home": 6538,
      "has": 6539,
      "moni": 6540,
      "pass": 6541,
      "alguns": 6542,
      "ink": 6543,
      "asti": 6544,
      "Ġnoti": 6545,
      "Ġinternet": 6546,
      "Ġcorrent": 6547,
      "Ġprocla": 6548,
      "Ġ150": 6549,
      "Ġvalencians": 6550,
      "Ġlliurament": 6551,
      "ĠGordon": 6552,
      "TR": 6553,
      "ĠresistÃ¨ncia": 6554,
      "Ġprevis": 6555,
      "ĠEnric": 6556,
      "Ġimmob": 6557,
      "ĠfÃŃsic": 6558,
      "ĠdÃ¨cada": 6559,
      "Ġflor": 6560,
      "ICI": 6561,
      "espa": 6562,
      "queu": 6563,
      "antic": 6564,
      "ress": 6565,
      "Ġconjuntament": 6566,
      "istÃ²": 6567,
      "ham": 6568,
      "ĠAlemanya": 6569,
      "Ġsorpren": 6570,
      "Ġsingular": 6571,
      "Ġeuropeu": 6572,
      "ĠubicaciÃ³": 6573,
      "Ġindependentistes": 6574,
      "ĠFernÃ¡ndez": 6575,
      "Ġteixit": 6576,
      "Fran": 6577,
      "use": 6578,
      "sil": 6579,
      "ĠGrÃłcies": 6580,
      "Ġ2000": 6581,
      "entada": 6582,
      "Ġmusicals": 6583,
      "Ġposteriorment": 6584,
      "efecte": 6585,
      "Ser": 6586,
      "dom": 6587,
      "dard": 6588,
      "mina": 6589,
      "Âª": 6590,
      "ĠLond": 6591,
      "rÃłnia": 6592,
      "Ġcontras": 6593,
      "Ġparticipen": 6594,
      "ficada": 6595,
      "Ġmuseu": 6596,
      "Ġestiguin": 6597,
      "Ġgermans": 6598,
      "'m": 6599,
      "Im": 6600,
      "ĠâĢ": 6601,
      "ane": 6602,
      "ĠmÃ¡s": 6603,
      "ater": 6604,
      "riques": 6605,
      "ĠCopa": 6606,
      "ĠconferÃ¨ncia": 6607,
      "ĠNÃºria": 6608,
      "Ġposici": 6609,
      "ĠcaldrÃł": 6610,
      "Ġconverteix": 6611,
      "Ġeuropea": 6612,
      "ĠcompetÃ¨ncia": 6613,
      "ĠJustÃŃcia": 6614,
      "Ġrendiment": 6615,
      "ĠcircumstÃłncies": 6616,
      "52": 6617,
      "egui": 6618,
      "yes": 6619,
      "Ġlit": 6620,
      "artista": 6621,
      "Ġnoies": 6622,
      "Ġactiva": 6623,
      "Ġfaig": 6624,
      "existÃ¨ncia": 6625,
      "ĠWeb": 6626,
      "Ġdiscrim": 6627,
      "Ġcontrolar": 6628,
      "Ġrespostes": 6629,
      "Ġsusp": 6630,
      "Ġfrancesa": 6631,
      "Catalunya": 6632,
      "pot": 6633,
      "Ġpont": 6634,
      "Ġner": 6635,
      "Ġprovocar": 6636,
      "ĠIb": 6637,
      "avaluaciÃ³": 6638,
      "Ġsegurament": 6639,
      "ĠUnivers": 6640,
      "Ġnombroses": 6641,
      "ĠNatural": 6642,
      "ĠGrÃłcia": 6643,
      "dueix": 6644,
      "Ġcaps": 6645,
      "Ġfactors": 6646,
      "Ġprofessorat": 6647,
      "ĠrevoluciÃ³": 6648,
      "Os": 6649,
      "dÃ³s": 6650,
      "fre": 6651,
      "llar": 6652,
      "ĠRic": 6653,
      "ĠEstat": 6654,
      "Ġsegles": 6655,
      "Ġveuen": 6656,
      "Ġdeixant": 6657,
      "2013": 6658,
      "Ġcompleix": 6659,
      "Ġanomenat": 6660,
      "Ġestructura": 6661,
      "Ġassolir": 6662,
      "ĠcÃłmera": 6663,
      "xillerat": 6664,
      "Co": 6665,
      "LE": 6666,
      "anomen": 6667,
      "inats": 6668,
      "ocar": 6669,
      "Ġactors": 6670,
      "Ġdiscapacitat": 6671,
      "Ġcartell": 6672,
      "Ġcookies": 6673,
      "Ġjuga": 6674,
      "ĠJunts": 6675,
      "efacciÃ³": 6676,
      "dos": 6677,
      "iÃł": 6678,
      "entisme": 6679,
      "Ġreti": 6680,
      "tesa": 6681,
      "ĠFem": 6682,
      "medi": 6683,
      "Ġpassos": 6684,
      "Ġonline": 6685,
      "ĠInd": 6686,
      "Ġinformat": 6687,
      "Ġsaben": 6688,
      "ĠpeticiÃ³": 6689,
      "ĠespecÃŃfica": 6690,
      "ĠproveÃ¯": 6691,
      "ĠXarxa": 6692,
      "86": 6693,
      "frica": 6694,
      "lit": 6695,
      "Ġalem": 6696,
      "Ã²graf": 6697,
      "Ġbol": 6698,
      "Ġnois": 6699,
      "vira": 6700,
      "Ġmanip": 6701,
      "Ġbaixar": 6702,
      "habitaciÃ³": 6703,
      "ĠcÃłrrecs": 6704,
      "ĠMalgrat": 6705,
      "ĠprovÃŃncia": 6706,
      "99": 6707,
      "Ġcic": 6708,
      "ondre": 6709,
      "ellÃ³": 6710,
      "Ġpresa": 6711,
      "ĠRei": 6712,
      "ĠcontÃ©": 6713,
      "Ġnegocis": 6714,
      "Ġpressupostos": 6715,
      "ĠDoncs": 6716,
      "Ġimprescindible": 6717,
      "Ġhospital": 6718,
      "Ġedat": 6719,
      "ablo": 6720,
      "posta": 6721,
      "Ġinfec": 6722,
      "Ġpols": 6723,
      "Ġsorpresa": 6724,
      "ĠJoaqu": 6725,
      "ence": 6726,
      "tratÃ¨gia": 6727,
      "Ġdispositiu": 6728,
      "AgÃ¨ncia": 6729,
      "Del": 6730,
      "franca": 6731,
      "Ġidi": 6732,
      "Ġtrim": 6733,
      "roga": 6734,
      "ĠBro": 6735,
      "fers": 6736,
      "istema": 6737,
      "ĠEsper": 6738,
      "ĠWi": 6739,
      "Ġtornada": 6740,
      "Ġcamins": 6741,
      "aquell": 6742,
      "ĠJavi": 6743,
      "Ġafegeix": 6744,
      "Ġvinent": 6745,
      "Ġvulgui": 6746,
      "Ġdetall": 6747,
      "canvi": 6748,
      "Ġcadena": 6749,
      "Ġdanys": 6750,
      "Ġbarcelon": 6751,
      "Ġrecent": 6752,
      "Ġ33": 6753,
      "Ġavalu": 6754,
      "Ġcops": 6755,
      "Ġapareixen": 6756,
      "Ġeuropeus": 6757,
      "ĠFrancisco": 6758,
      "Col": 6759,
      "TV": 6760,
      "ucion": 6761,
      "Ġda": 6762,
      "ĠCAT": 6763,
      "ĠMet": 6764,
      "ilia": 6765,
      "ĠTrob": 6766,
      "Ġartes": 6767,
      "ĠMarina": 6768,
      "queting": 6769,
      "Ġradic": 6770,
      "ĠaccÃ¨s": 6771,
      "ivera": 6772,
      "Ġconversa": 6773,
      "Ġdespesa": 6774,
      "Ġdirigir": 6775,
      "Ġreivindica": 6776,
      "OD": 6777,
      "Ġmares": 6778,
      "Ġassass": 6779,
      "Ġvistes": 6780,
      "Ġraons": 6781,
      "Ġteoria": 6782,
      "Ġlleis": 6783,
      "vatori": 6784,
      "Ġdefinir": 6785,
      "53": 6786,
      "Ġoli": 6787,
      "Ġvet": 6788,
      "emergÃ¨ncia": 6789,
      "ĠCompromÃŃs": 6790,
      "Ġrelat": 6791,
      "ĠConstituciÃ³": 6792,
      "lectual": 6793,
      "Ġmetge": 6794,
      "Ġvalenciana": 6795,
      "Ġimpulsar": 6796,
      "carregat": 6797,
      "Ġobservar": 6798,
      "Ġaplicacions": 6799,
      "bum": 6800,
      "eng": 6801,
      "tins": 6802,
      "Ġdiscipl": 6803,
      "Ġ07": 6804,
      "ĠcontractaciÃ³": 6805,
      "ĠSoler": 6806,
      "Ġxifres": 6807,
      "fÃ¨": 6808,
      "ĠquÃŃm": 6809,
      "Ġvins": 6810,
      "ĠCiÃ¨ncies": 6811,
      "ĠSosten": 6812,
      "Ġapos": 6813,
      "ssia": 6814,
      "Ġveig": 6815,
      "envolupament": 6816,
      "Ġaspecte": 6817,
      "Ġsatisfer": 6818,
      "Ġingressos": 6819,
      "ĠdÃ²lars": 6820,
      "66": 6821,
      "URA": 6822,
      "Vol": 6823,
      "ticip": 6824,
      "itx": 6825,
      "questra": 6826,
      "ĠTi": 6827,
      "ĠVir": 6828,
      "tral": 6829,
      "Ġbarris": 6830,
      "ĠLlor": 6831,
      "Ġsocialistes": 6832,
      "Ã²stic": 6833,
      "vocats": 6834,
      "ĠSegona": 6835,
      "ĠgermÃł": 6836,
      "41": 6837,
      "77": 6838,
      "idi": 6839,
      "ko": 6840,
      "ĠcÃ¨l": 6841,
      "uida": 6842,
      "ĠVaig": 6843,
      "Ġdarreres": 6844,
      "ĠpermÃ¨s": 6845,
      "Ġdelicte": 6846,
      "Ġtraslladar": 6847,
      "inen": 6848,
      "gue": 6849,
      "ĠPA": 6850,
      "Ġindis": 6851,
      "lig": 6852,
      "ĠIgual": 6853,
      "Ġpodrem": 6854,
      "ĠOriol": 6855,
      "Ġsitua": 6856,
      "Ġpropietaris": 6857,
      "ĠsÃŃmb": 6858,
      "Ġuniversitat": 6859,
      "Ġdeute": 6860,
      "Ġsostenibilitat": 6861,
      "CE": 6862,
      "iors": 6863,
      "ld": 6864,
      "esca": 6865,
      "anal": 6866,
      "Ġnoc": 6867,
      "Ġdesg": 6868,
      "Ġpaga": 6869,
      "extre": 6870,
      "Ġestatal": 6871,
      "Ġtrobareu": 6872,
      "Ġcreixent": 6873,
      "Ġlimita": 6874,
      "Ġadequat": 6875,
      "Ġrestaurants": 6876,
      "ilibri": 6877,
      "Ġdob": 6878,
      "ĠcÃŃ": 6879,
      "real": 6880,
      "osofia": 6881,
      "lam": 6882,
      "ĠAf": 6883,
      "ĠTru": 6884,
      "Ãłrqueting": 6885,
      "Ġriquesa": 6886,
      "ĠlÃŃmit": 6887,
      "ĠresidÃ¨ncia": 6888,
      "ĠTorra": 6889,
      "ĠtendÃ¨ncia": 6890,
      "clop": 6891,
      "anter": 6892,
      "ĠMil": 6893,
      "ĠDigital": 6894,
      "ensenyament": 6895,
      "tena": 6896,
      "ĠAlta": 6897,
      "Ġtants": 6898,
      "Ġbasat": 6899,
      "Ġintent": 6900,
      "Ġclarament": 6901,
      "Ã¨xic": 6902,
      "Ġvoluntaris": 6903,
      "Ġproperes": 6904,
      "Ġmediter": 6905,
      "Ġviscut": 6906,
      "Sobre": 6907,
      "ml": 6908,
      "ĠnaciÃ³": 6909,
      "Ġestats": 6910,
      "Ġesfor": 6911,
      "Ã¨tics": 6912,
      "itors": 6913,
      "Ġanual": 6914,
      "Ġcapdavant": 6915,
      "Ġcreure": 6916,
      "Ġpreguntar": 6917,
      "cepciÃ³": 6918,
      "Ġhabituals": 6919,
      "uri": 6920,
      "Ġ)": 6921,
      "Ġtop": 6922,
      "Ġalum": 6923,
      "ussa": 6924,
      "mpt": 6925,
      "ĠLaura": 6926,
      "Ġescen": 6927,
      "Ġguanya": 6928,
      "ĠConf": 6929,
      "ĠcelebrarÃł": 6930,
      "Ġvulguin": 6931,
      "Ġpisos": 6932,
      "ĠrÃłpida": 6933,
      "Ġnaixement": 6934,
      "CN": 6935,
      "gol": 6936,
      "pol": 6937,
      "Ġvendre": 6938,
      "ĠIII": 6939,
      "Ġrecentment": 6940,
      "ĠEspor": 6941,
      "Ġbuscant": 6942,
      "Ġsomni": 6943,
      "Assemblea": 6944,
      "Ġconserva": 6945,
      "ĠenergÃ¨tica": 6946,
      "ĠcontinuÃ¯tat": 6947,
      "ĠtÃŃp": 6948,
      "questa": 6949,
      "ĠSub": 6950,
      "dient": 6951,
      "obser": 6952,
      "itzada": 6953,
      "Ġviatges": 6954,
      "Ġmatar": 6955,
      "Ġterri": 6956,
      "aurada": 6957,
      "Ġdeixem": 6958,
      "ERS": 6959,
      "Ġvacun": 6960,
      "Ġvincula": 6961,
      "Ġaproximadament": 6962,
      "At": 6963,
      "don": 6964,
      "ortar": 6965,
      "undi": 6966,
      "Ġaixec": 6967,
      "alitzades": 6968,
      "Ġtantes": 6969,
      "Ġprofunda": 6970,
      "Ġverd": 6971,
      "Albert": 6972,
      "Ġdivul": 6973,
      "ĠrÃłdio": 6974,
      "Ġterritorial": 6975,
      "Ġesportiu": 6976,
      "Ġdemostrat": 6977,
      "Ġmissatges": 6978,
      "Ġplanteja": 6979,
      "ĠmÃºsics": 6980,
      "Ma": 6981,
      "Ġmur": 6982,
      "rida": 6983,
      "itÃ¨": 6984,
      "ĠSt": 6985,
      "icada": 6986,
      "essos": 6987,
      "ĠEuropeu": 6988,
      "alguna": 6989,
      "encar": 6990,
      "enament": 6991,
      "elcom": 6992,
      "Ġenergia": 6993,
      "Ã¨tiques": 6994,
      "ĠCos": 6995,
      "ĠTÃ©": 6996,
      "Ġpreser": 6997,
      "Ġescal": 6998,
      "Ġpujada": 6999,
      "Ġsocialista": 7000,
      "Ġpriva": 7001,
      "Ġesdevin": 7002,
      "Ġpacient": 7003,
      "Ġquarta": 7004,
      "Ġpodien": 7005,
      "EF": 7006,
      "Is": 7007,
      "OO": 7008,
      "bes": 7009,
      "gada": 7010,
      "vet": 7011,
      "Ġdates": 7012,
      "ĠaÃ¯": 7013,
      "ĠRip": 7014,
      "ĠVia": 7015,
      "Ġ--": 7016,
      "ĠdonarÃł": 7017,
      "Ġentra": 7018,
      "ARC": 7019,
      "Ġorganitzada": 7020,
      "ORT": 7021,
      "Ġcontractes": 7022,
      "ĠfemenÃŃ": 7023,
      "ĠTanmateix": 7024,
      "ĠSuprem": 7025,
      "ĠSil": 7026,
      "cionalitat": 7027,
      "Ġsegueixen": 7028,
      "Ġdisposar": 7029,
      "Ġdeclarar": 7030,
      "ĠartÃŃstica": 7031,
      "habilitaciÃ³": 7032,
      "79": 7033,
      "IES": 7034,
      "yer": 7035,
      "engua": 7036,
      "erc": 7037,
      "ollida": 7038,
      "Ġenorm": 7039,
      "riel": 7040,
      "Ġgreus": 7041,
      "ĠSants": 7042,
      "ĠTant": 7043,
      "ĠFin": 7044,
      "ĠIS": 7045,
      "Ġcolla": 7046,
      "Ġabril": 7047,
      "Ġadults": 7048,
      "ADA": 7049,
      "Ġvigil": 7050,
      "Ġemocional": 7051,
      "Ġhistoria": 7052,
      "Ġprestigi": 7053,
      "eck": 7054,
      "Ã²niques": 7055,
      "Ġdiri": 7056,
      "Ġactiu": 7057,
      "assistÃ¨ncia": 7058,
      "Ġposem": 7059,
      "Ġutilitza": 7060,
      "Ġcandidatura": 7061,
      "Ġplantejar": 7062,
      "Ġestabliments": 7063,
      "Ġnoctur": 7064,
      "Pa": 7065,
      "Ġtros": 7066,
      "Ġvoca": 7067,
      "Ãłri": 7068,
      "Ãłlia": 7069,
      "rogues": 7070,
      "Ġbur": 7071,
      "ĠDra": 7072,
      "ĠIV": 7073,
      "Ġescenari": 7074,
      "ĠcalefacciÃ³": 7075,
      "Ġescolars": 7076,
      "ĠvaloraciÃ³": 7077,
      "Ġinstitucional": 7078,
      "ĠconvenÃ§": 7079,
      "Ġafirmat": 7080,
      "Ġseguida": 7081,
      "ĠRibera": 7082,
      "As": 7083,
      "retes": 7084,
      "Ġvell": 7085,
      "Ġenvi": 7086,
      "ĠSud": 7087,
      "liar": 7088,
      "ĠLlo": 7089,
      "Ġdient": 7090,
      "ulant": 7091,
      "Ġacons": 7092,
      "ĠVidal": 7093,
      "2010": 7094,
      "ĠclimÃłtic": 7095,
      "ĠllengÃ¼es": 7096,
      "laborar": 7097,
      "Ġdenom": 7098,
      "Ġfactura": 7099,
      "Ġplaneta": 7100,
      "ĠcoordinaciÃ³": 7101,
      "ĠinclÃ²s": 7102,
      "ĠinterpretaciÃ³": 7103,
      "Desc": 7104,
      "Imp": 7105,
      "Ġpop": 7106,
      "lau": 7107,
      "Ġbis": 7108,
      "ĠTal": 7109,
      "vila": 7110,
      "Ġacollir": 7111,
      "augment": 7112,
      "Ġmenjador": 7113,
      "ĠConsorci": 7114,
      "Ġtemporal": 7115,
      "iblioteques": 7116,
      "Ġvigent": 7117,
      "ĠPatrimoni": 7118,
      "Ten": 7119,
      "wn": 7120,
      "enguany": 7121,
      "anos": 7122,
      "Ġtrib": 7123,
      "Ġcomiss": 7124,
      "ech": 7125,
      "ĠMai": 7126,
      "ĠdiferÃ¨ncies": 7127,
      "Ġplaer": 7128,
      "Ġ978": 7129,
      "Ġ75": 7130,
      "Ġhomenatge": 7131,
      "ĠcÃłrrega": 7132,
      "Ġtrencar": 7133,
      "Ġantiga": 7134,
      "Ġperfectament": 7135,
      "ĠPodeu": 7136,
      "GrÃłcies": 7137,
      "wa": 7138,
      "Ġdansa": 7139,
      "Ġagu": 7140,
      "Ġth": 7141,
      "Ġestre": 7142,
      "Ġgols": 7143,
      "ĠBlan": 7144,
      "ĠDrets": 7145,
      "istres": 7146,
      "egudes": 7147,
      "Inf": 7148,
      "Ġcategories": 7149,
      "ĠvÃŃctima": 7150,
      "ĠclassificaciÃ³": 7151,
      "itaris": 7152,
      "atÃ³": 7153,
      "Ã¨u": 7154,
      "Ġreper": 7155,
      "ĠProm": 7156,
      "Ġing": 7157,
      "ĠEr": 7158,
      "olata": 7159,
      "Ġvisu": 7160,
      "Ã¡lez": 7161,
      "Ġsubrat": 7162,
      "Ġopera": 7163,
      "ĠproduÃ¯t": 7164,
      "Ġtercers": 7165,
      "Ġsimilar": 7166,
      "ĠEmpordÃł": 7167,
      "____": 7168,
      "ĠMenorca": 7169,
      "morzar": 7170,
      "ÃŃssima": 7171,
      "mats": 7172,
      "ĠSitges": 7173,
      "mag": 7174,
      "Ġcomencen": 7175,
      "Ġtindre": 7176,
      "Ġcris": 7177,
      "Ġcenten": 7178,
      "Ġintenta": 7179,
      "rari": 7180,
      "Ã²lica": 7181,
      "ĠMel": 7182,
      "Ġ32": 7183,
      "Ġescala": 7184,
      "piraciÃ³": 7185,
      "Ġemprened": 7186,
      "ĠdemocrÃłtica": 7187,
      "ĠBatman": 7188,
      "Ġprocediment": 7189,
      "orld": 7190,
      "unta": 7191,
      "ĠSr": 7192,
      "Ġprovar": 7193,
      "duÃ¯": 7194,
      "Ġposen": 7195,
      "hauria": 7196,
      "arcar": 7197,
      "prÃ¨s": 7198,
      "Ġcomunicar": 7199,
      "Ġcanviat": 7200,
      "Ġpositiva": 7201,
      "ÃīS": 7202,
      "Don": 7203,
      "Prim": 7204,
      "nar": 7205,
      "rons": 7206,
      "xo": 7207,
      "Ġrecap": 7208,
      "Ġinj": 7209,
      "ĠSel": 7210,
      "tesi": 7211,
      "tua": 7212,
      "ĠDona": 7213,
      "allÃ²": 7214,
      "edeix": 7215,
      "Ã¯na": 7216,
      "tivaciÃ³": 7217,
      "ĠMaresme": 7218,
      "Ġesdeveniment": 7219,
      "rÃŃguez": 7220,
      "Ġgiron": 7221,
      "Ġrequereix": 7222,
      "Ġvideo": 7223,
      "Ġtargeta": 7224,
      "tera": 7225,
      "yent": 7226,
      "Ġeleg": 7227,
      "Ġgru": 7228,
      "ligÃ¨ncia": 7229,
      "ĠGa": 7230,
      "ĠGi": 7231,
      "Ġplats": 7232,
      "Ġsolar": 7233,
      "Ġamunt": 7234,
      "Ġpensat": 7235,
      "lectiva": 7236,
      "Ġatendre": 7237,
      "Ġmarcat": 7238,
      "Ġguitar": 7239,
      "Econ": 7240,
      "ĠQ": 7241,
      "antiga": 7242,
      "ĠPons": 7243,
      "Ġparar": 7244,
      "ĠGas": 7245,
      "Ġorg": 7246,
      "Ġmostrat": 7247,
      "Ġmostren": 7248,
      "Ġpensa": 7249,
      "ĠconservaciÃ³": 7250,
      "ĠÃ²r": 7251,
      "ĠMac": 7252,
      "ĠDones": 7253,
      "Ġ400": 7254,
      "Ã²nics": 7255,
      "Ġsanitari": 7256,
      "accep": 7257,
      "ĠTorres": 7258,
      "Ġnaturalesa": 7259,
      "ĠdÃ¨cades": 7260,
      "ng": 7261,
      "elim": 7262,
      "ĠfÃ³rm": 7263,
      "ĠCN": 7264,
      "lades": 7265,
      "ĠmÃłquina": 7266,
      "CIA": 7267,
      "Ġllegint": 7268,
      "Ġinclouen": 7269,
      "Ġtrenta": 7270,
      "ĠrecepciÃ³": 7271,
      "ĠGrau": 7272,
      "Ġadquirir": 7273,
      "Ġprogramari": 7274,
      "ĠmÃ¨tode": 7275,
      "Ġcaiguda": 7276,
      "Res": 7277,
      "ux": 7278,
      "inant": 7279,
      "iteu": 7280,
      "ĠUP": 7281,
      "Ġrepresentar": 7282,
      "Ġampliar": 7283,
      "AdministraciÃ³": 7284,
      "Ġxerrada": 7285,
      "ĠFormaciÃ³": 7286,
      "60": 7287,
      "latura": 7288,
      "pel": 7289,
      "ĠPablo": 7290,
      "Ġpotencial": 7291,
      "lotaciÃ³": 7292,
      "urada": 7293,
      "Ġrellev": 7294,
      "Ġpublicitat": 7295,
      "empreses": 7296,
      "CC": 7297,
      "Cada": 7298,
      "Dim": 7299,
      "PR": 7300,
      "lvar": 7301,
      "Ġdinam": 7302,
      "Ġtem": 7303,
      "rab": 7304,
      "ĠEducaciÃ³": 7305,
      "ĠRoma": 7306,
      "Ġpresump": 7307,
      "Ġobertes": 7308,
      "Ġsuperi": 7309,
      "unciar": 7310,
      "Ġdigitals": 7311,
      "Ġespectacles": 7312,
      "Ġdispositius": 7313,
      "ĠavanÃ§at": 7314,
      "Ġuniversitats": 7315,
      "Segu": 7316,
      "ibles": 7317,
      "ony": 7318,
      "tirÃł": 7319,
      "leta": 7320,
      "ĠEstÃł": 7321,
      "Ġavantatges": 7322,
      "Ġexemples": 7323,
      "ĠFerrer": 7324,
      "Ġcostos": 7325,
      "Ġmecan": 7326,
      "Ġdirigida": 7327,
      "gor": 7328,
      "Ġcomfort": 7329,
      "Ġincon": 7330,
      "Ġplata": 7331,
      "Ġ2003": 7332,
      "Ġsabia": 7333,
      "Ġ01": 7334,
      "ĠProtecciÃ³": 7335,
      "Ġjurat": 7336,
      "................................": 7337,
      "son": 7338,
      "Ġvall": 7339,
      "riment": 7340,
      "ĠCirc": 7341,
      "ĠBanc": 7342,
      "trats": 7343,
      "ĠNeg": 7344,
      "Ġtaxa": 7345,
      "Ġgoverns": 7346,
      "Ġsiga": 7347,
      "ĠutilitzaciÃ³": 7348,
      "ĠsÃŃmpt": 7349,
      "ospitals": 7350,
      "Ġoficials": 7351,
      "apartat": 7352,
      "arribar": 7353,
      "Ġrepresentant": 7354,
      "ĠespÃ¨cies": 7355,
      "ĠfeliÃ§": 7356,
      "ĠmÃºltiples": 7357,
      "Cap": 7358,
      "He": 7359,
      "rel": 7360,
      "ĠMira": 7361,
      "ĠGel": 7362,
      "trol": 7363,
      "Ġposant": 7364,
      "tils": 7365,
      "Ġvisual": 7366,
      "ĠJohn": 7367,
      "ĠpoguÃ©s": 7368,
      "Ġoctubre": 7369,
      "ĠYou": 7370,
      "ajud": 7371,
      "ĠRecord": 7372,
      "Ġdificultat": 7373,
      "Ġcomportament": 7374,
      "ĠInfantil": 7375,
      "Posted": 7376,
      "Ġbatalla": 7377,
      "ĠBÃ©": 7378,
      "acompany": 7379,
      "egar": 7380,
      "ĠVis": 7381,
      "Ġcrema": 7382,
      "Ġculpa": 7383,
      "ĠCarrer": 7384,
      "Ġprimavera": 7385,
      "Ġagradat": 7386,
      "ĠÃºnicament": 7387,
      "df": 7388,
      "mal": 7389,
      "Ġencap": 7390,
      "ĠbÃł": 7391,
      "Ġparlament": 7392,
      "Ġarren": 7393,
      "ĠHan": 7394,
      "Ġmarx": 7395,
      "ĠMartin": 7396,
      "ĠprojecciÃ³": 7397,
      "quipÃ¨dia": 7398,
      "Ġajudes": 7399,
      "lusions": 7400,
      "Ġmetod": 7401,
      "ĠPlataforma": 7402,
      "ĠfÃłcilment": 7403,
      "Ġsucre": 7404,
      "Ġdicta": 7405,
      "Ġsuspen": 7406,
      "ĠcientÃŃfica": 7407,
      "Ġsumar": 7408,
      "ginyeria": 7409,
      "ĠGonzÃ¡lez": 7410,
      "dics": 7411,
      "ument": 7412,
      "indi": 7413,
      "rael": 7414,
      "ĠCard": 7415,
      "ĠEd": 7416,
      "ĠMÃ³n": 7417,
      "ĠSh": 7418,
      "ĠdiÃłria": 7419,
      "ĠFoto": 7420,
      "Ġimplan": 7421,
      "Ġtalent": 7422,
      "Ġras": 7423,
      "Ġsubministra": 7424,
      "ientals": 7425,
      "Ġhabitatges": 7426,
      "Ġoblidar": 7427,
      "ĠTeresa": 7428,
      "Ġintegral": 7429,
      "ĠPrimer": 7430,
      "Ġflors": 7431,
      "ĠcadascÃº": 7432,
      "Ġpendent": 7433,
      "90": 7434,
      "Man": 7435,
      "king": 7436,
      "ĠSeny": 7437,
      "aciÃ³n": 7438,
      "ĠTecn": 7439,
      "edor": 7440,
      "Ġcorpor": 7441,
      "Ġpensant": 7442,
      "Ġcomplement": 7443,
      "Ġconscients": 7444,
      "Ġsimil": 7445,
      "ĠPrimera": 7446,
      "Ġnombrosos": 7447,
      "ĠRodrÃŃguez": 7448,
      "adreÃ§a": 7449,
      "Ġretar": 7450,
      "tans": 7451,
      "Ġrell": 7452,
      "Ġriscos": 7453,
      "Ġadaptar": 7454,
      "ĠNew": 7455,
      "Ġalternativa": 7456,
      "Ġprotocol": 7457,
      "gal": 7458,
      "Ġdegu": 7459,
      "Ãłtics": 7460,
      "Ġredac": 7461,
      "Ġrevel": 7462,
      "Ġconvoca": 7463,
      "Ġjunt": 7464,
      "Ġanalitzar": 7465,
      "voluciÃ³": 7466,
      "ames": 7467,
      "Ġfetes": 7468,
      "Ã±os": 7469,
      "Ġmereix": 7470,
      "ĠcirculaciÃ³": 7471,
      "Ġacords": 7472,
      "ĠSetembre": 7473,
      "Ġeliminar": 7474,
      "Ġfulles": 7475,
      "ĠGuillem": 7476,
      "lÃŃ": 7477,
      "Ġ<": 7478,
      "esos": 7479,
      "Ġsinc": 7480,
      "Ġaliment": 7481,
      "ĠSL": 7482,
      "dim": 7483,
      "Ġexpec": 7484,
      "Ġadm": 7485,
      "Ġmercats": 7486,
      "ĠcapaÃ§os": 7487,
      "ĠlÃŃmits": 7488,
      "inscripciÃ³": 7489,
      "Â¿": 7490,
      "Ġatre": 7491,
      "ĠcÃ³rrer": 7492,
      "orge": 7493,
      "ĠCru": 7494,
      "Ġballar": 7495,
      "Ġefica": 7496,
      "Ġtari": 7497,
      "Ġarbres": 7498,
      "ĠHistÃ²ria": 7499,
      "Ġ34": 7500,
      "Ġpoblacions": 7501,
      "Ġdecret": 7502,
      "Ġbaixes": 7503,
      "Ġconsiderat": 7504,
      "Ġanunciar": 7505,
      "ĠclÃłssic": 7506,
      "Ġassenyalat": 7507,
      "Ġrequisits": 7508,
      "cials": 7509,
      "ann": 7510,
      "organ": 7511,
      "Ġmens": 7512,
      "Ġfol": 7513,
      "ase": 7514,
      "Ġedicions": 7515,
      "Ġpresos": 7516,
      "hagi": 7517,
      "Ġplatges": 7518,
      "ĠteÃ²": 7519,
      "ĠDesenvolupament": 7520,
      "ombra": 7521,
      "ĠbÃłsics": 7522,
      "Ġfrase": 7523,
      "Ġcontribuir": 7524,
      "Ġcondicionat": 7525,
      "Ġcomplicat": 7526,
      "ĠLondres": 7527,
      "TS": 7528,
      "Ġavi": 7529,
      "Ġtrip": 7530,
      "Ãłcia": 7531,
      "ĠGr": 7532,
      "Ġacredi": 7533,
      "dues": 7534,
      "opiniÃ³": 7535,
      "ĠHol": 7536,
      "Ġcostu": 7537,
      "ĠplÃłstic": 7538,
      "Ġllibrer": 7539,
      "Ġdescens": 7540,
      "Ãłgina": 7541,
      "Ġcadascuna": 7542,
      "Ġpolicial": 7543,
      "ients": 7544,
      "Ġcir": 7545,
      "antar": 7546,
      "lid": 7547,
      "Ãºssia": 7548,
      "ĠVI": 7549,
      "Ġ2004": 7550,
      "ĠVilafranca": 7551,
      "Ġobjecte": 7552,
      "Ġpublicada": 7553,
      "Ġgossos": 7554,
      "ĠdesplaÃ§a": 7555,
      "anterior": 7556,
      "Mal": 7557,
      "Ġran": 7558,
      "Ġgira": 7559,
      "lets": 7560,
      "odo": 7561,
      "ĠpolÃ¨m": 7562,
      "Ġfinalitzar": 7563,
      "Ġafavor": 7564,
      "Ġincloent": 7565,
      "Ġaugmenta": 7566,
      "Ġdenunciar": 7567,
      "Mos": 7568,
      "jades": 7569,
      "Ġfug": 7570,
      "Ġfib": 7571,
      "icciÃ³": 7572,
      "Ġreals": 7573,
      "alitzacions": 7574,
      "ĠAlguns": 7575,
      "Ġsubvencions": 7576,
      "Ã¨cnica": 7577,
      "querres": 7578,
      "Ġconsellera": 7579,
      "Ġinvestigadors": 7580,
      "Ġrecepta": 7581,
      "ty": 7582,
      "Ġflo": 7583,
      "Ġparlat": 7584,
      "ĠJocs": 7585,
      "Ġ37": 7586,
      "ĠestÃłs": 7587,
      "ĠAmbient": 7588,
      "ĠPaÃ¯sos": 7589,
      "Ġestableix": 7590,
      "Ġ!": 7591,
      "Ġcm": 7592,
      "quid": 7593,
      "ĠPÃºblica": 7594,
      "ĠSobre": 7595,
      "tinyent": 7596,
      "ĠVill": 7597,
      "Ġrural": 7598,
      "ĠEsta": 7599,
      "estima": 7600,
      "Ġmillores": 7601,
      "vellÃ³": 7602,
      "Ġprivi": 7603,
      "ropoli": 7604,
      "Ġacceptar": 7605,
      "Ġquarts": 7606,
      "ĠFacebook": 7607,
      "Ġalcalde": 7608,
      "ĠQUE": 7609,
      "Cas": 7610,
      "ĠPÃº": 7611,
      "ĠMob": 7612,
      "ĠSeb": 7613,
      "tores": 7614,
      "Alz": 7615,
      "Ġdesenvolupat": 7616,
      "ĠÃłl": 7617,
      "Ġutilitzant": 7618,
      "aquells": 7619,
      "Ġnormalitat": 7620,
      "Ġorigen": 7621,
      "ĠgrÃłfic": 7622,
      "Ġtestimoni": 7623,
      "elaboraciÃ³": 7624,
      "ĠesforÃ§os": 7625,
      "quines": 7626,
      "isos": 7627,
      "Ġrecin": 7628,
      "oteca": 7629,
      "ulo": 7630,
      "itzats": 7631,
      "ĠpodrÃŃem": 7632,
      "ĠopiniÃ³": 7633,
      "Ġclima": 7634,
      "Ġrelax": 7635,
      "ĠRoig": 7636,
      "Ġaportar": 7637,
      "col": 7638,
      "cera": 7639,
      "Ġenri": 7640,
      "Ġestima": 7641,
      "letes": 7642,
      "Ġpropa": 7643,
      "obres": 7644,
      "ign": 7645,
      "ĠcomptarÃł": 7646,
      "uges": 7647,
      "ĠcorrupciÃ³": 7648,
      "ĠAls": 7649,
      "ĠQuin": 7650,
      "Ġconsideren": 7651,
      "Ġaturar": 7652,
      "Ġesportives": 7653,
      "Ġpermeti": 7654,
      "Dia": 7655,
      "Val": 7656,
      "Ġdegut": 7657,
      "Ġsexe": 7658,
      "ĠSch": 7659,
      "tet": 7660,
      "Ġactitud": 7661,
      "ĠVe": 7662,
      "ĠElec": 7663,
      "Ġmag": 7664,
      "ext": 7665,
      "Ġveter": 7666,
      "ERA": 7667,
      "Ġmarcar": 7668,
      "Ġconceptes": 7669,
      "Ġlider": 7670,
      "Ġvaixell": 7671,
      "Ġbellesa": 7672,
      "Hab": 7673,
      "Ġaten": 7674,
      "ĠaigÃ¼es": 7675,
      "Ġfed": 7676,
      "Ġhos": 7677,
      "ÃŃtim": 7678,
      "antena": 7679,
      "ĠAp": 7680,
      "ĠSha": 7681,
      "vies": 7682,
      "torell": 7683,
      "Ġmandat": 7684,
      "Ġ48": 7685,
      "ĠNov": 7686,
      "Ġcinqu": 7687,
      "Ġocupa": 7688,
      "Ġproporcion": 7689,
      "Ġincrement": 7690,
      "enfron": 7691,
      "Ġfabrica": 7692,
      "Ġirregular": 7693,
      "Ġinterpreta": 7694,
      "Ġterritoris": 7695,
      "'\"": 7696,
      "orb": 7697,
      "atx": 7698,
      "ĠTh": 7699,
      "tanta": 7700,
      "upaciÃ³": 7701,
      "Ġacull": 7702,
      "edo": 7703,
      "fiquen": 7704,
      "incre": 7705,
      "Ġoptim": 7706,
      "ĠaparÃ¨ixer": 7707,
      "Ġdestaquen": 7708,
      "Ġdelictes": 7709,
      "DE": 7710,
      "Sal": 7711,
      "ish": 7712,
      "imn": 7713,
      "ĠNic": 7714,
      "execuciÃ³": 7715,
      "Ġmarit": 7716,
      "Ġsolitari": 7717,
      "Ġverda": 7718,
      "Ġpenso": 7719,
      "ĠdinÃłmica": 7720,
      "Ġvalorar": 7721,
      "Ġiniciat": 7722,
      "Ġcoberta": 7723,
      "ĠcomenÃ§arÃł": 7724,
      "Ġfruita": 7725,
      "Ġcabell": 7726,
      "Ġexercici": 7727,
      "Ġelaborat": 7728,
      "ĠCambra": 7729,
      "vÃŃem": 7730,
      "investigaciÃ³": 7731,
      "das": 7732,
      "assegu": 7733,
      "ĠTo": 7734,
      "ĠRel": 7735,
      "Ġpodreu": 7736,
      "ĠnegociaciÃ³": 7737,
      "Ġrival": 7738,
      "!!!!": 7739,
      "Ġguanyador": 7740,
      "Ġescrita": 7741,
      "ĠCanal": 7742,
      "Ġintensitat": 7743,
      "Publicado": 7744,
      "ĠRecerca": 7745,
      "Ġxiquets": 7746,
      "ĠvotaciÃ³": 7747,
      "Ġepis": 7748,
      "Ġbrillant": 7749,
      "estu": 7750,
      "ĠtÃŃtols": 7751,
      "ĠhÃłb": 7752,
      "ĠAle": 7753,
      "direc": 7754,
      "ĠDim": 7755,
      "ĠTort": 7756,
      "Ã¨nia": 7757,
      "Ġpresen": 7758,
      "Ġvital": 7759,
      "Ġdispar": 7760,
      "Ġescollir": 7761,
      "Ġaccessi": 7762,
      "Ġutilitzat": 7763,
      "ĠUniversi": 7764,
      "Ġconscient": 7765,
      "Ġintroduir": 7766,
      "Ã²legs": 7767,
      "escriptor": 7768,
      "ĠBlanc": 7769,
      "Ġdimensions": 7770,
      "clopÃ¨dia": 7771,
      "BN": 7772,
      "Ben": 7773,
      "ST": 7774,
      "nal": 7775,
      "ualment": 7776,
      "estratÃ¨gia": 7777,
      "Ġquelcom": 7778,
      "Ġperjudi": 7779,
      "ĠAqu": 7780,
      "teig": 7781,
      "ĠTres": 7782,
      "emple": 7783,
      "Ġmoure": 7784,
      "Ġalluny": 7785,
      "ĠmodificaciÃ³": 7786,
      "Ġvermell": 7787,
      "ĠAMB": 7788,
      "ĠCinema": 7789,
      "Ġadolescents": 7790,
      "ĠdenÃºncia": 7791,
      "cla": 7792,
      "mas": 7793,
      "Ã¶": 7794,
      "Ġch": 7795,
      "Ġsamar": 7796,
      "trant": 7797,
      "nau": 7798,
      "Esports": 7799,
      "Ġaparell": 7800,
      "Ġdenuncia": 7801,
      "ĠRovira": 7802,
      "Ġfacilitat": 7803,
      "Ġaportacions": 7804,
      "rÃ²quia": 7805,
      "Ġretirar": 7806,
      "Ġdotze": 7807,
      "Ġbicicleta": 7808,
      "Economia": 7809,
      "ĠbÃłsiques": 7810,
      "ĠsÃŃn": 7811,
      "issa": 7812,
      "Ġmatrimoni": 7813,
      "Ġpotenciar": 7814,
      "Ġsales": 7815,
      "Ġpuntu": 7816,
      "Ġsituar": 7817,
      "Ġformada": 7818,
      "Ġlletres": 7819,
      "Ġ06": 7820,
      "Ġespectacular": 7821,
      "Ġadequada": 7822,
      "Ġrelleu": 7823,
      "redients": 7824,
      "Ġabsolu": 7825,
      "Ġtrimestre": 7826,
      "Ġitiner": 7827,
      "Ġlater": 7828,
      "ĠPlan": 7829,
      "ĠMÃ¨xic": 7830,
      "Ġetique": 7831,
      "Ãºr": 7832,
      "Ġllit": 7833,
      "teneu": 7834,
      "Qui": 7835,
      "Ġsalvar": 7836,
      "Ġrelaxar": 7837,
      "Ġmoral": 7838,
      "ĠdefiniciÃ³": 7839,
      "Ġsemblant": 7840,
      "Ġdetectar": 7841,
      "mica": 7842,
      "Ġtitu": 7843,
      "Ġlema": 7844,
      "tatives": 7845,
      "ĠLib": 7846,
      "ĠGestiÃ³": 7847,
      "oger": 7848,
      "Ġtranspor": 7849,
      "Ġhabilitats": 7850,
      "Antoni": 7851,
      "Ġrepartiment": 7852,
      "ĠPremis": 7853,
      "Ġlegislatura": 7854,
      "Ġsindicats": 7855,
      "alimentaciÃ³": 7856,
      "far": 7857,
      "ualitat": 7858,
      "Ġq": 7859,
      "elf": 7860,
      "ĠPC": 7861,
      "ĠMes": 7862,
      "Ġdesf": 7863,
      "adia": 7864,
      "ĠFon": 7865,
      "Ġrecons": 7866,
      "ĠHar": 7867,
      "Ġcartes": 7868,
      "Ġsolament": 7869,
      "Ġnacionals": 7870,
      "ĠturÃŃstica": 7871,
      "ĠVicent": 7872,
      "esperit": 7873,
      "Ġabsoluta": 7874,
      "Ġveritable": 7875,
      "Ġbloque": 7876,
      "Alacant": 7877,
      "Fins": 7878,
      "ĠPilar": 7879,
      "ĠSor": 7880,
      "euro": 7881,
      "dures": 7882,
      "Ġronda": 7883,
      "Ġformulari": 7884,
      "ĠInici": 7885,
      "Ġcomentar": 7886,
      "Ãłrrec": 7887,
      "ĠEspanyola": 7888,
      "cohol": 7889,
      "Ġcauses": 7890,
      "ĠTotes": 7891,
      "Ġmarcador": 7892,
      "Ġemocions": 7893,
      "Ġblaug": 7894,
      "Ġxocolata": 7895,
      "Ġfenomen": 7896,
      "Ġsugger": 7897,
      "ĠtransparÃ¨ncia": 7898,
      "eo": 7899,
      "ustr": 7900,
      "Ġbr": 7901,
      "ĠGen": 7902,
      "ĠFestes": 7903,
      "ĠtensiÃ³": 7904,
      "emÃłtic": 7905,
      "Ġprofessora": 7906,
      "ĠJoaquim": 7907,
      "cu": 7908,
      "onja": 7909,
      "Ġmac": 7910,
      "tivar": 7911,
      "Ġestu": 7912,
      "emat": 7913,
      "ĠrecÃ³rrer": 7914,
      "ticament": 7915,
      "prÃ¨n": 7916,
      "Ġpoli": 7917,
      "Ġcomplem": 7918,
      "Ġvirtu": 7919,
      "ĠGarri": 7920,
      "Ġperfecta": 7921,
      "ĠbalcÃ³": 7922,
      "Ġincorporar": 7923,
      "ĠsolidÃłria": 7924,
      "ĠmÃŃnima": 7925,
      "ÃŃgens": 7926,
      "lules": 7927,
      "pens": 7928,
      "Ġ?": 7929,
      "Ġvora": 7930,
      "Ġvides": 7931,
      "Ġnoi": 7932,
      "lides": 7933,
      "Ġconstru": 7934,
      "Esquerra": 7935,
      "...)": 7936,
      "titucional": 7937,
      "Ġplas": 7938,
      "Ġpassi": 7939,
      "ÃŃctor": 7940,
      "Aquests": 7941,
      "ĠÃłmbit": 7942,
      "ĠPresident": 7943,
      "ĠtransiciÃ³": 7944,
      "html": 7945,
      "89": 7946,
      "Hotel": 7947,
      "Ġfren": 7948,
      "Ġneix": 7949,
      "Ãłu": 7950,
      "Ġinqui": 7951,
      "obrir": 7952,
      "ficant": 7953,
      "Ġcanals": 7954,
      "incor": 7955,
      "Ġcomunica": 7956,
      "Ġcontinuen": 7957,
      "ĠestratÃ¨gia": 7958,
      "Ġnovetat": 7959,
      "Ġcomponents": 7960,
      "ĠcientÃŃfics": 7961,
      "ĠDaniel": 7962,
      "Ġcentenars": 7963,
      "ew": 7964,
      "land": 7965,
      "sec": 7966,
      "umb": 7967,
      "Ãĩ": 7968,
      "ĠEUA": 7969,
      "odis": 7970,
      "abast": 7971,
      "ĠVilla": 7972,
      "ĠIC": 7973,
      "ĠHis": 7974,
      "exterior": 7975,
      "Ġmeta": 7976,
      "ĠJove": 7977,
      "ĠJoventut": 7978,
      "erial": 7979,
      "ĠAbans": 7980,
      "MP": 7981,
      "cre": 7982,
      "ucions": 7983,
      "entres": 7984,
      "Ġfisc": 7985,
      "ĠCel": 7986,
      "ellÃł": 7987,
      "Ãłncies": 7988,
      "Ġtransmetre": 7989,
      "Ġdocent": 7990,
      "Ġprivades": 7991,
      "ĠSanitat": 7992,
      "ĠChar": 7993,
      "ĠMolt": 7994,
      "Ġproporciona": 7995,
      "Ġparticulars": 7996,
      "Ġapunta": 7997,
      "Ġfelicitat": 7998,
      "Ġomplir": 7999,
      "Ġfidel": 8000,
      "ean": 8001,
      "Ġvendes": 8002,
      "inguda": 8003,
      "Ġnad": 8004,
      "ĠdestÃŃ": 8005,
      "ĠanÃłlisi": 8006,
      "ace": 8007,
      "Ġimpacte": 8008,
      "Ġajus": 8009,
      "igues": 8010,
      "Ġincloure": 8011,
      "ĠperiÃ²": 8012,
      "ĠbritÃł": 8013,
      "ĠRubÃŃ": 8014,
      "ĠJornada": 8015,
      "dÃł": 8016,
      "gas": 8017,
      "quir": 8018,
      "Ġhui": 8019,
      "ĠPan": 8020,
      "Ġprovis": 8021,
      "ĠFe": 8022,
      "empor": 8023,
      "Ġext": 8024,
      "Ġexistents": 8025,
      "ordar": 8026,
      "Ġofertes": 8027,
      "ĠrepressiÃ³": 8028,
      "Aquestes": 8029,
      "ĠclÃŃn": 8030,
      "Ġcompartit": 8031,
      "Ġllegit": 8032,
      "emÃłtics": 8033,
      "aparcament": 8034,
      "ĠMostra": 8035,
      "ĠinscripciÃ³": 8036,
      "Ġrenova": 8037,
      "ĠprÃ¨viament": 8038,
      "independentisme": 8039,
      "fl": 8040,
      "Ġnena": 8041,
      "ĠreacciÃ³": 8042,
      "Ġretalla": 8043,
      "ĠreforÃ§": 8044,
      "ĠEdu": 8045,
      "vitat": 8046,
      "duÃ¯t": 8047,
      "Ġcossos": 8048,
      "reres": 8049,
      "Ġabra": 8050,
      "meten": 8051,
      "Ġveient": 8052,
      "ĠcooperaciÃ³": 8053,
      "ĠArts": 8054,
      "Ġdocents": 8055,
      "afeg": 8056,
      "Ġmanifes": 8057,
      "Ġvoluntari": 8058,
      "Ġconsolida": 8059,
      "ĠcrÃŃtic": 8060,
      "ĠFacultat": 8061,
      "ĠcontaminaciÃ³": 8062,
      "aconseguir": 8063,
      "esdeveniment": 8064,
      "ĠJavier": 8065,
      "ĠRipoll": 8066,
      "anista": 8067,
      "atoris": 8068,
      "Ġnet": 8069,
      "ĠCO": 8070,
      "otor": 8071,
      "ĠAna": 8072,
      "Ġparlen": 8073,
      "ĠRamb": 8074,
      "itzacions": 8075,
      "Ġrere": 8076,
      "enciat": 8077,
      "remi": 8078,
      "Ġdeixen": 8079,
      "ĠCasal": 8080,
      "Ġproposar": 8081,
      "Ġmantenen": 8082,
      "Ġinteressants": 8083,
      "Ġcircular": 8084,
      "Ġesperem": 8085,
      "Ġacompanyar": 8086,
      "ĠRegid": 8087,
      "Ġsaps": 8088,
      "triu": 8089,
      "ĠlegislaciÃ³": 8090,
      "ĠcomposiciÃ³": 8091,
      "AF": 8092,
      "afec": 8093,
      "mm": 8094,
      "tÃ©": 8095,
      "antatge": 8096,
      "onen": 8097,
      "Ġtorre": 8098,
      "Ġfanta": 8099,
      "ĠPoble": 8100,
      "ĠMass": 8101,
      "ĠBos": 8102,
      "ils": 8103,
      "Ġpreven": 8104,
      "mez": 8105,
      "ĠQuim": 8106,
      "ĠÃłrea": 8107,
      "Ġcompanyies": 8108,
      "tional": 8109,
      "ĠestratÃ¨gies": 8110,
      "Joan": 8111,
      "ĠfreqÃ¼Ã¨ncia": 8112,
      "Ġdormir": 8113,
      "Ġinstruments": 8114,
      "Ġsaludable": 8115,
      "Ġsuperiors": 8116,
      "Ġsimilars": 8117,
      "100": 8118,
      "><": 8119,
      "AquÃŃ": 8120,
      "drom": 8121,
      "aterra": 8122,
      "oment": 8123,
      "oler": 8124,
      "Ġinversions": 8125,
      "Ġdesigual": 8126,
      "ĠDesc": 8127,
      "idat": 8128,
      "Ġtaules": 8129,
      "endemÃł": 8130,
      "orden": 8131,
      "ĠestÃłn": 8132,
      "Ġsecret": 8133,
      "Ġbarra": 8134,
      "Ġequipaments": 8135,
      "Ġespectadors": 8136,
      "ĠfÃłb": 8137,
      "oft": 8138,
      "ĠnÃºmeros": 8139,
      "Ġfigures": 8140,
      "Ġclubs": 8141,
      "Ġassenyala": 8142,
      "ĠOliver": 8143,
      "ussel": 8144,
      "Ġmecanismes": 8145,
      "dits": 8146,
      "atures": 8147,
      "Ġtomb": 8148,
      "Ġpertin": 8149,
      "Ġparlem": 8150,
      "Ġaclar": 8151,
      "ĠVella": 8152,
      "Ġmaquin": 8153,
      "Ġtemperat": 8154,
      "Ġpobresa": 8155,
      "Ġgradu": 8156,
      "Ġfrances": 8157,
      "Ġtelevis": 8158,
      "Ġcorresponents": 8159,
      "Ġexpliquen": 8160,
      "Ġcaminar": 8161,
      "Ġrepetir": 8162,
      "Ġfinestra": 8163,
      "ĠRafael": 8164,
      "VA": 8165,
      "onent": 8166,
      "atÃŃ": 8167,
      "Ġgam": 8168,
      "ĠAlex": 8169,
      "Ġanal": 8170,
      "ubi": 8171,
      "Ġrepeti": 8172,
      "ĠViquipÃ¨dia": 8173,
      "Ġcontund": 8174,
      "Ġespanyoles": 8175,
      "ĠTerres": 8176,
      "Ġanimal": 8177,
      "ĠLlibre": 8178,
      "Ġsurten": 8179,
      "ĠbalanÃ§": 8180,
      "Ġblau": 8181,
      "Ġpublicacions": 8182,
      "uditori": 8183,
      "ĠEsteve": 8184,
      "Vi": 8185,
      "Ġign": 8186,
      "Ġfur": 8187,
      "Ġpersegu": 8188,
      "ĠLas": 8189,
      "ĠBala": 8190,
      "Ġacud": 8191,
      "Ġcompe": 8192,
      "Ġcomptat": 8193,
      "ido": 8194,
      "ĠJap": 8195,
      "ĠEll": 8196,
      "Ġmagatzem": 8197,
      "ĠOp": 8198,
      "ESS": 8199,
      "Ġliber": 8200,
      "mental": 8201,
      "Ġmeves": 8202,
      "ĠbÃ©ns": 8203,
      "utilitzar": 8204,
      "ascens": 8205,
      "IST": 8206,
      "aprovaciÃ³": 8207,
      "Ġsentiments": 8208,
      "dir": 8209,
      "iri": 8210,
      "ratge": 8211,
      "inÃłria": 8212,
      "inaris": 8213,
      "olf": 8214,
      "Ġengan": 8215,
      "ĠSempre": 8216,
      "terra": 8217,
      "Ġantics": 8218,
      "Ġseri": 8219,
      "ĠagrÃŃc": 8220,
      "Ġrespectivament": 8221,
      "Ġdemanen": 8222,
      "Ġpesca": 8223,
      "agradaria": 8224,
      "Ġexpressar": 8225,
      "Ġsobiran": 8226,
      "ĠmÃ²bils": 8227,
      "Ġderrota": 8228,
      "Ġpercentatge": 8229,
      "Ġmatinada": 8230,
      "70": 8231,
      "SE": 8232,
      "Uni": 8233,
      "quing": 8234,
      "istia": 8235,
      "Ġunitats": 8236,
      "ĠMAR": 8237,
      "ĠhavÃŃem": 8238,
      "Ġcau": 8239,
      "ĠTorn": 8240,
      "ĠRiu": 8241,
      "ĠFu": 8242,
      "Ġarque": 8243,
      "ĠcapÃŃtol": 8244,
      "illuns": 8245,
      "iliar": 8246,
      "Ġemple": 8247,
      "ĠConsul": 8248,
      "coi": 8249,
      "Ġpropietari": 8250,
      "elecciÃ³": 8251,
      "regada": 8252,
      "ambient": 8253,
      "Ġenfront": 8254,
      "Ġsuposar": 8255,
      "Ġexercir": 8256,
      "Ġindividuals": 8257,
      "Ġquadre": 8258,
      "Ġalternatives": 8259,
      "Ġeuropees": 8260,
      "Ġerrors": 8261,
      "ĠSebasti": 8262,
      "uela": 8263,
      "Ġpistes": 8264,
      "omena": 8265,
      "ĠCP": 8266,
      "irar": 8267,
      "Ġcaixa": 8268,
      "tensiÃ³": 8269,
      "âĢĵ,": 8270,
      "Ġexcur": 8271,
      "ĠdistribuÃ¯": 8272,
      "Ġparets": 8273,
      "Ġexcepte": 8274,
      "Ġbotigues": 8275,
      "YA": 8276,
      "ous": 8277,
      "alÃ§ada": 8278,
      "Ã²lic": 8279,
      "Ġrus": 8280,
      "Ġpatit": 8281,
      "Ġcreuen": 8282,
      "Ġforen": 8283,
      "ĠUnides": 8284,
      "ollers": 8285,
      "Ġrepresenten": 8286,
      "Ġrebaix": 8287,
      "impuls": 8288,
      "Ġcobrir": 8289,
      "Ġmedie": 8290,
      "Organitz": 8291,
      "Ġsemblar": 8292,
      "Ġdestacats": 8293,
      "Ġregula": 8294,
      "hesiÃ³": 8295,
      "Ġbandera": 8296,
      "ivis": 8297,
      "yn": 8298,
      "Ġata": 8299,
      "teor": 8300,
      "ĠparÃł": 8301,
      "Ġacoll": 8302,
      "aces": 8303,
      "Ġvita": 8304,
      "ĠUR": 8305,
      "arcat": 8306,
      "Ġpartid": 8307,
      "essor": 8308,
      "Ġseguim": 8309,
      "Ġmoder": 8310,
      "Ġcerves": 8311,
      "Ġaconsegueix": 8312,
      "ĠdestinaciÃ³": 8313,
      "Ġconsultes": 8314,
      "auto": 8315,
      "Ġenfron": 8316,
      "ĠartÃŃstic": 8317,
      "ĠCristina": 8318,
      "llet": 8319,
      "modifica": 8320,
      "zena": 8321,
      "Ġâ": 8322,
      "Ġdota": 8323,
      "Ġpm": 8324,
      "ĠmÃłrqueting": 8325,
      "liques": 8326,
      "Ġdieta": 8327,
      "Ġ(@": 8328,
      "ĠNosaltres": 8329,
      "Esper": 8330,
      "Ġescena": 8331,
      "Ġbasada": 8332,
      "Ġmoderna": 8333,
      "ĠArt": 8334,
      "sessiÃ³": 8335,
      "Anna": 8336,
      "ĠCorts": 8337,
      "ĠcomenÃ§ament": 8338,
      "ĠLlavors": 8339,
      "ĠcrÃŃtiques": 8340,
      "ĠRiera": 8341,
      "Josep": 8342,
      "vÃŃ": 8343,
      "indo": 8344,
      "ote": 8345,
      "Ġconv": 8346,
      "ulm": 8347,
      "ĠBÃłs": 8348,
      "ĠtraducciÃ³": 8349,
      "Ġcantar": 8350,
      "Ġassocia": 8351,
      "Ġavall": 8352,
      "Ġcervell": 8353,
      "ĠlÃŃders": 8354,
      "ĠColom": 8355,
      "INA": 8356,
      "Ġlector": 8357,
      "tÃłnia": 8358,
      "ĠelectrÃ²nica": 8359,
      "Ġmascar": 8360,
      "ĠBages": 8361,
      "ĠimplicaciÃ³": 8362,
      "Ġessencial": 8363,
      "Ġconcretament": 8364,
      "Ġbarreja": 8365,
      "Ġexactament": 8366,
      "ĠFigueres": 8367,
      "Ġvessant": 8368,
      "ĠSantiago": 8369,
      "Ġrecinte": 8370,
      "atac": 8371,
      "ahir": 8372,
      "ju": 8373,
      "rint": 8374,
      "tol": 8375,
      "Ġdetingut": 8376,
      "tagram": 8377,
      "ĠCorn": 8378,
      "usias": 8379,
      "Ġparada": 8380,
      "ĠRivera": 8381,
      "Ġobtingut": 8382,
      "legis": 8383,
      "ibil": 8384,
      "idad": 8385,
      "Ġsemblava": 8386,
      "Ġposicions": 8387,
      "Ġcompromet": 8388,
      "ĠpodrÃłs": 8389,
      "Ġinfantils": 8390,
      "Ġsexuals": 8391,
      "hid": 8392,
      "ĠÃ©": 8393,
      "Ġdip": 8394,
      "dies": 8395,
      "Ġcompens": 8396,
      "Ġartista": 8397,
      "iliari": 8398,
      "tituds": 8399,
      "ĠpassiÃ³": 8400,
      "Ġrealitzen": 8401,
      "Ġsuau": 8402,
      "Ġblocs": 8403,
      "Ġdecideix": 8404,
      "ÃĢrea": 8405,
      "ĠpreparaciÃ³": 8406,
      "Ġurbana": 8407,
      "IDA": 8408,
      "Ġorden": 8409,
      "Ġvidre": 8410,
      "Jordi": 8411,
      "NomÃ©s": 8412,
      "cas": 8413,
      "histÃ²ria": 8414,
      "mel": 8415,
      "aleg": 8416,
      "Ġtro": 8417,
      "Ġnau": 8418,
      "ÃŃmp": 8419,
      "Ġgest": 8420,
      "leu": 8421,
      "ĠMentre": 8422,
      "ĠTim": 8423,
      "viure": 8424,
      "idÃ¨ncia": 8425,
      "Ġpotenci": 8426,
      "ĠÃĴ": 8427,
      "Ġhabitatge": 8428,
      "iento": 8429,
      "ĠManel": 8430,
      "amba": 8431,
      "Ġlegals": 8432,
      "ĠturÃŃstic": 8433,
      "Ġlectors": 8434,
      "Ġafirmar": 8435,
      "Ġconvida": 8436,
      "ĠsecundÃłria": 8437,
      "Pla": 8438,
      "lÃ¨ncia": 8439,
      "ĠPin": 8440,
      "ĠSte": 8441,
      "ĠDret": 8442,
      "ĠanirÃł": 8443,
      "Ġesport": 8444,
      "Ġembl": 8445,
      "eguts": 8446,
      "Ġsortides": 8447,
      "Ġformacions": 8448,
      "Ġtreballadores": 8449,
      "Ġsento": 8450,
      "queras": 8451,
      "Ġgeneracions": 8452,
      "Ġresidents": 8453,
      "Ġcreativitat": 8454,
      "Ġrutes": 8455,
      "Ġmanifestacions": 8456,
      "Ġcicl": 8457,
      "Ġtemperatures": 8458,
      "Pol": 8459,
      "lin": 8460,
      "ĠlÃº": 8461,
      "andes": 8462,
      "entendre": 8463,
      "racions": 8464,
      "ĠrevisiÃ³": 8465,
      "Ġgrec": 8466,
      "ĠApart": 8467,
      "ĠGre": 8468,
      "ĠGand": 8469,
      "posar": 8470,
      "Ġcanta": 8471,
      "amen": 8472,
      "Ġbasa": 8473,
      "Ġnegres": 8474,
      "ALS": 8475,
      "ĠColoma": 8476,
      "Ġvingut": 8477,
      "Ġreceptes": 8478,
      "Ġfonamentals": 8479,
      "ĠlingÃ¼ÃŃstica": 8480,
      "Ġcambra": 8481,
      "ĠProfession": 8482,
      "ĠsÃŃmptomes": 8483,
      "BA": 8484,
      "Sab": 8485,
      "ĠSin": 8486,
      "ĠSam": 8487,
      "Ġdiaris": 8488,
      "ĠBre": 8489,
      "Ġacomia": 8490,
      "ĠJuny": 8491,
      "Ġadonar": 8492,
      "Ġsoroll": 8493,
      "Ġcovid": 8494,
      "drets": 8495,
      "ĠCampus": 8496,
      "ĠbÃłsquet": 8497,
      "ĠEmpres": 8498,
      "ĠXXI": 8499,
      "ĠrenovaciÃ³": 8500,
      "Ġconflictes": 8501,
      "Ġimmediatament": 8502,
      "ĠAutÃ²n": 8503,
      "set": 8504,
      "ardi": 8505,
      "Ġfaria": 8506,
      "ulla": 8507,
      "ĠDos": 8508,
      "versiÃ³": 8509,
      "endo": 8510,
      "Encara": 8511,
      "Ġtracte": 8512,
      "Ġpesse": 8513,
      "Ġesperant": 8514,
      "estranger": 8515,
      "Can": 8516,
      "ker": 8517,
      "reci": 8518,
      "olles": 8519,
      "ecs": 8520,
      "asta": 8521,
      "ĠPh": 8522,
      "ĠSER": 8523,
      "ĠBes": 8524,
      "ĠJer": 8525,
      "ĠNacions": 8526,
      "orten": 8527,
      "illes": 8528,
      "Ġsegura": 8529,
      "Ġrodes": 8530,
      "ĠciutadÃł": 8531,
      "Ġfactor": 8532,
      "Ġsucc": 8533,
      "udiÃ¨ncia": 8534,
      "Ġelectorals": 8535,
      "ĠFamÃŃlies": 8536,
      "Ġic": 8537,
      "Ġenreg": 8538,
      "ĠCOM": 8539,
      "gueren": 8540,
      "ĠPlat": 8541,
      "identi": 8542,
      "Ġcancel": 8543,
      "Ġsocietats": 8544,
      "Ġ55": 8545,
      "Ġsalari": 8546,
      "Ġ2001": 8547,
      "Ġzero": 8548,
      "Ġpantal": 8549,
      "triques": 8550,
      "Ġpilot": 8551,
      "Ġhorari": 8552,
      "ĠpermÃŃs": 8553,
      "ĠespÃ¨cie": 8554,
      "ĠdepÃ¨n": 8555,
      "ĠgastronÃ²m": 8556,
      "Ġnascut": 8557,
      "ieu": 8558,
      "arxiu": 8559,
      "dam": 8560,
      "Ġbro": 8561,
      "ĠEt": 8562,
      "ĠconferÃ¨ncies": 8563,
      "vacions": 8564,
      "upera": 8565,
      "identa": 8566,
      "Ġ38": 8567,
      "Ġcreen": 8568,
      "Ġsubsc": 8569,
      "Ġagres": 8570,
      "ĠdinÃłm": 8571,
      "Ġcombatre": 8572,
      "Ġdeterminar": 8573,
      "Ġconfirmar": 8574,
      "IVA": 8575,
      "estrena": 8576,
      "ÃĪN": 8577,
      "Consulta": 8578,
      "ĠÃģlvar": 8579,
      "ĠlÃ²gica": 8580,
      "lÃłn": 8581,
      "Ġdetin": 8582,
      "itori": 8583,
      "ĠseqÃ¼": 8584,
      "urt": 8585,
      "eto": 8586,
      "trada": 8587,
      "tino": 8588,
      "ĠEst": 8589,
      "Ġcanvia": 8590,
      "ĠOber": 8591,
      "Arrib": 8592,
      "Ġvenen": 8593,
      "Ġcated": 8594,
      "Ġnormalment": 8595,
      "Ġviatjar": 8596,
      "Ġjutjat": 8597,
      "Ġexposicions": 8598,
      "bara": 8599,
      "ndia": 8600,
      "unts": 8601,
      "ĠBany": 8602,
      "Ġparelles": 8603,
      "Ġangles": 8604,
      "ĠFiscal": 8605,
      "Ġconstruc": 8606,
      "Ġplana": 8607,
      "Ġpersonalitat": 8608,
      "Ġportada": 8609,
      "Ġpropietats": 8610,
      "AMENT": 8611,
      "Ġremun": 8612,
      "Ġhaurem": 8613,
      "Ġgruix": 8614,
      "sal": 8615,
      "Ġpir": 8616,
      "aliments": 8617,
      "Ġtribunal": 8618,
      "inform": 8619,
      "Ġcomer": 8620,
      "Ġdesit": 8621,
      "Ġparet": 8622,
      "ĠVend": 8623,
      "ĠHern": 8624,
      "Ġjogu": 8625,
      "Ġasse": 8626,
      "ĠnÃºvol": 8627,
      "ĠpresentarÃł": 8628,
      "Totes": 8629,
      "ĠmÃ²d": 8630,
      "Ġescenaris": 8631,
      "68": 8632,
      "we": 8633,
      "ĠSols": 8634,
      "Ġvian": 8635,
      "Ġemmagatzem": 8636,
      "ficients": 8637,
      "ĠWill": 8638,
      "Ġsanitaris": 8639,
      "Ġcinemat": 8640,
      "ĠelÃ¨ctrica": 8641,
      "Ġfabric": 8642,
      "Ġarquitect": 8643,
      "Ġrestriccions": 8644,
      "meria": 8645,
      "Ġmural": 8646,
      "rirÃł": 8647,
      "Ġaltes": 8648,
      "ĠAR": 8649,
      "Ġobre": 8650,
      "Ġrealitzades": 8651,
      "ARI": 8652,
      "Ġagrup": 8653,
      "Ġbaixos": 8654,
      "Ġprepara": 8655,
      "Ġantigues": 8656,
      "Ġoriginals": 8657,
      "Ġmultitud": 8658,
      "Ġsuposat": 8659,
      "Ġproporcionar": 8660,
      "ĠInstitut": 8661,
      "ĠsÃ²l": 8662,
      "Som": 8663,
      "hel": 8664,
      "ÂŃ": 8665,
      "quÃ©": 8666,
      "Ġlamenta": 8667,
      "Ã³mez": 8668,
      "Ġhonor": 8669,
      "ÃŃb": 8670,
      "ĠCF": 8671,
      "ĠFo": 8672,
      "Ġcompres": 8673,
      "Ġtrobades": 8674,
      "legar": 8675,
      "ĠveÃŃ": 8676,
      "Ġ600": 8677,
      "Ġradi": 8678,
      "entiment": 8679,
      "Ġ189": 8680,
      "Ġrigor": 8681,
      "cisme": 8682,
      "ĠEscol": 8683,
      "ĠFelip": 8684,
      "ĠdiagnÃ²stic": 8685,
      "Olot": 8686,
      "Oficina": 8687,
      "pit": 8688,
      "Ġfall": 8689,
      "Ġesteu": 8690,
      "Ã²l": 8691,
      "ilat": 8692,
      "Ġprevista": 8693,
      "Ġtrama": 8694,
      "orama": 8695,
      "ĠON": 8696,
      "minis": 8697,
      "Ġpuja": 8698,
      "ĠVives": 8699,
      "Ġcapacitats": 8700,
      "Ġmodificar": 8701,
      "ĠincorporaciÃ³": 8702,
      "Ġdibuixos": 8703,
      "Ġtransformar": 8704,
      "ĠvÃłrem": 8705,
      "Ġnervi": 8706,
      "Ġabsolutament": 8707,
      "oficina": 8708,
      "Ġom": 8709,
      "Ġfull": 8710,
      "inten": 8711,
      "Ġenmig": 8712,
      "ligent": 8713,
      "Ġparcial": 8714,
      "excel": 8715,
      "aval": 8716,
      "ĠMartorell": 8717,
      "Ġtrobava": 8718,
      "...]": 8719,
      "Ãłstics": 8720,
      "Ġtorneig": 8721,
      "Ġcampionat": 8722,
      "ĠRedacciÃ³": 8723,
      "Ġcertes": 8724,
      "ĠcontÃŃn": 8725,
      "ĠliterÃłria": 8726,
      "ĠDiada": 8727,
      "ĠdifÃŃcils": 8728,
      "Ġestablert": 8729,
      "Ġgermana": 8730,
      "UNT": 8731,
      "Ġexercicis": 8732,
      "quisiciÃ³": 8733,
      "ĠPasqu": 8734,
      "Ġfaltar": 8735,
      "ĠintegraciÃ³": 8736,
      "Ġinclosos": 8737,
      "SÃ³n": 8738,
      "vÃł": 8739,
      "Ġtrets": 8740,
      "ĠtemÃłtica": 8741,
      "ĠLlar": 8742,
      "ĠRoger": 8743,
      "acus": 8744,
      "ĠNet": 8745,
      "institut": 8746,
      "ĠprÃ©s": 8747,
      "Ġmantingut": 8748,
      "load": 8749,
      "Ġprofund": 8750,
      "Ġcriteri": 8751,
      "Ġanomenada": 8752,
      "Ġperiodistes": 8753,
      "ĠclÃłssica": 8754,
      "ĠinfluÃ¨ncia": 8755,
      "Internet": 8756,
      "ĠplanificaciÃ³": 8757,
      "ĠcrÃ¨dit": 8758,
      "CD": 8759,
      "Ho": 8760,
      "LES": 8761,
      "Pot": 8762,
      "bon": 8763,
      "bis": 8764,
      "romp": 8765,
      "eni": 8766,
      "Ġcoc": 8767,
      "omun": 8768,
      "ÃŃas": 8769,
      "ĠrehabilitaciÃ³": 8770,
      "ĠAu": 8771,
      "lids": 8772,
      "eixement": 8773,
      "Ġanuncia": 8774,
      "ĠRÃºssia": 8775,
      "ĠJan": 8776,
      "ĠllanÃ§ar": 8777,
      "allÃł": 8778,
      "Ġ39": 8779,
      "tilla": 8780,
      "ĠprofessiÃ³": 8781,
      "Ġsupervi": 8782,
      "Ġdeclarat": 8783,
      "Ġfrag": 8784,
      "Ġestructures": 8785,
      "horari": 8786,
      "ĠacadÃ¨mic": 8787,
      "ĠEspaÃ±a": 8788,
      "Ġcogn": 8789,
      "AtenciÃ³": 8790,
      "burg": 8791,
      "lvia": 8792,
      "oren": 8793,
      "ĠEdit": 8794,
      "Ġdid": 8795,
      "ĠBur": 8796,
      "ĠTIC": 8797,
      "itzen": 8798,
      "Ġemerg": 8799,
      "Ġvalora": 8800,
      "Ġpromou": 8801,
      "ĠRoja": 8802,
      "bliment": 8803,
      "Ġdeterminats": 8804,
      "Ġsentiment": 8805,
      "Ġagradable": 8806,
      "explica": 8807,
      "Ġvestit": 8808,
      "--------": 8809,
      "ĠTortosa": 8810,
      "Foto": 8811,
      "Ġclo": 8812,
      "tiss": 8813,
      "inions": 8814,
      "ciÃ³n": 8815,
      "Ġallar": 8816,
      "ĠredacciÃ³": 8817,
      "ectes": 8818,
      "adequ": 8819,
      "ĠVÃŃctor": 8820,
      "ĠNaciÃ³": 8821,
      "assol": 8822,
      "Ġjap": 8823,
      "Ġinspir": 8824,
      "Ġtrobo": 8825,
      "Ġprofundi": 8826,
      "Ġ65": 8827,
      "Ġsabeu": 8828,
      "Ġpoema": 8829,
      "Ġbarb": 8830,
      "Ġnegra": 8831,
      "Ġblanca": 8832,
      "Ġcircuit": 8833,
      "Ġmedicina": 8834,
      "Ġcorrectament": 8835,
      "Ġcertificat": 8836,
      "ĠeficaÃ§": 8837,
      "Ġu": 8838,
      "arreu": 8839,
      "Ã²nies": 8840,
      "Ġbit": 8841,
      "catal": 8842,
      "Ġdial": 8843,
      "maz": 8844,
      "Ġcompati": 8845,
      "edents": 8846,
      "Ġplens": 8847,
      "Ġinstruccions": 8848,
      "entitats": 8849,
      "ĠpresidÃ¨ncia": 8850,
      "ĠProjecte": 8851,
      "Ġafectades": 8852,
      "ĠCoordin": 8853,
      "Ġcombina": 8854,
      "Ġliterari": 8855,
      "Ġinnovador": 8856,
      "erÃłpia": 8857,
      "ĠCATAL": 8858,
      "ĠBalaguer": 8859,
      "IÃĵ": 8860,
      "sers": 8861,
      "onades": 8862,
      "rep": 8863,
      "ĠCR": 8864,
      "ĠCÃŃ": 8865,
      "Ġdescarregar": 8866,
      "Ã§ades": 8867,
      "Ġarti": 8868,
      "Ġcreiem": 8869,
      "ĠÃļ": 8870,
      "andro": 8871,
      "Ġcentenar": 8872,
      "teriorment": 8873,
      "ĠatÃ¨s": 8874,
      "aletes": 8875,
      "Ġcobertura": 8876,
      "Ġreclamar": 8877,
      "Ġtindrem": 8878,
      "Ġfrontera": 8879,
      "ĠBrussel": 8880,
      "Ġterrenys": 8881,
      "Ġfitxer": 8882,
      "guardia": 8883,
      "CA": 8884,
      "br": 8885,
      "ii": 8886,
      "ensi": 8887,
      "Ġescap": 8888,
      "ĠCorre": 8889,
      "ados": 8890,
      "Ġexter": 8891,
      "ĠVeg": 8892,
      "Ġsegell": 8893,
      "Ġcorpora": 8894,
      "escena": 8895,
      "Ġafrontar": 8896,
      "Ġtancats": 8897,
      "Ġjoventut": 8898,
      "Ġ2002": 8899,
      "Ġrealitzada": 8900,
      "Ġdesenvolupa": 8901,
      "ĠcomparaciÃ³": 8902,
      "Ġfilosofia": 8903,
      "Ġefectiva": 8904,
      "Ġoficines": 8905,
      "Ġsenyal": 8906,
      "Ġusuari": 8907,
      "ampliaciÃ³": 8908,
      "cadÃ¨mia": 8909,
      "alumne": 8910,
      "Ġconeguts": 8911,
      "Ġquantes": 8912,
      "ĠUrbana": 8913,
      "ĠGabriel": 8914,
      "Lleg": 8915,
      "cias": 8916,
      "oso": 8917,
      "resc": 8918,
      "Ġges": 8919,
      "ĠcafÃ¨": 8920,
      "adr": 8921,
      "Ġprevi": 8922,
      "Ã¯m": 8923,
      "ĠAltres": 8924,
      "ĠIndepend": 8925,
      "Ġ03": 8926,
      "ANA": 8927,
      "Ã±ol": 8928,
      "Ġgraus": 8929,
      "Ġpatri": 8930,
      "Ġrecords": 8931,
      "Ġasseguren": 8932,
      "Ġurg": 8933,
      "esperanÃ§a": 8934,
      "Ġcorrecte": 8935,
      "ĠclÃłssics": 8936,
      "Ġimmediata": 8937,
      "Ġdisminu": 8938,
      "Modifica": 8939,
      "Oli": 8940,
      "neu": 8941,
      "villa": 8942,
      "Ġmons": 8943,
      "inicia": 8944,
      "assign": 8945,
      "ĠAy": 8946,
      "Ġhivern": 8947,
      "Ġoberts": 8948,
      "Ġescollit": 8949,
      "Ġvergon": 8950,
      "ller": 8951,
      "Ġcru": 8952,
      "ĠWh": 8953,
      "mesa": 8954,
      "nez": 8955,
      "Ã±ez": 8956,
      "Ġcompletar": 8957,
      "Ġconjunta": 8958,
      "ĠTorrent": 8959,
      "Ġanteriorment": 8960,
      "Ġcandidats": 8961,
      "Ġimpression": 8962,
      "Ġhotels": 8963,
      "Ġindicat": 8964,
      "Ġpendents": 8965,
      "Ġevolu": 8966,
      "ĠJornades": 8967,
      "Ġprotesta": 8968,
      "ĠFamÃŃlia": 8969,
      "Ġhumanitat": 8970,
      "72": 8971,
      "Mat": 8972,
      "Vis": 8973,
      "rents": 8974,
      "ĠðŁ": 8975,
      "entals": 8976,
      "ĠCli": 8977,
      "ulsa": 8978,
      "cionant": 8979,
      "Ã²mica": 8980,
      "ĠtornarÃł": 8981,
      "Ġministeri": 8982,
      "Interior": 8983,
      "gnasi": 8984,
      "Ġagrair": 8985,
      "gentina": 8986,
      "Ġdeterminat": 8987,
      "Ġrecolz": 8988,
      "Ġcontagi": 8989,
      "escriptura": 8990,
      "ĠsatisfacciÃ³": 8991,
      "Ġmediamb": 8992,
      "Ġinfraestructures": 8993,
      "ĠRambla": 8994,
      "AudiÃ¨ncia": 8995,
      "Tant": 8996,
      "cur": 8997,
      "quista": 8998,
      "ĠmissiÃ³": 8999,
      "Ġtrop": 9000,
      "Ġalliber": 9001,
      "ĠMem": 9002,
      "ĠBlog": 9003,
      "ĠparrÃ²quia": 9004,
      "odel": 9005,
      "Ġprevenir": 9006,
      "Ã¯nes": 9007,
      "Ġpotent": 9008,
      "ficiÃ¨ncia": 9009,
      "Ġrepor": 9010,
      "ÃŃncep": 9011,
      "especi": 9012,
      "Ġlletra": 9013,
      "ĠelecciÃ³": 9014,
      "Ġrebuig": 9015,
      "Ġbaixada": 9016,
      "Ġprodueixen": 9017,
      "Ġcontactes": 9018,
      "ĠcombinaciÃ³": 9019,
      "Ġvigor": 9020,
      "RedacciÃ³": 9021,
      "ĠreduÃ¯t": 9022,
      "ĠfundaciÃ³": 9023,
      "ĠmÃ¨todes": 9024,
      "ĠdimensiÃ³": 9025,
      "ĠconstruÃ¯t": 9026,
      "Ġexclusivament": 9027,
      "Ġingredients": 9028,
      "ĠestÃłndard": 9029,
      "ĠJapÃ³": 9030,
      "75": 9031,
      "Ġrib": 9032,
      "Ġpur": 9033,
      "ato": 9034,
      "Ġcomenta": 9035,
      "Ġprotec": 9036,
      "dida": 9037,
      "ĠÃ©sser": 9038,
      "Ãºp": 9039,
      "ĠGaud": 9040,
      "ĠGÃ³mez": 9041,
      "verna": 9042,
      "ĠpavellÃ³": 9043,
      "ĠpassarÃł": 9044,
      "plica": 9045,
      "Ġmunt": 9046,
      "ĠtransmissiÃ³": 9047,
      "Ġpoemes": 9048,
      "Ġ05": 9049,
      "ĠParticip": 9050,
      "Ġmodalitat": 9051,
      "Ġautob": 9052,
      "Ġmetges": 9053,
      "Ġblan": 9054,
      "isteixen": 9055,
      "Ġfossin": 9056,
      "Ġmalalts": 9057,
      "Ġfacilita": 9058,
      "ĠGranollers": 9059,
      "Ġbuf": 9060,
      "ĠDal": 9061,
      "Ġexpe": 9062,
      "ĠVam": 9063,
      "Ġllistes": 9064,
      "haurÃł": 9065,
      "Ġescla": 9066,
      "ĠAlg": 9067,
      "Ġmuntanyes": 9068,
      "andre": 9069,
      "Ġaparcament": 9070,
      "Ġservit": 9071,
      "Ġcorrecta": 9072,
      "Ġexisteixen": 9073,
      "Ġprocedents": 9074,
      "ĠcÃłmeres": 9075,
      "ĠVendrell": 9076,
      "fra": 9077,
      "quera": 9078,
      "onals": 9079,
      "Ġmonar": 9080,
      "ĠenllaÃ§os": 9081,
      "ĠSp": 9082,
      "ĠSindic": 9083,
      "ĠLeg": 9084,
      "onaments": 9085,
      "ĠGav": 9086,
      "Ġtamb": 9087,
      "ĠHil": 9088,
      "ĠmenÃº": 9089,
      "ĠÃī": 9090,
      "andra": 9091,
      "ĠmÃłgia": 9092,
      "Ġajuts": 9093,
      "Ġtotalitat": 9094,
      "Ġestudiant": 9095,
      "Ġgarantia": 9096,
      "ĠRepublic": 9097,
      "ĠPrimÃłria": 9098,
      "Ġlegisla": 9099,
      "ĠCambrils": 9100,
      "ĠincidÃ¨ncia": 9101,
      "Ġrecomanacions": 9102,
      "arquitectura": 9103,
      "ĠsuspensiÃ³": 9104,
      "ĠcomerÃ§os": 9105,
      "\")": 9106,
      "Ciu": 9107,
      "hos": 9108,
      "iod": 9109,
      "ĠCad": 9110,
      "ĠCont": 9111,
      "ĠEduca": 9112,
      "ĠLiter": 9113,
      "ight": 9114,
      "utbol": 9115,
      "Ġmuntatge": 9116,
      "ĠWik": 9117,
      "Ġproductors": 9118,
      "ĠallÃŃ": 9119,
      "Ġpateixen": 9120,
      "Ġbonic": 9121,
      "Ġmanifestar": 9122,
      "Ġpositius": 9123,
      "AST": 9124,
      "Ġsignificat": 9125,
      "Ġexplo": 9126,
      "Ġmirant": 9127,
      "Ġsolucionar": 9128,
      "ĠinauguraciÃ³": 9129,
      "ĠGerard": 9130,
      "Ġensenyar": 9131,
      "Ġgaranteix": 9132,
      "ĠreforÃ§ar": 9133,
      "Dissabte": 9134,
      "emma": 9135,
      "Ġbos": 9136,
      "Ġeficient": 9137,
      "adÃł": 9138,
      "ĠBomb": 9139,
      "ĠDades": 9140,
      "ĠFot": 9141,
      "ĠJim": 9142,
      "ĠllanÃ§ament": 9143,
      "Ġrol": 9144,
      "Ġincom": 9145,
      "tado": 9146,
      "Ġoptar": 9147,
      "ĠLlengua": 9148,
      "ĠmajoritÃłria": 9149,
      "Ġaudiovisual": 9150,
      "Ġinicialment": 9151,
      "Ġafecten": 9152,
      "ĠELS": 9153,
      "Ġaprofund": 9154,
      "Ġdescomptat": 9155,
      "ĠFabra": 9156,
      "ĠmÃłster": 9157,
      "Ã²f": 9158,
      "Ġdign": 9159,
      "tines": 9160,
      "Ġpoders": 9161,
      "ĠAlb": 9162,
      "Ġestacions": 9163,
      "Ġsorra": 9164,
      "Ġcampanyes": 9165,
      "InformaciÃ³": 9166,
      "ĠpropÃ²sit": 9167,
      "Ġsanitat": 9168,
[...]
