#version: 0.2
e s
d e
e n
e r
a r
a l
a n
l a
q u
c i
e l
a t
o n
r e
o r
i n
u n
en t
i t
qu e
a m
p er
o s
o m
p r
i c
i s
es t
o l
s e
a d
de l
ci ó
t r
é s
l es
d i
an t
e m
v a
o t
c t
c on
u r
c om
i a
am b
a s
i m
i x
g u
i r
h a
el s
a ció
un a
i l
o b
l e
t a
n o
u s
on s
p ar
s i
pr o
c a
e t
it at
u t
ad a
d es
g r
al s
a qu
d a
am ent
l i
o c
ic a
an y
E l
t er
e x
r i
r es
u l
v i
f er
aqu est
m és
a b
p os
s er
2 0
p or
e ix
v er
t ot
ci a
f or
r a
del s
is t
a c
i ci
pr es
v e
è n
m ent
a ct
e ct
s t
ci ons
m e
on a
i g
el l
p a
it z
en s
par t
at s
p l
L a
p o
e c
l l
d u
as s
p re
c ar
. .
t s
er a
m a
m an
al l
t en
tr a
s u
t re
i v
de n
h i
an s
or s
tr es
v ol
in s
ar i
èn cia
m ol
ad es
t e
ent s
m at
re c
por t
un t
j a
E n
a ix
r ia
n a
es c
i u
20 1
d is
es s
o ci
se u
g e
m ar
at al
b l
t in
ur a
h an
ent re
qu es
ó n
u m
e g
b re
com p
f a
t i
v en
ci on
E s
P er
mol t
qu è
c l
amb é
per s
t em
c re
u re
in a
v is
se g
d re
0 0
t at
g a
c o
v an
ob re
il l
n os
p e
se va
ca p
i ó
c el
de r
t es
est a
ic s
in t
di a
per ò
c as
on es
s en
n i
an a
aquest a
it u
c os
in ter
s obre
t ambé
1 9
r an
a f
pr im
or a
p s
A l
al itz
m es
i b
i d
h o
t ar
ant s
un y
itat s
se gu
en er
e b
j u
any s
f in
j ect
c al
r o
n om
p ot
qu i
v es
I n
b ar
ç a
c or
con s
c ol
m in
p ass
p u
ver s
a u
p ol
p el
al tres
er s
si ó
f ic
or d
c an
ci es
or n
m en
al itat
M ar
u p
B ar
C om
ar à
al ment
di r
d on
El s
à n
s ón
ul t
s oci
pres ent
C atal
e p
í s
i va
for m
gu t
e u
it s
m o
c er
s ol
tre b
a g
m b
es p
is ta
f ins
ici p
un s
f et
c at
ad or
al g
i gu
p la
le g
r à
r er
A qu
a v
d ur
est at
N o
o g
t ant
t ic
e d
pr és
per què
l li
tr ob
or i
re g
ar a
c r
qu al
è s
mat eix
am p
at ge
j o
de m
den t
A n
" .
it a
Q u
ent r
ur s
v ia
uny a
d ar
U n
im ent
.. .
j unt
ú s
p en
ci ut
Catal unya
) ,
ar is
S ant
o la
res p
bl ic
or t
) .
ar ri
m ill
c u
est à
t é
Bar cel
v al
E S
a ut
t ica
de ix
h e
tot s
g an
gu i
f ici
aix ò
pro f
Barcel ona
pers ones
o p
ist es
í n
d ic
i ció
gr an
m i
i or
di fer
qu an
act u
in g
g es
d os
en ci
el la
pro du
" ,
A r
est r
tr act
L es
p i
s a
se us
treb all
E st
ò ria
re ct
m et
any a
c ada
pl ic
car a
sen se
t an
em ent
in ci
à ria
for ma
i us
cion al
ll oc
ver n
is me
m al
form ació
R e
s ent
on t
c ció
b le
1 0
s ab
g ener
s al
la ció
des prés
n e
ec ess
ell s
m it
al la
ar s
J o
p at
c atal
n ecess
b an
p ú
n at
D es
la b
l la
dur ant
act iv
o fer
em a
gr am
pr en
il itat
f e
ur es
b é
ar t
pro ject
junt ament
se m
i es
con tin
e di
ser ve
C on
o vern
am í
b en
v ant
D e
on al
ha b
l o
em pres
ten ir
pol í
g ar
20 0
man era
nom és
tr u
it ar
m un
f r
ci n
mill or
se t
il i
l u
in st
b er
prim er
b r
en a
ve g
m à
h om
a gr
E R
p le
m er
o u
b a
c es
f un
in f
s os
tem ps
ad ors
p et
il itz
h em
ci l
1 8
eix en
c urs
t orn
p as
h ist
or es
l oc
lab or
ab le
com en
èn cies
un es
tr ans
i da
pro c
C ar
vi da
or gan
Aqu est
a ca
an d
pos si
p ob
s in
e qui
s itu
j ar
t im
f i
com un
g ent
a cions
po der
l le
man a
ve ure
r en
at re
con tra
da vant
no u
1 5
v os
ac c
en cara
aix í
om ent
im port
con tr
ur o
ha via
c la
É s
di rect
it al
ri es
ciut at
em bre
pe ci
3 0
1 2
difer ents
in ici
on i
u di
v ar
d it
d at
C ons
ul ar
pr ot
po d
x a
j or
m ica
2 1
í st
l ar
s or
v in
a p
u i
t al
r it
g i
S i
t o
D i
T ot
pro gram
organ itz
D E
aquest s
C as
per i
pr om
tot es
el ec
es si
i re
ur al
P ar
à s
la t
ol l
di vers
P r
es pa
ha ur
os a
ct u
es peci
in es
mun icip
iv es
mit j
pr inci
à r
prim era
can vi
b at
d est
est ar
m ant
ul l
ob ject
P u
ò n
ç ar
su b
po den
pos ar
c s
et at
y s
.. ..
l í
a par
en vol
ot a
pass at
e ta
m os
A ix
ob er
por ta
m ón
U na
e f
s im
se ves
re alitz
er ra
n es
ix er
i on
pl ant
sem pre
no va
don ar
è c
part ir
di es
A juntament
ú l
du es
no v
i en
x im
1 7
segu ir
A mb
V al
m oment
c amp
al tra
de ci
c ri
v ir
pres i
part icip
re b
i f
c ult
u b
d o
m is
project e
pos ició
a con
er r
an ar
1 4
C A
equi p
E N
el les
ol og
C O
con eix
contin u
m ot
t í
c ant
00 0
pr ob
sen y
in formació
es per
p ens
c ent
at ges
tra v
e con
q ü
G ener
ut ilitz
1 1
o d
g overn
c h
ten en
S al
su per
le ct
t u
l os
gr à
t or
soci al
v est
i ons
de pen
re u
C I
ll ar
h ores
o f
aquest es
ect e
u ció
esp any
L A
Per ò
a vi
cos a
oc u
est an
d in
g l
in cl
nos tre
a ju
f ot
cas a
princi p
g at
e du
1 6
r ic
is tr
nos tra
d or
gu any
Es p
1 3
p unt
pro pos
à ct
re la
en y
ma jor
i de
t ir
J os
g er
i ent
cl ar
l ia
ar an
T A
ament s
b res
gr up
ob r
si g
ass a
F ran
al t
e v
produ ct
f il
p els
gu in
trav és
cel eb
g est
s ist
ab ans
G u
er i
d ades
ve u
úl tim
comp any
t ell
ú n
h ora
n eg
si gui
v oc
na cional
f on
des envol
f ica
pa ci
g en
arri bar
de u
2 2
t el
al tre
ut s
p oc
f amí
per met
gr af
est udi
tr i
d ins
com ent
se vol
àn cia
esc ol
gr at
pu blic
R A
fin al
a va
V i
va ig
ò g
pl ica
ban da
an ç
m ir
tot a
cons tru
ct or
M a
ó s
seg ur
al um
c e
w eb
e ur
re present
x ar
un d
nos tres
b aix
P ro
w w
con f
ha ver
A s
e gu
part it
C al
comp le
prob l
2 5
la ment
ti p
a pro
ser à
qual sevol
pos t
C o
T ambé
serve is
r esta
v ent
de f
men ys
s o
p es
re fer
m ic
de man
ti ques
act e
ol s
as c
bl ica
ex plic
se mb
seg ons
t all
un ts
ob li
Aqu esta
er ci
Jo an
c ep
di u
! !
j us
trob ar
t ics
inst al
ex em
on als
U ni
f ut
eur os
b us
p ul
b on
mol ts
si ons
è r
b ona
activ itats
m or
b o
r at
serve i
tem por
hist òria
for mat
co p
pú blic
E uro
esc ri
S er
igu a
presi dent
aqu í
con si
an es
è ixer
E m
r il
set mana
m em
b as
p ut
n or
I I
des c
m on
In ter
os t
i ques
h ot
d ona
u ï
alg uns
treb alla
n s
s es
S eg
L l
em es
possi ble
c ur
pr ò
olog ia
in d
veg ada
resp ons
espa i
n et
C i
ex t
ir a
ter min
im ents
ac ord
E x
f an
econ ò
ab l
at iva
t ur
prof essi
à ries
pa ís
re f
v í
A L
vis ta
u la
ra g
il la
import ant
tip us
al ta
c entr
or ia
c entre
tr ad
pos a
c ació
a igua
ús ica
M an
un ci
c ul
av ui
E L
Esp anya
s ort
n iv
er es
pro pi
u per
me di
ciut ad
cla s
C an
h t
c am
ll en
con t
r u
su port
b u
f ar
it er
201 9
f am
A R
b i
gr ans
ec ció
ocu ment
O R
ctu bre
ac ció
f à
object iu
o per
empres a
d res
er ia
m il
sin ó
n ot
ord in
L le
ri g
alitz ació
cer t
A N
in depen
O N
s í
situ ació
s an
con ver
Aix í
G ir
program a
P la
tr o
o graf
pos it
ob ra
mant en
vis ió
5 0
con st
lli bre
catal à
2 4
ofer eix
inter ess
v ot
r is
car rer
comun ic
h u
proc és
I N
p t
sist ema
J u
cos es
ar d
l leg
d ones
á n
u al
fic ació
Gener alitat
f ran
con di
R o
aut or
2 3
t èc
is i
R E
Uni vers
pass ar
d ència
ò r
def ens
P ol
pren dre
í a
man s
b les
li ci
qu als
im a
ga u
d rà
b ol
desenvol up
T r
c li
201 8
gener al
vest ig
un i
molt es
ober t
comp et
val or
di g
comen çar
V a
C ol
Jos ep
qu en
v ist
activ itat
re tat
ar tic
polí tica
d ocument
ib le
P a
z ona
de fin
or di
pro p
g ia
ol òg
20 20
in e
ca us
la cions
ci s
s om
O r
an o
P S
af ect
espany ol
me u
v am
ex peri
M ont
us u
201 7
v or
à g
qu er
f em
it es
T or
o ctubre
un ta
pre g
c àr
P al
estr u
ter me
er o
qu atre
obr ir
or ig
u g
mes os
ma i
in ar
con èixer
ad ora
ment re
empres es
ar r
re t
os p
exem ple
ò s
resp on
esp ect
S oci
an im
an i
at en
rec ord
min istr
llar g
Des prés
le x
an ça
pers on
celeb r
pr àct
x es
Cons ell
al cal
pers onal
H i
fà cil
G overn
com pl
d ors
mar ç
pers ona
tract a
Est at
o fici
acon seguir
gu a
P re
pob le
mateix a
T I
ca paci
f í
re un
al a
Gir ona
cre t
J ordi
un itat
ur ant
cu la
rit ori
v ic
comp te
soci als
b ilitat
con ta
re gu
a plic
sent it
j oc
es port
ci r
ass ist
ma ig
tem bre
c ad
af eg
se tembre
p on
res ul
ex ist
c le
ent en
201 5
ect es
in vestig
rec or
qu alitat
niv ell
t ec
dre t
r om
edi ció
/ /
hot el
e ca
pos ta
il s
gr u
ll u
qu ant
acc és
esc ola
la s
em ents
ten im
deix ar
2 7
m úsica
m ig
tin gut
j uny
ri d
ve ï
alg una
f ent
famí lia
d om
ir à
M o
po dem
ob res
Qu an
à mb
F er
j orn
v ul
den ts
am a
f est
V all
e z
f eb
om ia
pro per
tr en
2 8
semb la
2 6
m us
ult ats
m unt
man if
alum nes
à l
tot al
ab les
li ol
port ar
re lació
g in
re du
os es
ab ril
mat eri
torn ar
m ili
P o
ad o
p unts
itz ació
p ia
as segur
nos altres
t as
d ol
M ol
n it
201 6
os os
h er
te gr
part ici
ga ire
divers os
fic ar
s on
s at
for ça
19 9
segu retat
est abl
f ons
l ín
qu il
ess or
pre par
al e
au g
oc up
gest ió
gar ant
aca bar
m ob
seg ona
estru ct
C or
tr ib
I S
mili ons
es de
ter ior
ht t
soci etat
I A
: //
è x
labor ació
iv al
par au
alg unes
ç os
v o
T ar
v at
ig a
f ill
A ra
int ent
20 21
no ves
divers es
c en
seg ü
M un
t it
cor por
se ctor
c ot
ju g
at a
m ort
fe ina
aug ment
r era
J a
di rig
alitz ar
.... ....
sab te
rec uper
li es
A d
tèc n
4 0
amb ient
r el
dre ts
An t
qu in
consi der
Univers itat
càr rec
re m
n ú
v int
om en
igu al
ar ia
no us
us ió
gau dir
gu es
ten ia
fun cion
f re
in dic
M ad
S u
com pr
in ació
mà xim
vol unt
fic at
nov embre
tr as
ib li
c amí
actu al
2 9
seg le
Pu blic
r im
est im
d s
acon segu
me tres
jo ves
b al
dis seny
e fici
especi al
veg ades
dest ac
seu a
et s
G ar
R a
s ota
ju liol
C ult
R ec
er en
feb rer
i cia
Mar ia
vi en
seg on
te u
loc al
a company
rec urs
» .
M at
à st
ter ritori
fa vor
C entre
an c
íst ica
um en
ex plica
coneix ement
es a
su m
product es
P A
ex pres
project es
it ació
major ia
f os
grà cies
experi ència
as p
di vi
et c
de ra
di o
S ol
B en
it ut
vi at
sab er
C ap
for mar
F or
r ers
ab ilitat
co la
C h
o k
201 4
pass a
capaci tat
Aix ò
ent orn
er ca
ven ció
qü est
ad al
ex per
dar rer
i o
esta va
e uro
fut ur
de dic
g o
pa per
mes ures
osp ital
h or
pe u
tempor ada
car reg
es qu
cin c
t ol
me va
inst itu
V ic
p àg
uni vers
M A
cos tat
d ist
y a
edu cat
u it
r on
Vi la
gru ps
z e
pr iv
in tegr
rec ció
reg id
Euro pa
ti da
m as
à tica
espect ac
con ven
201 2
cons ell
P P
hom e
re p
ur als
vi ure
ent itats
edi fici
a prof
cion als
b il
direct or
fam ili
Cas tell
at ura
pos at
sobre tot
g as
ici ons
re alitat
V I
a van
è m
t ext
catal ana
E du
In st
M on
ò l
ï sos
act er
ic ament
alg un
M u
fa cil
í em
ser vir
Ci ut
des embre
con tract
ww w
ment s
neg oci
cult ura
entr ada
municip al
M as
M i
P res
d r
B er
ograf ia
anç ant
o port
T e
tec n
h ir
sal ut
ag on
com prom
af ir
H a
a de
ll um
conta ct
po ca
lín ia
re a
ibli ot
U N
ant er
contr ol
at iu
201 3
all ò
n ens
de termin
Mad rid
p is
T er
pú blica
ç at
G r
treball ar
N a
dem os
' ,
for a
V e
C amp
Val ència
R eg
vi ol
part its
partici par
ï t
201 1
desenvolup ament
et es
haur ia
ver sió
e gut
agr ada
j at
u dis
m u
L L
im pul
mar c
indepen dent
à tic
om a
n u
Seg ons
g ència
con junt
dis sabte
pla ça
Tar rag
an ia
probl emes
b ot
ter ra
pob lació
h um
n er
v ell
C E
u en
resp ecte
est iu
di umen
à m
part ament
gu ts
elec tr
professi onals
G ran
par lar
du b
haur à
anter ior
di ven
edu cació
D A
mat í
cre ar
diven dres
cas os
aten ció
oc rà
ic al
con sum
lli ure
particip ació
present ar
gu és
ber t
camp anya
min uts
T he
c ò
i den
at ives
D is
cre ix
ha gi
mo v
l im
for t
r ob
com ar
val enci
mo del
b e
tr ar
le t
mitj ançant
Sant a
ess os
iv ament
ha vien
con se
cri p
Tarrag ona
M os
tem a
àmb it
ju di
ad ament
voc at
m assa
pre mi
va ció
F in
cos t
íst iques
comunic ació
prot agon
rela cion
re al
ex erci
inf ant
gr a
rim oni
ci ent
L li
201 0
de o
artic le
M er
U P
per f
pod ria
sig ni
aqu ell
cas tell
1 00
F und
con n
ter a
res ol
O S
cent res
6 0
ent a
M és
ba se
mos tra
ass oci
n en
don cs
jo us
g ir
i des
L e
pa g
pre m
espa is
diumen ge
A ctu
ev itar
at ur
it ari
gu er
tot hom
ci al
trob a
A v
f l
de t
prom o
com erci
caus a
Ant oni
d ó
fr ont
lle i
cons ul
sort ir
s is
tr at
ni ques
nat ural
del l
con egu
ser v
qu el
re com
probl ema
ex pl
Public at
f act
estr at
condi cions
f oc
millor ar
c cions
or al
ad ministr
Ser ve
s è
manten ir
3 1
D urant
g n
tr an
pla t
a ga
f ant
jorn ada
Fund ació
Pu ig
esde ven
po p
pod rà
princip al
el i
que da
» ,
an omen
ur ació
recurs os
alcal de
ter i
for mes
r os
tel e
famí lies
8 0
est em
aqu ells
coment ari
explic ar
s ar
mitj ans
llen gua
j ut
car acter
A m
z a
al ter
al iment
tr am
C a
vi d
arri b
realitz ar
- -
elec cions
í cies
Per e
in at
En tre
p al
mol ta
èm ia
è tica
lloc s
Qu e
mo der
produ cció
gl és
x e
è g
C er
Es cola
especi alment
ed it
li da
lli bres
v ors
in corpor
propos ta
constru cció
0 9
im atge
am or
ri e
oc as
pren ent
f arà
P l
organitz ació
di al
mer cat
R am
gaire bé
er e
ll à
S an
Lle ida
Pr im
l iter
jus t
n ing
v ari
S ab
s ur
í tica
cat eg
xar xa
si on
an at
ac cions
tr ia
í o
esc en
qu ad
ex ec
ver a
cli ents
av al
con du
res ultats
po deu
pa ïsos
t oc
qu ina
nú mer
d ot
i que
ser ia
ag ost
A C
M I
pet it
ten ció
mot iu
acc ep
gu st
f esta
is sió
gu ar
utilitz ar
resul tat
Inst itut
U r
c ut
ri b
g ers
cr isi
cult ural
cor respon
an unci
C r
s elec
L lu
pre u
cre ació
s ens
b la
C u
p an
é u
m ín
est ació
ess in
òn ica
R O
é n
su post
nom bre
aju dar
In ici
T S
el ect
ex posició
3 6
T E
ER C
P as
preg unt
B o
L u
que dar
iv itat
ic te
di ll
ide a
can di
est re
man es
mill ors
C at
B l
Val enci
f al
P at
V er
a hir
è ria
en c
me c
itu d
cons ist
parau les
R es
N ot
f ou
fí cil
0 1
qu it
D ia
est igu
arri ba
P ort
don at
coment aris
T V
D I
u als
por ts
ber tat
U E
al es
0 7
M P
m è
m ò
in divi
grat uï
di fícil
rec erca
dem ocrà
g el
h as
p ir
f ig
tin drà
con egut
P el
pres a
te va
usu aris
sol s
CI Ó
pro u
municip i
mar ca
av ant
ben efici
ò ries
com b
h ic
in cre
est es
cre u
vos tra
dill uns
con fi
act es
reb ut
Par lament
polí tic
orig in
pot ser
hab itat
princip als
it ària
S A
c he
f ra
prim ers
c ament
inter nacional
entr en
R i
ins tru
catal ans
const itu
p it
è l
alitz at
mar e
segü ent
as i
inter pre
resp ect
sè rie
a ire
ó r
et ats
ed at
j ament
p ic
t he
res er
pu gui
mo di
necess itat
par l
As soci
aju da
clas se
it ants
4 5
19 8
pres sió
vol ució
fet s
hab itu
b os
òn ic
defens a
ade qu
esp ec
mem bres
v all
itz ar
sol u
polí tics
im p
r ent
ita cions
loc als
Na cional
comp ta
present ació
s us
F a
pres supost
polí tiques
sor tida
di jous
plant e
bar ri
sub st
incl ou
f alta
fr on
ibliot eca
0 3
E U
ca pa
èx it
g èn
deci dir
ter r
res posta
glés ia
n ord
or g
D el
ex ig
tar da
0 5
ent itat
pres ència
ses sió
J au
cl ub
F e
de clar
i k
par a
all ot
el ements
for ç
Jau me
im atges
il ar
A b
Av ui
or ca
19 7
difer ent
at ra
gr és
ref lex
tr à
f ís
b às
ex tre
oll ir
ist re
iden ti
0 8
j ur
ar em
bl ics
ve hic
t itu
inter ior
fe ia
d ut
materi al
p ant
min is
par e
ens eny
or is
vol tant
pop ular
0 6
en vi
ca b
mar xa
Tot s
din ers
necess itats
tro du
f it
enci al
p int
er ic
as t
v el
B r
car re
Gener al
i di
N om
en lla
b li
propos tes
di recció
pro por
agr ad
treballa dors
defin it
V ol
t eix
Cult ura
é ixer
all ar
lu b
agr a
fun ció
l s
htt p
comun itat
P en
ta forma
hom es
inf ants
3 5
n ar
ib ilitat
col or
mes ura
explic at
ni es
Soci al
H ospital
S í
tract ament
ún ic
que t
inter ès
trad ici
qu ar
in i
est udis
can ç
lli bertat
ef ect
professi onal
T ur
è dia
ci ona
cr it
amp li
vis ita
ob le
P ot
tar d
p id
gu da
possi bilitat
pú blics
rec ep
Mun icip
ning ú
t ació
per ío
Associ ació
X I
ir an
ta ula
prò pia
respons able
N e
ol i
contact e
O n
p ec
vi v
En s
d ica
ciutad ans
veï ns
D on
entr ar
particip ants
desenvol u
e vi
la da
int el
pet its
equi ps
ob tenir
present a
sem bl
c era
di put
po gut
v uit
ix a
amp oc
M al
g ol
par es
gu erra
ís sim
íst ic
R I
pens ar
ib les
l us
can vis
it ant
pl ement
pu guin
er t
rec la
Qu è
Fran c
am ics
se x
ris c
Es pa
indivi du
ass eny
cion ar
de bat
con cep
è poca
númer o
Mi quel
v em
refer ència
G rà
T en
conse qü
C os
pro va
rec ol
jo ve
met re
econò mica
P au
p ect
vol em
cap ital
G o
i dent
t ats
cir c
i em
canvi ar
ober ta
d ra
men jar
vir us
mín im
di fic
sal a
X avi
en davant
gu en
comen ça
inici ativa
C lub
for me
ac h
lí cula
0 4
candi dat
ser an
segu eix
ador es
S E
S em
ci na
pe a
re bre
in o
ur g
cons ci
P os
ex cl
mi ques
' .
ún ica
h on
Fran ça
H o
prof essor
deman ar
men a
c us
vi atge
cl ara
enten dre
mov iment
S egu
ic ació
ri u
í cia
O L
O b
qu is
fot o
p leg
om b
hi b
import ants
A ut
M en
tem es
actu ació
Sal ut
P art
necess it
econò mic
conver tir
Edu cació
lla vors
municip als
prò xim
ocup ació
R ib
Jos é
famili ar
viol ència
S e
S a
am eric
e dir
en da
id ar
í fic
par la
fill s
g re
sen z
p li
in trodu
om ents
àn ia
I m
fer ència
aplic ació
sat is
C l
p il
dis pon
Al g
llu ita
guany ar
Ve ure
t il
company ia
A M
S I
am ar
pàg ina
en llà
di mec
dimec res
s ob
ob ser
Catal ana
B at
im ag
vi u
dre ta
d al
am unt
res id
dó na
ur ar
ass um
ofer ir
m ul
ll ista
alg ú
prot ecció
C re
M or
ü es
qu ir
cla u
fot os
0 2
ver itat
mill ora
com par
car àct
super ior
l les
Ar t
nov el
S en
ada p
pot s
op ció
m ació
co ordin
200 8
pràct ica
er ç
at es
leg is
a juntament
bl oc
conf ir
per t
se c
R os
Mu seu
aca ba
perío de
mal alt
prot eg
S et
ass ol
An dor
Di put
ad i
dis trib
mar ts
sos ten
espany ola
xar xes
di marts
ter cer
ex cep
part ic
b y
tr on
ant a
ològ ic
v et
con ser
tí cia
m oments
ven ir
in ada
con cert
fon ament
ci e
u da
3 3
si guin
orig en
cad asc
D ES
im es
con curs
Inter nacional
D éu
d í
p in
ac us
mal grat
crip ció
P i
incl o
r í
ad re
d à
im pres
us tri
cre at
pl ia
cin ema
ò ric
quant itat
tras lla
ci t
E C
f is
à leg
aqu ella
sig nat
al i
9 7
g os
incre ment
comen ç
últim s
dig ital
esqu erra
fin alment
baix a
lleg ir
j ada
u el
caràct er
b à
Di ari
mis s
ciutad ania
de mana
des it
p and
trans port
ex tra
ori al
200 9
ç ada
Car les
all à
contr ib
vol en
ha gut
res a
vos tre
PS C
pl an
pre ci
set manes
tí tol
Franc esc
. "
gl ob
reg istr
ion ar
P e
inter na
sent ir
c rec
r oc
ot s
usu ari
necess ari
oport unitat
Andor ra
di ari
200 7
comple t
che z
H ist
R à
z ones
alitz ada
cu ina
v istes
N O
T ES
est il
C am
ú blica
el im
fin als
deci sió
centr al
gèn ere
fut bol
O ri
import ància
pod ran
aut o
so vint
Te atre
B aix
L la
ig i
hab il
con vocat
esc rit
econ omia
termin i
s é
om e
object ius
Pre mi
sa p
volunt at
aval u
se cret
rela cions
H em
at ac
dis pos
cor rect
ju gar
a dell
de ri
gu em
ri en
ab an
actu alment
ci dent
int ens
Un ió
De partament
. [
a prenent
an g
car rers
B A
cr im
f ics
í fica
per dre
D avi
F est
consi dera
F ins
en guany
est ra
à rea
ant ic
T el
9 0
ví deo
re gut
tor na
B a
N adal
ò nom
cor reu
bli ques
or dre
est res
P or
dat a
tin c
H e
ren o
plant a
m ac
vis itar
àn cies
celebr ar
U R
per ill
ob st
su c
escri ure
de tall
con cl
seg ura
obli g
I C
labor al
últim a
Municip al
pand èmia
contin gut
avi at
estruct ura
rel le
product e
Ciut ad
der ació
mateix os
V A
d oc
g al
te atre
P ER
k e
ci v
ll o
II I
F ot
S ón
ci o
ma pa
Mar t
igu es
conn ect
tele visió
z ar
ct ors
direct ament
en ca
is s
infant il
categ oria
t ampoc
ener gia
bus car
exec ut
val ors
espectac le
i al
om es
w it
Diput ació
trob em
contin guts
qüest ió
B e
re alment
e labor
com od
esper a
garant ir
v é
un itats
est al
ar e
trob ada
I B
è tic
al ada
tas ca
f ab
ir es
dre u
DE L
t h
rà pid
mi gr
Davi d
any es
às s
anim als
3 4
s il
pat rimoni
indepen dència
ori ent
arri bat
investig ació
vic t
lect ura
al ar
com partir
deix en
òn ia
it als
gr au
mus ical
htt ps
T reb
pet ita
essi ons
in fer
op in
ar quit
re quer
po dia
comp tar
continu ar
Fin alment
is mes
d esta
ar x
B ale
Nom és
or den
escri pt
institu cions
m ics
o dis
Cas a
ví ct
en cia
ar reu
desc obrir
[ …
id ors
abl ement
pe us
ist i
i p
A ct
di bu
E ti
Ju an
t on
on ar
ofici al
exper iment
e qu
r up
in format
si gut
G A
com part
lect iu
r ot
pa gar
constru ir
c ats
est e
im plic
ven da
No va
direct e
ològ ica
f res
el èc
di ver
ur ban
ofer ta
ull s
[… ]
I gu
........ ........
desenvolu par
f us
pas se
posit iu
O l
l it
an da
estudi ants
3 9
al hora
gl ès
re iv
Est ats
escol es
M in
ori es
princi pi
aqu elles
ener g
M ir
bl og
deix a
reun ió
continu a
respons abilitat
3 7
Al bert
ces si
5 00
va s
co oper
malalt ia
pos terior
19 6
hab itacions
er n
pre mis
apar eix
creix ement
d è
con cret
pl u
fa se
present at
k m
ex cel
eix i
anç ament
. -
vol ta
M all
P ed
en ar
in form
ina ug
obst ant
mem òria
asp ectes
Llu ís
p ell
en cant
actu acions
Aquest s
prem sa
alter nat
C iv
ent ment
ef ectes
r al
pa is
lí der
Ram on
dar rers
vol u
un al
acc edir
semb le
record ar
hab itació
nor m
S án
pr è
ul ars
k a
re tir
Sab adell
4 8
a prendre
f ix
pre fer
Aquest es
à tiques
an em
qu ia
con centr
su d
mat èria
G ra
Re us
est ic
N at
S o
á s
pla taforma
EN T
A c
T err
am en
se par
pos icions
conf l
clas si
Sán chez
m ad
!! !
g ens
ri ques
ul tat
treball s
H ot
a part
vol s
co inci
ps ic
viat gers
r as
en carreg
tre ure
Par c
or k
J us
c à
f el
o grà
tel è
poc s
Q U
pre vist
rer e
C ada
re pet
nom br
dar rera
sin dic
presi den
Rà dio
M e
ci cle
B or
pers onals
Bar ça
ag ents
T an
o cia
ica cions
res ist
aut on
ing ü
E bre
O E
R ES
f u
su pos
pat r
d ro
cion at
cu les
aconsegu it
j os
in ver
que tes
dub te
ll uny
J es
trob en
inf lu
funcion ament
ar gu
comar ca
dibu ix
a plica
ic ar
treball ant
fun d
em oci
est able
ra ó
municip is
escen ari
ac os
segu it
Un its
materi als
compr ar
7 0
s ola
nova ció
tall er
ind ustri
Fest ival
i onal
p ista
d ria
de b
sol ució
princip is
àl isi
comprom ís
G er
M ari
prof ess
judi ci
l ent
B on
y o
à ri
aca b
C UP
R ep
U S
de z
cl àss
x if
pol icia
fi ques
L oc
pro ves
li ber
situ at
es forç
in er
F E
in forme
con cre
T O
U s
qu í
Gr up
M edi
e ines
re lat
pi es
ide es
Mart ín
en d
pú bliques
empres ari
celeb ra
Pal au
confi ança
f oment
tot alment
ograf ies
Ju li
L o
su fici
dem à
à tics
pl en
habitat ge
3 8
person atges
per me
vi g
mis sió
enlla ç
com ú
gan es
L E
su posa
tan car
recor regut
L i
for men
port es
public at
T rib
v it
pr ior
cer ts
joc s
in gr
T ra
CO N
Lle i
3 2
program es
Valenci ana
L I
s ant
recuper ar
Xavi er
àst ic
u d
ciut ats
V il
pro voc
ac k
escol ar
Ciut at
f as
j ant
ef ecte
Serve i
O li
mos trar
fest ival
O s
aca bat
Sal a
R om
i à
s it
des a
mal al
cos ta
5 5
a port
w s
à lia
tem per
fr u
electr ònic
im pe
des pes
cont ext
b it
den unci
obert ura
minis tra
Bale ars
e la
it aris
20 22
cot xe
B i
m s
va c
) :
F ont
car ta
jug adors
ï da
Not ícies
X X
re ga
gi ques
ion at
l ine
segü ents
ca u
ut es
mitj à
E con
ic h
leg i
art istes
olog ies
propi et
hu mans
S uper
p èr
pro var
fa ci
Mar tí
esp è
fest es
regid or
part s
aut om
Mall orca
ñ a
an glès
dis posició
diu en
net e
curs os
Inter net
desta ca
_ _
da cció
det ect
inter venció
mitj ana
P ir
v à
cult urals
est ada
par c
par ella
fe ta
que m
primer es
vi la
òr ica
associ ació
c àn
ter cera
nor mat
exerci ci
caracter ístiques
fig ura
Civ il
F l
pl ena
dis c
necess ita
ór rer
a ven
Com un
qu ines
ter ren
alum nat
di f
por ten
on g
pu c
cr í
em er
cons ol
av ent
t om
gat z
f ul
tecn ologia
n is
se cció
S im
g reu
bl anc
manif est
partic ular
ò leg
inici ar
V an
h eu
possi bles
Hot el
O C
b is
pro v
G al
k i
s ia
s ta
an ca
parau la
origin al
del eg
ocu pa
conven i
C amb
d ran
ha gués
me itat
m era
ma gatz
b ia
tècn ic
clas ses
contrib u
B al
ens a
No u
M úsica
subst itu
F ira
at ius
gin y
em b
ó c
pres ó
habitu al
aprenent atge
cor re
difer ència
I s
preg unta
fre qü
estrat èg
elèc tr
col ors
4 7
Per què
sen si
Aqu í
eta pa
tall ers
consell er
F i
z z
il les
ver m
Serve is
g ell
au la
Mar c
R u
hot els
administr ació
Jes ús
I t
id or
continu ació
4 6
m embre
ci ta
re z
An na
famili ars
b ici
es glésia
ha gin
ma g
pec es
vers ari
Com ar
A t
par lament
deix at
produ ir
inf ra
intent ar
igual tat
En cara
peri odis
àr dia
munt anya
tècn ica
allot jament
Ciutad ans
L ES
vis ual
semble a
presiden ta
in c
regu lar
f es
gr es
don en
pol ici
èr ica
ad quir
ex terior
fun cions
m el
per man
vi es
arrib ada
im medi
des pla
Gu erra
escri p
Fer n
Grà cies
vo ca
conegu da
cir cu
L leg
divers itat
F el
en ç
vehic les
itz at
trob at
llar ga
t ens
dre m
Euro pea
wit ter
c k
o x
an ces
fran c
c ía
ten iu
trad u
PS OE
vict òria
) ;
al iments
rec ull
Pa ís
D em
ic tes
celebr ació
G U
r ad
fon ts
telè fon
afir ma
f en
re ix
assegur ar
gu é
po pul
tin g
porta veu
fem en
ocia cions
4 9
C C
at ori
oc s
apro xim
ic ult
destac ar
pràct iques
a y
gu eu
pass ant
Mos sos
ten ien
Vall ès
magatz em
b ra
cor ona
tur isme
Cos ta
aix a
Es port
le cció
tre t
pe z
esta cions
realitz at
Ma jor
aplic ar
redu ir
C ab
pla ces
6 5
d ats
m ús
em p
ill er
hist òric
convocat òria
S om
ur at
gen era
B iblioteca
O fer
T o
que dat
ici tat
ru ta
selec ció
Rep ública
F esta
b ones
est ran
si ques
Com issió
C N
re coneixement
és ser
ser rat
Pro gram
pregunt es
qu art
àri ament
té n
obli gat
artic les
alcal des
facil itar
c ó
M E
leg al
plant es
al em
re es
evi dent
Terr assa
N A
and o
possi bil
lí nies
Tr ans
pant alla
tradici onal
F ac
m asc
des apar
tra ject
vol ia
promo ció
M it
moder n
re i
con vers
pa u
pre veu
ari en
ús tria
enci ar
imp acte
J orn
pass ada
fot ografia
C D
F C
V is
comp tes
Com unitat
lici tat
carre tera
d oble
s essions
vol gut
cl im
ina cions
obre gat
vos tres
tèc niques
perf ect
Fe deració
us os
recor da
nen es
n ació
de ia
coneix ements
sist emes
represent ants
Treb all
M us
ant iga
og le
permet re
H u
a porta
an àlisi
CA T
escol tar
pag ament
. ,
G e
b ons
ten int
ió s
organitz at
h ospital
con vi
col l
gratuï t
D iv
pol it
c les
ans a
quil ib
Loc al
f eu
f ont
en ça
em pren
ur ament
act iva
car rera
afeg ir
estruct ures
A u
F A
li der
ici on
interess ant
viv ència
comod itats
s ot
castell à
excl us
di ent
ma j
Al t
comen çat
aga far
Ll obregat
dist ància
S obre
pr est
ac um
mor ir
e ina
f aran
n eu
pu jar
fin alitat
prof und
fran ces
establ ir
al les
per o
Qu i
200 6
Sen se
3 00
è gia
es ment
vol um
àn ica
Cons titu
mant é
ad op
sol id
Esp any
jus tícia
const ant
èg im
' '
hi vern
situ acions
Mont serrat
capa ç
d amunt
x i
aut ònom
valenci à
comerci al
e quilib
ia s
ac ad
public ar
comp anys
Castell ó
f lu
proc essos
pob les
lle u
manten iment
interess os
recuper ació
màxim a
elect oral
b or
con dem
compr a
S on
pre tén
Com p
lici tu
respons ables
trad ició
ap unt
destac at
fis cal
F I
T U
fí cie
ocas ió
A B
c ura
h n
ma gn
Ar tic
vot s
I lles
CO MP
mò bil
M ag
ò p
as segura
actu alitat
tin gui
O c
e ig
am ic
ani versari
mob ilitat
or ar
me us
ti va
av ar
jus ti
T ER
esta ven
Pr ot
i os
comp on
pu blica
vir tu
miss atge
j unts
mir ar
fab ric
er ta
qu ins
it y
art ista
cis ament
D ig
per m
em bar
all s
cò mo
conn ex
consul ta
N ú
pro hib
a gu
el ement
est ir
ofer eixen
re vista
com erç
R od
T ec
t ants
co h
Mun dial
impul s
a vis
itz a
po ques
mi da
liter atura
C in
c ans
ò st
dest in
propi etat
vic e
arquit ect
7 5
ad ol
can ces
sil enci
un cia
ic o
di àleg
du a
Al em
D O
g on
re ci
si va
paci ents
Man resa
signi ficat
D im
V en
ar ts
pre us
entre vista
vis ites
nom s
c eb
in forma
no ia
vul ner
à rees
esc r
vis itants
mot ius
Gar cía
z o
per fil
di men
Di rect
v ull
in versió
Actu alment
G l
b ur
la ts
ca ure
ment al
ig ües
ren di
haur an
represent ació
opin ió
pr ès
ab ra
cot xes
fís ica
à vem
ic at
ul ta
super ar
esdeven iment
et ique
don ant
proc ess
circ um
el ev
Catal à
program ació
tit ular
4 4
o re
x err
eg o
ven cions
pu b
m ens
man ca
hom en
compl ement
plat ja
afeg it
civ il
D u
ol es
com plic
pers pect
person atge
bla u
glob al
f o
ul ts
ti es
men or
qual i
op cions
assegur at
Cult ural
educat iu
Trib unal
ò giques
Mar ta
sab em
om pl
ab sol
ve us
Pol ítica
protagon ista
T om
for ces
du m
ins ist
En ric
organitz ar
aprof itar
ident itat
pos ada
ves pre
public ació
G T
de cor
ur ada
vi va
soci s
estr ic
ilitz ació
niv ells
llen gu
popul ars
ot es
comple x
ref u
democrà cia
dific ultats
It àlia
T a
ci tat
ada pt
ES O
mal a
darrer e
reiv indic
x oc
in novació
it en
ant eri
actu ar
Con grés
in tenció
ins cripció
particip at
hum à
adol esc
anteri ors
4 3
s ac
el eg
fin ançament
loc alització
4 2
vol er
men ors
òn im
se ctors
cas es
Soci etat
canç ons
D o
R osa
R ub
à mica
ten sió
cur t
OR S
Pol icia
ales hores
definit iva
P et
re forma
og ia
catal anes
íst ics
fot ografies
Fot o
com port
mant in
comple ix
A la
D ec
per dut
ex ter
cer ti
C entr
pr act
esc al
var ia
cli ent
concep te
f ir
ar ran
ca igu
var en
vin gut
Sal v
P op
e volució
Em por
Cr ist
fit x
L ó
T ant
X V
b iblioteca
os sa
des ig
seu es
eg a
alitz a
Man uel
posit ius
D ani
compl ir
tran quil
Don cs
conseqü ència
H or
o posició
u a
pas t
rit me
fil la
compl iment
Ló pez
- ,
F amí
S erra
est arà
neg re
án dez
estrat ègia
Eti quetes
B as
P RO
cas t
conf ig
o di
deci sions
Mal grat
Go ogle
E M
M ill
c í
es ia
tract ar
hu man
estigu i
solu cions
a posta
m ult
re torn
dis put
ide al
pàg ines
rob a
Ur gell
5 6
àn ic
Ar x
Espa i
individu al
d ad
è st
in ari
for ta
all er
normat iva
part ida
200 5
pod rien
experi ències
a ero
en es
pre venció
na u
pet ites
proc edi
C ir
b any
in cen
tas ques
expres sió
refu gi
A p
on z
dis curs
esper ar
argu ment
M ed
ar ó
mè to
ex pli
oll it
deci dit
edifici s
ent e
con fin
ana va
l en
t ut
pen a
Tur isme
recol lida
C oll
am plia
dis posa
Co vid
P I
s óc
re public
t ada
min ut
cin di
extra ordin
í fics
ñ o
in di
ic als
si u
ass ass
bar re
ano va
àmb its
Min is
r ègim
ll ic
TA T
refer èn
víct imes
g la
j e
ci ència
per a
par ar
assist ir
Po dem
toc ar
estable ix
L os
r ò
qu asi
actu als
produ eix
apar cament
utilitz a
Martín ez
franc ès
Empor dà
N i
em o
ins pir
cer ta
direct ora
represent a
ocas ions
possibil itats
en g
bar cel
Va ig
jur í
corona virus
B us
C aixa
j ol
on ès
va ix
àn sit
mun dial
cla us
apro var
document s
A rag
l og
o v
de clara
mar cat
haur ien
resta urant
Pot ser
asseny al
interna cionals
N os
w n
ar m
re ta
cr ítica
inici al
fre d
VI D
esdeven iments
D eix
fa ç
vent ut
O fici
S ec
ant e
em àtica
canç ó
b ana
p les
tr os
ind ica
defens ar
tant a
Con tin
contr ari
Gu àrdia
conver tit
oport unitats
W eb
n éixer
ab s
act itud
organitz acions
òs it
H ome
in formar
it àries
par ell
mar car
vin cula
to ca
reser va
B la
on e
res i
D om
al menys
la ter
aut ors
nat urals
resol ució
Antoni o
idar itat
es sió
ci pl
is sions
hab itants
espany ols
ind ústria
r ar
s ò
s el
À n
cer tes
mit ja
lle t
Tot es
ire m
not ícies
Hist òria
periodis ta
4 1
D r
bus ca
expl ot
L O
à b
Po deu
resol dre
a pos
men j
comun itats
augment ar
X ar
c és
que den
permet en
prop is
tècn ics
ambient al
B ra
ic k
lí cules
estudi ar
comple ta
so par
ON A
assist ència
J un
r è
gu is
gener ació
qüest ions
E ra
t ols
Tr ob
contract e
F il
ass essor
cap ç
object es
super fície
Lli ga
Centr al
B u
min istre
Pro ject
secret ari
B I
ter es
cer ca
Cas t
ològ ics
M AR
pro gr
segu int
necess ària
cont am
e va
den a
Lu is
TV 3
envi ar
6 6
j unta
l um
pos en
dis cipl
document al
escrip tor
5 8
en rere
est ats
man eres
pèr dua
5 4
te d
desc ans
ú til
com issió
ser vi
gener ar
veg et
proc e
lí m
Ci U
jug ador
end ari
Comar cal
5 2
es ca
en front
re part
im e
ab ast
pres ents
ran i
Pal ma
manif estació
redu cció
Prim er
referèn dum
d ències
de os
im mob
dem ont
prò pies
asp ecte
C ent
E r
N ord
f ac
en fron
is sa
pro xim
da g
vos altres
Par ís
hu mana
exper ts
P C
t estim
vi uen
na veg
sent ència
oper ació
Ad ministr
recom ana
sens ació
impres cindi
5 7
A f
eb o
cr isti
distrib ució
confl icte
ministra cions
Alem anya
llengu atge
d its
le ctu
ess a
bl o
nat ura
torn at
Mat aró
resid us
% .
B adal
in eu
mil ers
sufici ent
nete ja
d ant
in ten
ta va
cr iter
pat ir
avalu ació
am ena
va cances
Es glésia
inter net
deman at
estal vi
D ol
pr on
et re
ca vall
ass es
consul tar
criter is
l ingü
ass ociacions
pe dra
entr ades
fr uit
Artic le
C la
lici tar
rep te
anomen at
diput at
consci ència
E d
j ats
v ada
ú r
in ant
con certs
comp tat
priv at
Dig ital
A D
es quer
con tem
ur à
san g
sur t
industri al
H er
it e
im migr
co di
rep tes
Puig demont
sex ual
malal ties
9 9
l er
esc ena
càn cer
Salv ador
M ic
ac re
um p
tes i
dom ici
Mol t
signi fica
recom an
vel oci
R oc
in al
fin an
Car los
vi ament
jar dí
elec ció
Pen ed
F on
T em
x ique
Í N
me can
organitz a
cri da
proper a
modi fica
m aqu
am ag
eix o
hor ari
sosten ible
empren ed
at or
gr ad
id ència
not ícia
MI LL
Pened ès
M unt
U B
relacion ats
G est
J unta
est ona
ol ògiques
gu essin
cl o
pe ça
Ori ol
C reu
l usió
que ta
com pren
jorn ades
llo guer
absol ut
4 00
V í
d alt
o us
ar ren
vos t
promo ure
assol ir
S S
in vent
pro pers
gr ia
dirig it
aero port
m ur
p h
que ts
con tempor
esc ala
dur ada
mot or
mil itar
avan çar
apart at
A gr
I V
P unt
T oni
n ota
gu ia
Es qu
segu iment
mateix es
Est udis
curs a
propos a
quil ò
adre ça
circum st
T al
a us
i e
pl ani
ajuntament s
U M
b all
obre ix
Al ta
qui p
CO VID
comar ques
8 8
ï tat
con voc
port at
tin t
In fant
Com prom
W i
b es
de ut
al liber
tr ànsit
cal or
seny or
bas tant
nor mal
treballa t
cam ps
Cu gat
reflex ió
an al
im plement
prot oc
compet ició
Program a
it o
pos tes
èc n
san itària
comunic at
Ab ans
connex ió
G onz
d ora
enci als
Ro ca
dedic at
fus ta
concentr ació
T erra
on ada
il e
tin a
direct a
educat ius
judi cial
senz ill
pert any
H ab
h os
cent en
deman da
Or gan
Badal ona
S eu
er à
af ron
Re dacció
Valenci à
A udi
S t
ad ver
em pat
im post
pl ans
treball en
do ctor
exist eix
gas tron
Esqu erra
f eli
u lació
res um
Mar e
An dreu
hist òries
trans par
compet ències
terren y
d ura
com i
vol eu
bas es
Y ork
ac o
ac cessi
man i
te us
Es col
pleg at
traject òria
re da
ces sió
hist òrica
econò mics
conseqü ències
prè via
Q UE
f at
r ell
re coneix
fer a
fer ro
alcaldes sa
5 9
C urs
bl ement
Pr inci
Ser gi
complet ament
homen atge
A T
F em
n aix
en o
qu ants
Al s
alitz ats
aut èn
eny a
fran qu
Gar cia
benefici s
Part it
acad è
Pop ular
A le
f la
or als
it able
pre cisament
fun ciona
lect ius
sus pen
atra ct
icult ura
e ques
p ur
re vis
gu era
Car me
gest ionar
pit jor
d int
tecn ologies
mov iments
ingr essos
con tes
pro vis
ter s
Es per
sal uda
inici atives
TI C
educat iva
declar ació
detall s
profess ors
Mit j
G RA
est ant
tr ació
com o
rec ollir
reg istre
uï t
resul ta
consider ar
P ob
g ica
im plica
ter mes
esc la
reg al
perman ent
5 3
T é
a j
d ul
po esia
autor itats
D iu
re ts
ad os
prim ària
habitat ges
I X
en or
su g
den ún
trans formació
assist ents
N or
c àm
le y
me dit
pass en
present en
contr ola
regid ora
maj ors
l òg
ò mica
de partament
vi deo
20 00
car n
vehic le
bici cle
b ut
g am
po di
fonament al
ep is
cr è
dic t
ok ies
extre m
Ofer tes
proxim itat
ebo ok
M il
b um
v ess
on ia
can al
perspect iva
m estres
p eix
re conèixer
ge g
ven il
15 0
tri om
mir ada
mor ts
M O
f f
im plant
mo dels
esper it
Fer ran
pais atge
í fiques
par al
iu m
dis min
ju dic
cal endari
princip alment
aplica cions
Comprom ís
p ica
in y
com mem
aix ec
bl an
tin guin
especi als
tri ar
document ació
fem in
exist ència
Vall s
correspon ent
S O
c amb
f rag
en giny
on at
asc ens
bo ca
Pla ça
pràct icament
Reg ne
temper atura
F ar
a ï
h am
en qu
ad di
gu ez
act ors
ma il
apar ell
obli ga
Hospital et
perme trà
Minis teri
J unts
ad ministracions
ur bà
eix in
din ar
dol or
terr or
fic ats
br ill
sub ject
ober tes
Tor re
perf ecte
aliment ació
H an
p acte
is a
ex pe
Fran cis
reun ions
priv ada
conegu ts
Segu retat
xif ra
L ÍN
la des
ent es
me tro
bre u
In s
au dio
lli ures
utilitz ació
Ped ro
dif usió
T RA
ist at
Pro f
mic ro
mig dia
Alg uns
legis lat
x ic
ar tes
tin dran
últim es
òr um
compet it
prov ín
5 1
F igu
d ob
qu id
ac ol
DES COMP
Vil anova
MILL ORS
g ot
í tim
jo y
necess aris
resta ur
D os
c ades
j ecció
as signat
vot ar
afect ats
carreg ar
protagon istes
dispon ible
B an
M igu
ur an
gu lar
ació n
necess àries
dest inacions
Amb ient
ví deos
record at
sug ger
ò mic
rup ció
DESCOMP TES
T res
c ens
ge ta
sim plement
Sem pre
Set mana
domici li
f lex
qu ot
vin ent
nu cli
selec cion
G ab
ix es
ri ure
Ra fa
XI X
LÍN IA
S os
ct es
ac cident
Es ports
prepar ar
pis cina
Migu el
F eli
con ferència
In formació
Est e
celeb rat
confin ament
X ina
in nov
ta u
In d
tan cat
object e
jut ge
A br
i z
de x
em àtiques
prim a
I P
P é
T h
É S
re quis
om o
Com erç
pens ament
CI A
tir ar
respon dre
afeg eix
parl ant
adap tar
b oni
in k
cap í
Al z
reg ió
ban c
ben estar
mà s
consist ori
proteg ir
d arà
m l
s of
gu ll
for n
te at
port al
Per s
sor g
nov etats
ocu par
resta uració
comerci als
cus sió
quot idi
B é
k o
ex cur
veloci tat
% ,
H ol
f eix
refer ent
vari etat
T OR
an ual
independent ista
B os
T ri
c ell
d any
su ma
ti des
Di recció
As semblea
impul sar
enseny ament
b rer
c ers
pos ant
pres es
act iu
nom en
mo ció
200 4
escol ars
accep tar
Fel iu
faç ana
des cri
dis crim
gener als
grà fic
bot iga
consist eix
identi ficar
B el
B is
d ores
f ira
n as
est en
rel igi
M entre
S or
des per
No v
pi da
dom ini
Ra joy
E di
S ar
T witter
a igües
f um
m ons
id ad
cal ia
tan cament
Jo aqu
ber g
Pr at
ub icació
ordin ador
diput ats
Nú ria
I R
b om
resp ir
nor mes
mul ti
empresari al
vost è
R esp
ar c
pos em
te ves
pol s
hon or
Tan mateix
S ub
m estre
un da
con te
mat ar
cons cient
rel ig
Econ omia
Comun icació
àn im
Un it
cant ant
relacion ades
Mer cat
agrad aria
Ol ot
despes es
quilò metres
Pé rez
P O
f ol
è cia
es for
est ima
fer ències
pe dag
Re ial
fe ien
Pu jol
sim ple
CO M
text os
-- --
Ala cant
F re
x at
at ures
atal la
ven en
cr éixer
ilitz ar
àst ica
Tel e
licitu d
f è
i ana
va ga
gr av
fa cin
up ament
arri ben
hum or
anunci at
necessit en
plu ja
emer gència
P le
del la
im possible
ul ari
Est à
vin guda
gratuï ta
immedi at
. )
u alment
ha ure
si ció
200 3
Mol tes
dedic ar
serv eix
interpre tació
? ?
D a
G ord
J avi
P ic
T orn
g les
en cs
al çada
ci cl
on ze
est er
pre vis
tin dre
Es peci
of ia
teri ors
omb ers
G au
L ab
P D
f als
it iner
le z
co ps
tract e
llu itar
acompany at
institu ció
virtu al
A gència
P ep
V ia
c ular
h ar
i ona
r us
gr o
pod r
ofici na
prepar at
Xar xa
Administr ació
F err
L on
re conegut
ac u
dub tes
v ins
se cre
ve iem
realitz a
crip cions
quad ra
consol id
L lo
x o
de p
pro veï
cons ells
estr ena
mal ament
Seg ona
For mació
Al tres
ag es
Des envol
prob ablement
ref lect
càrrec s
espectac les
A g
ta cions
po eta
aut ob
labor als
econò miques
AN T
Ter ritori
foment ar
on line
pl o
La ura
Mar es
Mar ía
acc ès
estudi ant
apro vat
partici pa
Ad ri
oblig ades
M et
s ou
hist ori
Ma i
mu seu
A ten
E t
in ats
mar xar
Al co
tar dor
mo da
30 h
ON S
àm plia
or ci
ad ults
ant i
ver d
act or
Catal ans
terr assa
dispon ibles
obser var
b ran
ar que
plant illa
èr cit
far em
reun ir
exec ució
8 4
A part
V ir
con vivència
oc ar
pres os
av all
mon u
tradici onals
estran ger
P E
m m
mer cats
afect a
propor cion
infer ior
I mat
S it
al coh
an e
et er
Qu in
euro peu
N avar
h àb
di ques
ter res
ect or
Car rer
aju des
esport iva
aproxim adament
m úl
x iller
di d
em pr
ur t
com provar
hi p
mar ge
co g
cap s
defin ir
independent istes
A na
C ic
] .
Co pa
ciutad ana
àl bum
avan ç
plante jar
cadasc un
Super ior
p ont
ol í
il itats
TA L
alum ne
compet ència
afir mat
suc ce
passe ig
6 00
I T
an alitzar
am es
com uns
no ct
mar es
Al ber
id al
br at
guany at
Ci ències
a portar
c ho
dis posar
cap it
proc la
realitz ació
dedic ada
pint ura
Pir ineu
B ell
D U
F o
f ib
en ri
cion es
Consell eria
1 r
at e
ju ga
Qu ina
loc alitat
ef acció
Em presa
Soci als
elim inar
Igu alada
Fern ández
Gord on
G as
r estes
em magatzem
vis cut
arà s
sol idaritat
op tim
sub ministr
declara cions
S r
n ad
fil m
Rec or
valenci ans
espè cies
Nos altres
Francis co
w e
y n
di ents
gu ard
mar ques
co okies
sort it
ràpid ament
alternat iva
Jus tícia
T u
r estric
t alla
en car
re volució
itz ada
comp at
segur ament
v ella
ur n
ro da
cor rent
imprescindi ble
F O
H on
P ri
g ols
ad as
ib er
av in
lla t
cent ra
Prim era
estigu in
fís ic
9 6
N u
con juntament
man dat
Es quadra
lli urament
situ ada
Gu ill
aten dre
ale gria
univers itat
fact ors
AC N
bos c
teix it
resist ència
G E
f ug
k y
w a
an n
ten a
der s
cons ens
Mar ina
Nat ural
masc ul
A lex
M ac
ab ord
fa ig
condi ció
demos trar
provoc ar
capç al
G R
d estru
ill o
regid ors
ampli ar
8 5
C el
m ás
ac ollir
bar ra
ger mans
EL L
Grà cia
d ós
t ils
en foc
esc ollir
seg les
cal drà
particip en
fran ca
Tor ra
dirig ir
euro pea
control ar
inclou en
recla ma
inclo ure
adquir ir
barcel on
S eny
T eres
pet ició
torn ada
àr rega
conver teix
mus icals
professor at
arx iu
dè cada
circumst àncies
j ades
m ut
re con
ac oll
cor d
pass os
cr its
Est em
euro peus
posterior ment
fel ici
prest igi
P U
ï ts
es mor
or ació
no ies
deix ant
depen dència
obli dar
Ll or
cont ent
òr ics
Pres ent
demos tra
Am èrica
sec und
frances a
rendi ment
E u
i ors
as se
segu eixen
posit iva
gn òst
pil ota
R ob
V E
d ansa
e laboració
re for
res postes
fic ada
dit ori
sub s
grà fica
y es
ex act
car tell
dis capacitat
veu en
establ iments
Ri pol
traslla dar
blo que
D ona
D avant
M ot
P ab
e da
em ple
des car
su mar
te oria
cal efacció
Re i
apar eixen
ril s
aban don
nombr oses
a comi
o o
at er
le c
cl ic
ES T
sab en
lab ora
sor presa
baix ar
Pa ïsos
anim al
Pat rimoni
Prot ecció
xoc ola
xiller at
6 7
M el
c m
no is
ca ble
ca dena
ari at
dis positiu
ti us
peri od
esper ança
aconsegu eix
contract ació
Igu al
càm era
est atal
ad met
200 2
vir a
territori al
incorpor ar
provín cia
S ants
d anys
i ficació
tr im
con té
as il
por ter
An y
cam ins
edit orial
pressupost os
Sit ges
c obr
ò cr
ar bres
qu é
que u
ex pect
ra ons
car tes
all uny
fr ica
oll s
Euro peu
vul gui
creix ent
Constitu ció
menj ador
T C
a pren
ar ra
gu itar
aqu en
br ut
Pro du
investig adors
negoci s
Dis seny
A P
B all
D rets
N I
T ort
p te
r ats
an os
bas at
som ni
valenci ana
volu cion
vig il
lectu al
Sos ten
D ones
E dit
alitz ades
up ació
fet es
met ge
lí mit
ober ts
err or
ger mà
exem pl
indic at
Sol er
Ne w
americ à
sosten ibilitat
Pab lo
G a
a favor
e us
ve ig
produ ït
lle is
deci deix
elles a
social istes
sí mb
adequ at
despes a
espè cie
Mares me
G en
R en
c èl
h el
u ar
ò graf
que ting
form ada
Ar ts
pat i
paci ent
esport iu
convers a
B ro
d òl
i ar
ad ura
na cionals
tan ca
dat es
volunt aris
americ ana
introdu ir
execut iu
t ort
en ces
ll an
En guany
comp ens
br it
CA R
vat ori
anomen ada
Gra u
deut e
c als
c órrer
h ort
pr èn
del icte
me tr
ell ó
su posar
tar ia
pot encial
bar ris
mir a
trobar eu
conse cut
Set embre
xif res
Infant il
capaci tats
pregunt ar
satis fer
Guill em
dòl ars
6 4
L as
c è
t ari
tr op
ten dència
segu ida
forma cions
darrer es
mas cl
Rib era
resid ència
perm ès
restaur ants
V idal
en gan
cre ure
clar ament
AM B
propiet aris
A cció
M ob
S T
l d
l el
di da
ia ció
li g
vi atges
fer s
Al cal
mo d
aport ació
caigu da
afron tar
9 3
A tenció
O ctubre
b ils
t est
ad s
ab a
po drem
ven dre
rà dio
situ a
incl òs
institu cional
Dis sabte
instru ment
espec ífic
Men orca
riques a
emoci onal
Jorn ada
en em
os ofia
gu anya
den om
pas si
comun icacions
EL S
llen g
Vila franca
avant atges
capa ços
S el
S in
o i
ò niques
am e
di vul
pres er
rec entment
comp anya
don arà
lli ga
deix em
continu ïtat
lect iva
proper es
èx ic
contract es
pis os
habitu als
gre us
Bat man
C ha
ci als
ent ra
cap davant
inter canvi
pu jada
organitz ada
ub e
bus cant
demos trat
coordin ació
naix ement
7 8
F ut
e ï
les a
con ten
rà pida
Jo hn
catal an
labor ar
equip aments
celebr arà
vul guin
plante ja
habil itació
lleu ger
incen di
Teres a
b egu
ac lar
rec ent
col la
ap unta
tempor al
det alla
miss atges
plan eta
mús ics
equilib ri
ex ili
Al ba
pla ts
leg als
tant es
Est udi
inst itut
Pla taforma
univers itats
facil it
atur ar
quar ta
lleng ües
C rec
r adi
in ària
equip ament
apro vació
valor ació
tren car
integr ació
conven ç
energ ètica
vac un
emo cions
9 5
H os
S ER
h osp
qu estra
it è
per cent
com porta
gu des
ex posicions
ac ost
Mar tin
sent iment
art ística
pens a
din am
candidat ura
J ocs
m 2
com iss
Cons orci
social ista
Pol í
declar ar
despla ç
podi en
A ma
M ón
S il
anunci ar
femen í
6 8
R oma
S L
it x
am pla
ver da
difer ències
reb u
pens at
cul pa
cident al
víct ima
ompl ir
N et
k s
v ora
am s
op èdia
apar ició
err ània
exem ples
acord s
Su d
Sem bla
Espany ol
Gest ió
3 r
A us
s òl
v ats
è ries
per cep
con serv
vi gent
00 h
espectac ular
categ ories
Bl og
Pos ted
senz illa
perfect ament
V am
V AL
Y o
n asc
Í n
us a
ven des
pla er
ef ica
Pl an
habil itats
clim àtic
2 n
P AR
l ema
in en
ec k
dia gnòst
Tor res
càr rega
ofici als
gir on
relle v
procedi ment
amplia ció
D ra
F is
S ch
in dis
Qu ant
contr as
entren ador
Project e
Desenvol upament
C à
P ilar
ter cers
pre ocup
su brat
iv ar
comen cen
fra c
classi ficació
inver sions
I M
P àg
d ament
m ass
on is
le u
dur es
mer es
mos tr
sim ilar
fon dre
tip les
asc en
dig itals
Su prem
ibliot eques
Mos tra
avent ura
Fac ebook
B anc
P ons
f ór
h ero
á lez
vis uals
tar geta
mon it
Ori ent
__ __
Cin ema
em àtic
El l
Es cri
br ica
recep ció
requer eix
Dani el
Imat ge
M ur
t os
t ades
at ri
is os
edi cions
mos tren
grà cia
bi o
comunic ar
cient ífic
consci ents
inclo ent
Lla vors
intens itat
adapt ació
assessor ament
m ula
at ion
est u
di ri
sol ar
mà quina
canvi at
èc ades
tí tols
Can al
natural esa
íssim a
pub licitat
comport ament
A ll
J O
r ó
r ol
re cap
vi e
ist ema
entre ga
san itari
IN A
Ro ig
consell era
EU A
conser vació
G an
R og
g em
ú st
em at
il eg
li gència
cre ma
program ari
mos trat
Fer rer
Lli bre
Lon dres
P s
s af
am at
pl ana
rom an
establ iment
jur at
Tec n
xerr ada
Gonz ález
d ècades
en dres
tr enta
ct a
par ad
ac tr
dis tr
mo ure
òn ics
apar èixer
represent ant
Pre mis
expres sar
Pres s
Ten im
assum ir
mera vell
Rod rí
arquitect ura
mèto de
B ot
R ic
g is
pla ta
utilitz en
mil it
lleg int
dirig ida
avan çat
sembl ant
Rodrí guez
C H
D esc
H ar
d ics
u ació
À rea
en ge
ob tin
esp ir
pla u
respons ab
bal có
euro pe
determin ació
cost os
dific ultat
orient ació
prima vera
p un
de cret
un ió
gr ana
tal ent
acompany ar
Ch ar
exerci r
fl ors
protoc ol
Abr il
D ata
M em
S ha
S te
g all
h ui
l var
m pt
è tiques
ar mes
si ga
su peri
dis positius
cons ta
amp le
Pr omo
ún icament
roc k
Div endres
feli ç
Joaqu im
S eb
W h
è ut
or ld
pens ant
govern s
instru ments
agrad at
adolesc ents
múl tiples
B N
F OR
g im
u lat
y er
de gut
com and
com fort
ac ull
act ius
sab ia
nu tr
cost um
................ ................
A hir
M B
P od
V illa
am i
po gués
vis ible
alitz acions
pen dent
sí mpt
defin ició
clàss ic
aj uts
4 t
b allar
b atalla
r ada
rit oris
solu ta
ful les
Arx iu
Deix a
A gu
C B
C U
i er
es cap
an ce
re par
su cre
met od
mer eix
inf o
esper em
desc obr
199 9
integr al
òl ica
excep te
cadasc ú
y ent
as a
ir i
ec cions
mes a
pol la
200 1
pob lacions
fi quen
Ro vira
ret alla
Public ado
Rec erca
contribu ir
quip èdia
9 8
P on
s ín
ci ne
at ó
con vid
pro jecció
ra el
pl àstic
cion alitat
baix es
ris cos
condi cionat
espect adors
fàcil ment
norm alitat
nombr osos
denunci ar
esfor ços
P an
r ica
u ta
ge u
àn ima
mor al
consider at
recep ta
Camb ra
expli quen
Este ve
F estes
b ul
en e
is h
est o
Com ent
cr u
està s
organ ismes
Vic ent
Javi er
F u
I l
P lat
g ic
à cia
ñ os
en registr
re als
tr ada
ter ritoris
ab soluta
mar it
deix i
ing re
torn s
esport ives
encarreg at
circu lació
assenyal at
lím its
6 2
G arri
M ire
P ú
c oc
d ada
ï m
se min
ri val
ici s
lli brer
ofer tes
democrà tica
agra ir
cadasc una
polici al
F ER
d rom
l ic
m all
r ural
è tics
per d
ct e
ta xa
par lat
ri el
ll it
ola u
sim il
ce dir
Inter ior
plat ges
bàs ics
gos sos
infra estructures
requis its
h í
i la
t ura
u alitat
an om
ad quis
amb la
An dre
public ada
vell ó
auton omia
aporta cions
triom f
M èxic
R obert
a jus
b ó
ci m
or ge
in icia
as ti
ver gon
vis u
fin alitzar
col um
au les
rà s
millor es
mà r
sub vencions
utilitz ant
desc ens
valor ar
dist in
adequ ada
Oli ver
later al
testim oni
G re
f ia
v ades
ha ví
ca ixa
cre a
ús sia
ER A
Pr oc
cant ar
utilitz at
din àmica
Ll en
exist ents
mas car
estratèg ies
verm ell
complic at
J e
R iu
d ita
à ci
com posició
des pleg
vi des
der r
cin te
prom oci
CO O
munt ar
fra se
interpre tar
quar ts
C ant
a der
p m
se xe
ex pul
ari es
podr íem
Ripol l
D ocument
P ública
l ars
s à
ac es
tin yent
Mar tor
... )
pens o
priv ileg
Famí lies
Figu eres
N ic
R U
c ha
c oberta
v ital
an ci
re tr
pro posar
hi pot
contr ad
inici at
25 0
desenvolup at
dig n
comprom et
electr ònica
cient ífica
Br us
crí tic
explot ació
denún cia
D ret
I sab
W il
e a
in qui
est àn
del ictes
Qu im
sal var
dig it
comptar à
bis be
j aments
p ics
ent én
is is
us ar
su la
Es cal
fin anc
aca ben
Cons ulta
afir mar
pan or
Bl an
escr ita
b ellesa
k es
al erta
or gull
am os
ia go
cor rupció
lli g
consider en
concep tes
fru ita
progr essi
' "
u ari
situ ar
tel ef
Pres ident
On tinyent
vaix ell
bicicle ta
Pàg ina
C ru
c obrir
es ports
an irà
in vest
res cat
au di
Di jous
Cas al
dest aquen
guany ador
cur ios
pil ot
començ arà
elabor at
retir ar
xique ts
brill ant
xocola ta
C lar
I G
M ass
n arr
p act
s amar
è mica
ant ics
ex hib
Jo ve
asp ir
quel com
Ri vera
perfect a
rò quia
7 7
C R
D in
J uny
V ill
ab st
for en
In vestig
aut ora
Est ic
sal es
organ isme
err ors
carre ga
Espa ña
profess ora
c ú
t op
y st
em issions
li d
ve la
st re
po dreu
sol itari
!! !!
fal tar
modi ficació
cab ell
dimen sions
Rub í
Àn gel
Rafa el
B às
B ages
E X
J ap
P V
P oble
f acció
m ina
or í
est ad
par à
ex èrcit
vi ola
pot enciar
can als
trans metre
lect or
vot ació
arr os
San itat
dot ze
elabor ar
ogrà fic
pron unci
Isab el
par ada
ver itable
segu im
rer es
dest inat
negoci ació
tran sició
relle u
Lleg ir
Crist ina
1 20
U su
n eix
en ce
no i
èn ia
iv itats
mat rimoni
co vid
itu ds
id o
form ulari
estr ella
fun cional
lle tres
rela xar
Uni des
facil itat
independent isme
enseny ar
bà siques
IC V
Ofici na
contam inació
legislat ura
trim estre
B O
Y A
re ac
it em
per tin
ad ia
ca va
tre ts
lect ors
caus es
Mo di
expres s
accep ta
asseny ala
alternat ives
sindic ats
Fac ultat
repart iment
E ix
T aller
p ac
t ò
de ria
em bl
ac le
ve ient
ect ura
me ta
cl ín
Ar que
fe der
Man el
ht ml
escript ura
sola ment
Espany ola
Arag ó
transpar ència
haví em
E va
l y
v ament
ar ti
ac í
der rot
inter n
Jo ventut
coment ar
mon ar
cam inar
Camp us
Aut or
detect ar
fen omen
B AR
C iu
j er
r um
al isme
pot ència
nov etat
exerci cis
impres sion
implic ació
Direct or
alcoh ol
G el
c ed
i i
i ficar
as semblea
pro voca
tar on
pla s
ren unci
rig or
efici ència
priv ades
agrada ble
marc ador
ogrà fica
repet ir
B ru
I b
n ena
Á lvar
ar en
ri da
iv o
ne gres
lu les
trans missió
dor mir
Gu ar
RA N
Col om
cient ífics
club s
Jus t
Aten eu
Seb asti
b ro
d an
f ull
r ut
in ser
ass os
rec órrer
fi del
Mol ts
doc ent
cooper ació
inaug uració
compon ents
centen ars
enor me
9 2
A y
p istes
w o
À frica
de dica
re pressió
se qü
ex pan
ell à
Mar ç
art ístic
De f
continu en
tur ística
mò bils
sex uals
amena ça
Rog er
B ala
S h
ad vocat
ra on
ess ar
ess encial
mo de
Sant iago
op tar
interess ants
IS BN
instru ccions
partic ulars
influ ència
Ví ctor
ècn ica
N E
X XI
Y ou
b ell
n ic
al tes
at oris
que ix
amb a
pl om
peri ò
dest í
esper ant
ron da
fig ures
propor ciona
bloc s
fel icitat
S ols
U AB
l ú
l and
re acció
in do
li des
cos sos
dar d
Un s
Ar gent
sa ps
pob resa
aprof un
enlla ços
òleg s
solid ària
Hor ta
tau les
capí tol
8 6
D ades
V ent
com partit
pos icion
sent iments
sig nar
Vi quipèdia
Pa ul
ofici nes
parl en
parl em
At l
publica cions
n ia
í cola
es bor
re dacció
in et
us ions
pres idència
me z
ja va
cons ult
estr elles
lleg it
espanyol es
Reg id
ik i
atac s
prè viament
Jorn ades
mecan ismes
impost os
aï lla
audio visual
Prof essi
A S
A li
C orn
I r
J er
c ob
l ot
r utes
t witter
– ,
es es
es ió
est os
tr ic
En seny
fin estra
voc ats
permet i
manten en
establ ert
Rec ord
Ter res
tele vis
númer os
correspon ents
doc ents
saluda ble
H om
L S
M AN
O ber
a for
k ing
con ferències
all í
... ]
cin quant
guar da
sembl ar
circ ular
sob iran
legis lació
connect ar
propiet ari
freqü ència
elèctr ica
Diu men
Feli p
7 00
> <
V ella
l em
am o
par cial
port ada
pot ent
Un itat
estr any
sal tar
trans formar
prot eï
sig n
company ies
regu la
nú m
hor itz
conegu des
Is rael
elèctr ic
avin guda
esmor zar
europe es
superi ors
D ill
c ra
g ira
s èn
it i
ur bana
ac cel
car i
fic ant
ag enda
set man
tim a
tor re
her ència
fl or
quad re
arx ius
Ger ard
Oc upació
eng any
L lar
b urg
c em
l à
p òsit
en demà
it ada
se ca
ad onar
ad judic
ur en
as set
den uncia
co re
bé ns
TA R
sur ten
Cat eg
entren ament
respect ivament
esquer res
simil ars
p ing
in fin
pres ump
me ves
me dic
Es ta
Par e
deman en
Ser à
bal anç
Actu alitat
consul tes
fant as
moder na
Ri era
màr queting
z ero
as es
im porta
cre uen
ju venil
can via
ban dera
tall ar
199 8
establ er
infant ils
concret ament
impe dir
Famí lia
assignat ura
dep èn
Diumen ge
A da
B any
G ru
H is
b ac
e or
m í
est eu
di eta
ex cus
vi an
pre ocupa
mat inada
sor te
incl osos
sembla va
individu als
correct e
norm alment
percent atge
derr ota
B es
H ern
J an
u ir
ï n
la va
qu ing
at o
ag o
tract aments
pat it
pas sió
gest ion
represent en
òl ic
Ob ser
reno va
Dim arts
acol lida
d estr
e val
p à
gu e
par ets
pre vent
esc ult
cer ves
sin gular
dest inació
destac ats
bot igues
incorpor ació
Aut ònom
deb ut
period istes
C COO
b el
en dins
un ir
est abilitat
su au
Al fons
cer vell
inci dència
oll ers
bas ada
ula da
Cor ts
viat jar
correct a
enca ix
equ ival
líder s
tradu cció
Gab riel
haure m
exact ament
Dill uns
( @
f alla
er os
ar bre
re visió
amb dós
le ts
le tes
ins cripcions
En giny
dis cussió
tem p
ofer irà
Mont se
començ ament
reno vació
crí tiques
absolut ament
vess ant
Brus sel
B ur
R ússia
S igu
p d
de tingut
on ant
in ades
os sos
im m
im posar
ob tingut
et o
ec os
molt íssim
19 36
sal v
pat ri
ban cs
Ma y
As s
comple tar
far ia
ambient als
fact or
geg ant
efica ç
C F
D ar
c ement
re cinte
us ia
ori als
prepar ació
creat ivitat
crè dit
Present ació
7 2
n um
r y
pos arà
vers os
sor tides
assa ig
Co oper
podrà s
escen aris
recep tes
desenvolu pa
Alz ira
Seny or
b ull
ct ora
vi dre
cor ri
av ís
produ eixen
inci al
sal t
ili ari
sor oll
realitz en
rela x
def en
Col oma
Tor rent
gru ix
acompany ament
Mer cè
elect orals
temper atures
genera cions
Martor ell
L eg
i eu
v il
al ts
el e
or o
ic t
com posit
esc ales
empres aris
tur ístic
IN S
manif estacions
intent a
determin at
Vol em
fonament als
confl ictes
barre ja
Dol ors
immediat ament
secund ària
nasc ut
ci ment
di aris
ri us
mar x
ro des
pol i
cat ed
sent o
sal ari
fe deració
bas a
treballa dores
quer as
Ur ban
bàs quet
resi dents
mani pu
Tort osa
8 00
G ol
K a
T ag
c hi
k et
bl anca
Ar tur
hab ilitat
tri ques
apro par
pes se
ciutad à
hor aris
confir mar
acadè mic
lòg ica
camb ra
Especi al
diagnòst ic
símpt omes
Llen gua
F oment
n al
p í
com er
ob s
ver sions
ici es
pre vista
Ar en
estr en
Con curs
udi o
Di ada
product ors
esqu ena
determin ar
comb atre
idi oma
fund ació
perm ís
7 9
: :
G ó
H O
L iter
N acions
X à
h is
is ió
se mi
ant igues
ir regular
il ia
le ta
par et
soci etats
form ats
ofer im
mot iva
Ac cés
C S
a fa
x os
ant ena
ec res
cin emat
sim b
camp ionat
vest it
ind icacions
UN I
gra us
Dim ecres
inqui et
B loc
G im
M ES
R af
W orld
l ència
r am
li gent
trob ades
jo gu
anar qu
LA N
Co ordin
Em pres
Audi ència
arti fici
C V
qu ena
par elles
li ar
ex er
ve í
pa ga
reg lament
cr on
inf ect
estar an
san itaris
exist ent
gre ix
alem any
enfron tar
lingü ística
finan cer
A z
H il
M S
T aula
g s
g rec
in tr
im mun
ve ia
jo ventut
enci at
and ro
Pol it
prop òsit
conta gi
jut jat
recla mar
correct ament
autom àtic
circu it
reci cla
ingre dients
C í
G arr
L in
M EN
a jut
c ull
g nos
pr u
itz ats
po ema
iv at
au x
present arà
incl usió
ger mana
propi etats
cont ín
person alitat
trib unal
determin ats
Gran ollers
judi cis
Llo ret
hàb its
N ació
È N
en mig
di m
su posat
enci cl
Ar ri
ON G
Ro ja
Ch r
guar dia
modi ficar
propor cionar
introdu cció
excep ció
oblig ació
clàss ica
mag istr
TU RA
human itat
restric cions
A V
B ona
C las
R ambla
o est
on er
tr ama
eix os
Re al
activ ar
represent ar
efici ent
CE T
mò dul
difícil s
origin als
crit eri
omb ra
Au ditori
B ol
D ins
P ont
or at
os itat
ad r
ig n
af icion
can cel
ne gra
realitz ades
fil osofia
fica cions
baix os
munt atge
ner vi
dibuix os
còmo de
Af eg
Nov embre
Adri à
Cic le
Bala guer
N it
V ives
p unta
z ena
re habilitació
pr os
cre iem
mer ia
sor prenent
Camb rils
acomi ad
Jap ó
C amí
D al
P h
S am
T ir
li ds
pre vi
En er
In sta
trob ava
Con eix
torn eig
of t
constru ït
Sol id
dr ell
Ber nat
aban donar
alar ma
và rem
Tem ps
metro polit
llan çar
M edit
S us
la m
em bol
ur ia
esc ollit
ro ca
pass arà
fic ció
ag ent
ed o
trob o
Re vista
Tot a
seny al
din à
medi cina
democrà tic
declar at
efect iva
Jun queras
plani ficació
Ín dia
M c
O B
P om
U T
w ork
ï a
ò riques
at ès
ir o
car t
mar t
tin drem
cl ima
An dr
sab eu
record s
expl orar
liter ari
mín ima
espec ífica
viv im
acos tu
immedi ata
mantin gut
6 9
L loc
W e
l in
m ari
v als
re us
os ament
ca fè
El la
ab sor
pl ens
ju bi
cons ent
prof essió
ital ià
aju den
munt anyes
augment a
àst ics
anterior ment
Med iter
8 9
S ent
S err
c obertura
k er
l via
w er
at mos
re iter
ur gent
dis fres
exist eixen
quant es
fron tera
vice president
certi ficat
A cad
G I
I gn
P oc
x ines
de tin
re volucion
ur nes
pre ten
pre ocupació
prom ou
mir ant
assegur en
garant ia
dist ing
clàss ics
exclus ivament
Gó mez
g els
s sa
ò nies
en cert
re forç
in formes
it h
as segu
des carregar
ec h
ll anç
man n
vol tes
hist òrics
lle tra
baix ada
Tr ad
afect ades
candi dats
avant atge
Alg unes
compren sió
mod alitat
A ca
B y
G il
l itat
s elect
er ies
gu eren
part id
pre venir
tem àtica
gram unt
poder s
realitz ada
cent enar
nor ma
Vic enç
acos tar
terren ys
Gl ob
fitx er
certes a
Alco i
A gust
N eg
t ament
an uncia
or r
ot xa
met ges
tan cats
ne ur
sor gir
Am ics
Prim ària
Ur bana
asseny alar
satis facció
conser va
refor çar
Modi fica
Enseny ament
A prof
D ía
F P
for ts
itz en
ga udi
ho p
ne z
ili ar
trans cen
Ju liol
condi cion
afect en
redu ït
mob ilitz
expl os
bos sa
recol z
Part icip
cà meres
Lleg eix
adop tar
assass inat
proce dents
Llor enç
rebu ig
actr iu
F ort
L ib
M às
M ENT
Z a
a just
a preci
ñ ez
ot erà
con junta
pos i
pa velló
ins cri
pen dents
cu a
torn arà
vin guts
porta va
tu a
terior ment
Camp ionat
comb inació
sembl en
compar ació
Por ta
malal ts
autònom s
Ven drell
mèto des
abs ència
anom ena
C s
C ort
F abra
P ass
g lu
ci st
at ro
on eta
par ròquia
ig nor
ins ta
esc or
dis cut
Al iment
id at
val ora
Ar nau
Re public
vin cu
oper acions
autor itat
contact es
guar dar
extre ma
minis teri
Act ivitats
ésser s
encicl opèdia
Insta gram
G i
P reg
[ ...]
d y
t amb
es os
an uals
im pressió
ul ant
ab et
pl or
po emes
pu ja
Ar quit
trans met
inici alment
prot esta
CI ONS
serv it
esdeven ir
liter ària
condu ir
vet er
fund ador
vig or
emer g
hosp itals
6 3
A llà
E ur
J x
M à
t èr
in drets
com bat
ll ançament
af ric
pot enci
min i
og ar
mà gia
inf ància
haur íem
camp anyes
bon ic
AL S
àl cul
fos sin
patr oci
sensi b
rell ot
símb ol
comer ços
Ign asi
á r
itz acions
na val
men ú
Bar ri
Car men
explic ació
regu lació
garant eix
univers al
Bl anca
deleg at
recomana cions
suspen sió
afavor ir
atri bu
Promo ció
C ur
G O
T ru
Z ona
b ord
m ita
s ons
y e
de di
un ten
ad à
tot alitat
In novació
loc ar
ap p
obli da
AN C
dr am
cò pia
elev at
republic ans
proveï dors
Gan dia
A mer
e jar
pr a
ic ada
ll istes
inter vencions
pol is
Bar ber
soci o
An tic
pat eixen
resul tar
lim itat
necessit em
obser va
acus at
reda ct
Navar ro
accel er
A les
G av
J A
N ecess
O p
u cions
pr iva
con grés
im peri
gu ió
des comptat
ed ats
fi la
san itat
manif estat
Pas se
solu cionar
nar rat
imag inació
retir ada
industri als
pract icar
epis odi
Sel va
Usu ari
C ad
H el
M is
P OR
R T
T ampoc
d us
g ama
l an
ò miques
en dur
aqu es
sol en
ed or
cu al
ban des
trans vers
sor ra
guany adors
graf ia
regu es
manif estar
quad rats
fron teres
agrad ar
dimen sió
màs ter
abord ar
expect atives
mascl ista
vian ants
% )
D istr
I ES
V ER
m ix
m ès
en va
en amor
it uts
ur adament
te grat
pat eix
Con ferència
veure m
Cons um
Estat ut
dom in
condu ctor
Div isió
informa cions
acre d
atract iu
medit er
implant ació
Alber to
D en
F ab
H ola
n est
com anda
im o
pos se
don i
and ra
prob able
mon estir
esport ius
diver tida
energ ètic
fabric ació
destin ades
fitx ers
lum inació
discrim inació
did àct
milit ars
responsab ilitats
T T
n its
z on
é nez
di visió
En t
pe dres
ana ven
form ant
igu als
reg is
Des embre
eta pes
sig nes
not es
cad ira
conven ient
Bl anes
Sí lvia
Os ona
Rom eu
blau grana
Ps ic
P ens
d rat
Í S
ò tic
ar gent
un als
tr ist
par ades
ex cessi
ab oc
bar s
cat àleg
arri bi
lle ure
úl ia
CA P
Ex cel
tur istes
interess a
especial ista
impul sat
idi omes
relle vant
opin ions
XV III
Mill or
llic ència
contem pla
P ost
b et
g ans
i ve
n y
ï des
ar ro
an isme
des pat
vi us
sal ó
direct es
san itàries
interess ats
afect at
facil ita
Cr isti
bàs ica
argu ments
Ru ta
femen ina
Dec ret
Igual tat
Je an
oterà pia
A gramunt
à pia
qu és
di fondre
vi vint
pre visió
In f
ag all
entr at
sab ut
fà brica
veï nes
Gr ècia
consum idors
Mos trar
dispon ibilitat
despla çar
agu ant
Princi pat
Edit orial
Polí tiques
espir itu
indo ws
L ic
d as
n adal
r ents
re ver
in v
ent ar
que di
car es
In cl
torn en
Val encia
esper en
voc ació
dona va
bu it
quin ze
coordin ador
increment ar
registr at
avalu ar
convers es
Garr otxa
D et
D IA
F al
F un
F ES
R em
a près
h ol
p ita
r ama
s oc
en ll
on ades
con su
ig ht
pu ta
ofer t
ui z
especi alitzada
CA N
Bo i
pais atges
pd f
8 1
A noia
H A
M es
O br
R oses
h ig
ad h
ur i
ac ci
ten íem
iv issa
rec oll
19 39
fam ós
som riure
199 6
disseny ar
Reg ió
foc us
espec ífiques
americ ans
97 8
dispos en
licitu ds
decor ació
immigr ants
gam ma
fór mula
orí gens
A gen
B et
G ent
R esta
c àlcul
f all
v iment
ò pera
an iran
re trat
ent err
pr estació
con eixen
ca i
ist ia
lli bert
actu alització
super at
priv ats
constitu cional
pròxim s
dro gues
dict adura
addi cionals
vigil ància
- .
D est
E B
E P
F à
F ons
M è
S ta
n ess
s int
v èn
in cent
un g
di rec
ell o
vis itant
cu ció
tan cada
inici s
mis teri
escri u
pon ent
disseny at
educat ives
aprof itant
C EL
F òrum
G B
G C
J im
b iblioteques
v s
ar ch
com post
ter ia
pos ats
port arà
esc èn
itu ció
fin ca
pol èmica
br ot
labor atori
incl us
desc obert
òs its
Mol ins
Rib a
Medi cina
magn ífica
perfil s
config uració
acoll irà
dign itat
8 7
K e
S ort
a companya
qu era
re vistes
per se
est ils
itz ades
part í
cion alment
col es
min im
igu alment
An dal
Qu al
Ar rib
fe ines
mà quines
ou se
Fran co
tri at
Cal ella
bus ti
òr gan
esport istes
UN A
imag inar
distrib uï
Organ ització
relig ió
Plat ja
Autònom a
E T
M essi
P in
R eb
p èl
u e
se ix
pa ges
vol ien
Mar agall
Com ú
mo u
ES CO
professi on
cul min
gau deix
Mon ts
concre ta
Fern ando
Constitu cional
aixec ar
Bos ch
cell er
m als
ñ ol
de res
is e
si us
ac er
itz ant
pen al
Euro pe
medi eval
jug ant
mu seus
relacion ada
efect iu
comod itat
blog s
profund itat
Hab itat
distr icte
J ack
R et
R ed
U b
c edit
de la
tr àm
com pres
as tre
le ccions
pro vocat
pos o
pres encial
pa pers
man ual
ín cep
arribar à
cur ta
Actu alitzat
tram s
sens acions
Port al
constitu ció
concl usió
prior itat
lider atge
privileg i
vèn cer
tràm its
? "
d é
ci cles
re producció
sen der
prim ir
pen jar
val ent
Cons ul
realitz arà
Ci ència
record o
dirig ents
dedic ació
fort un
definit ivament
plen ament
solid ari
refugi ats
digit alització
Medit errània
P RE
b ombers
f òrum
k g
u x
ï ble
les ions
com busti
amb dues
par cs
fer m
port à
co pa
ones a
bat eria
autor ització
dom èst
199 7
prepar a
dirig eix
Edu ard
respect ar
bàs ic
dany ola
monu ment
adquis ició
D V
F r
G em
I gles
M ant
O pen
V iu
l ong
… )
ar ma
al er
re tornar
am istat
est í
as h
den ci
ess ència
alitz ant
prés tec
lli urar
ing o
dos i
esper ava
apro va
refer ents
òr gans
ine us
incorpor a
reflex ionar
concl usions
diver tit
dè fici
gla terra
naveg ador
accessi bilitat
Regid oria
Màs ter
C olau
E lec
V ox
W indows
e j
o ut
v ina
am iga
tr in
pro grés
ab und
pos ades
ac or
iv als
id ament
ord res
àn tic
sent en
agr icultura
ces a
product or
Pro v
conver t
199 2
reser var
cooper ativa
Me tro
Agr icultura
gastron omia
teat ral
quotidi ana
excur sió
emple ats
Fut bol
O lím
R IA
de c
re port
am ós
ad her
com prendre
ir ia
ver tic
ra f
st e
ig ar
den s
hi dro
Qu art
lu xe
trans ferència
alt ura
refer ències
intent ant
reser ves
Coment aris
taron ja
Sigu i
7 6
M ons
c èn
p ats
er na
an ul
tr ica
di ria
va gi
si ble
ex posar
pre ce
dis cre
cre ada
seg ell
der roc
fin estres
ag ència
leg ítim
An ònim
ín dex
difer enci
contin ent
inf ecció
labor adors
grà fics
mil ió
anim ació
Mo der
exper t
UP C
accep tació
identi ficació
excep cional
ern itat
sindic at
guitar ra
Día z
A ran
B lu
J ames
v és
ò tica
at emp
re partir
re formes
est ab
est ètica
as ta
oc e
cas ar
segu idors
àn ics
pi ano
prom ot
coneix em
continu arà
determin ades
anomen ar
Cer danyola
escript ors
fas es
Van guardia
vulner ables
Fis calia
convid ats
* *
8 2
F eb
T all
T àrrega
l ents
al ició
qu ota
em pla
ur b
us tria
me d
ten gui
ja zz
pol les
present ada
An glaterra
Qu atre
cu da
lo ga
Cons tru
bus quen
som nis
Edu cat
confir mat
intens a
Tom às
Esper em
. :
B CN
S ANT
U GT
b ack
é r
al ista
re ben
in no
it is
it àriament
ell er
ll its
ten dències
su pl
alitz en
cor reg
min er
ís ica
esp at
sab or
desc en
cont un
defens at
expres sa
subst àncies
reflex ions
Pos teriorment
pleg ats
deleg ació
infra estructura
XV II
cí v
disput ar
itiner ari
cai gut
8 3
D S
E li
M U
S ev
S uï
g ació
i lació
v ells
À lex
ï na
ar reg
ci à
ol or
ess ent
tin ent
inter iors
Car ta
Cons er
òg ica
desc obreix
const at
especial istes
avan ça
comar cal
associ ats
convoc ar
Ind ustri
exempl ars
9 1
w p
Á n
an ot
gr essos
La ia
port em
dia gnos
bar a
An gel
tract at
envol ta
if ica
jus ta
arr òs
favor able
carreg at
Ber n
fant àstic
sob ir
A ula
B AL
B uen
M ora
M ER
R uiz
U t
a pas
h al
r ics
t ex
re ina
am ants
di us
com una
ig en
cal dria
deix o
ben vinguda
CA L
of en
investig ador
garant ies
acompany ats
edit or
bos cos
escript ori
corre dor
extraordin ària
xic ot
conten idors
Ric ard
kes pe
arros seg
9 00
B ut
B ombers
S ara
l ó
ad mir
di ària
em àtics
act a
pa gan
En lla
dis ta
cion ari
bar b
dem òcr
gener at
Con ver
15 5
reb aix
din tre
fot ògraf
neg ar
deman des
cul p
Pal amós
esde vin
Rec urs
llum s
relacion at
Ver da
efect ius
judici als
fib ra
rellev ants
Sha kespe
mall or
Mediter rani
Suï ssa
C ot
M ÉS
c res
c ana
r als
es que
es com
en capçal
re tes
oc ells
part eix
ec s
su ï
sent its
inst ant
fun da
Ex ec
centr als
AN Y
manten int
arr els
trib ut
ros sa
DEL S
inver tir
polici als
Mus ical
escr its
èst ies
Trob ada
testim onis
autèn tic
expe dient
plata formes
" :
C UR
F am
P all
r osa
u ela
de gust
gu ed
li p
ne y
lí quid
EN S
of f
propos at
ger ent
permet in
treballa dora
vot at
valor at
esde vé
vari etats
agra ï
diput ada
hon e
Pir ineus
sensi bilitat
past is
subministr ament
sorte ig
Shakespe are
( "
9 4
F ou
P aco
m n
ñ as
ú tils
en viat
at em
pr ol
di à
as tr
im itat
cre ant
vis itat
pol ogia
An g
ofer int
acc ent
pens ava
rela ts
Ma ig
treballa dor
funcion ar
integr ar
Ber ga
rí cula
concl o
Act ivitat
Mir ó
quali ficació
Obser vatori
Gem ma
A ur
I lla
M estre
or y
ic e
inter acció
cal cula
Qu ins
ín sula
pens en
LA R
incl oses
TA N
format ge
afect ar
quant itats
dol ç
polici es
xerr ades
jurí dica
servi dor
acost um
Habitat ge
B il
T ol
T inc
e des
g ala
m p
n on
t ge
de fici
am pl
des af
ex tensió
tre u
esc alada
tem ple
vis ibilitat
Qu er
estr enar
Jo ves
vin tena
mos tres
defin eix
contact ar
toc at
confir mació
denunci at
Fl or
To ur
immigr ació
addi cional
histori ador
7 3
D uran
u gues
w ard
in tegrat
que z
est adi
ot i
gr ava
ten iment
hi per
au dit
don ació
Sant i
cin quena
pas ta
tor ni
incl osa
ún ics
199 4
Vic ente
aprof it
indivi dus
Br asil
registr ar
Contin ua
acre dit
contempor ània
but x
cart ells
A RA
E ivissa
I VA
M ent
M oll
S ag
c ors
g etes
s car
ç ades
en vers
re per
ol la
ur gència
ha us
le ga
pro vat
ut ube
ex president
tra cions
dur à
cr ònica
sub venció
centr ar
Can adà
far mac
Pal af
aliment ària
evi dència
adap tat
avent ures
mús ic
procedi ments
Acad èmia
Agust í
Qual sevol
C art
D ep
F ra
e o
f reg
í as
per que
ll er
pla y
actu a
agr o
mer ca
and al
pob res
contr ast
tu al
centr at
obrir à
conta gis
199 5
acompany ada
univers itari
fact ura
excl usió
Cl ara
Eti que
substitu ir
condem na
recoman able
finan çar
corri ol
Ales hores
C P
C lo
P ara
c ro
g à
g ana
que darà
con vida
pa quet
pass ava
form al
prof unda
pren en
sos tre
particip ant
mon o
Pla y
ron at
bàs icament
sindic al
Hu mans
reivindic ar
obliga cions
Mire ia
7 4
H am
I D
M n
S ín
S istema
U l
b est
m ural
ú ria
ab on
ven ia
ju gat
fin anç
pen sem
met eor
ne vera
lat ge
nov ament
assegur arà
explica cions
ides a
én ia
exig eix
trà mit
agra den
urban ització
separ ació
quí mica
apunt ar
incen dis
Bra va
preser var
vergon ya
Án gel
f isi
j ors
p tes
ç ò
un eix
ent o
pos teriors
entre vist
dic ció
nat ur
gram a
br u
cri dar
escol lida
trad icions
ordin adors
Tr ump
caus ar
person alment
tol er
pròxim a
vet lla
arquit ecte
parlament ari
jurí dic
Tele visió
Mob ilitat
llibrer ia
aprofun dir
cinquant a
Bany oles
His enda
J U
S itu
U d
V ida
t ones
an ista
in se
com an
ex amen
part ides
mat emàtiques
ho w
camp ió
nacional isme
ug al
tas t
estim ar
Reg lament
Ob ject
rí cul
fres c
concre tes
Juli à
tom à
extraordin ari
vaix ells
noct urn
samar reta
Sebasti à
A U
E D
F ol
R ad
T ro
d am
n é
w ay
x it
en derroc
re me
ot ip
des de
aqu el
vi al
eix e
na z
19 80
pass ats
don em
Re is
organitz en
bat xillerat
estar ia
realitz ant
seguir à
clar es
neg ativa
Ex posició
tur ístics
not able
interess ades
Ju venil
ama ga
vo reix
funcion aris
36 6
quar anta
Cam ps
deb ats
freqü ents
frances os
indi quen
naveg ació
implement ació
capit à
panor ama
cerves a
Raf el
consent iment
Barber à
Passe ig
dèfici t
B io
M ira
W ik
t y
les ió
con form
tes is
id ura
Mar ató
Com itè
pla ques
lli ç
lla c
direct ors
rit as
CA TAL
guany adora
ient o
conver tint
augment at
arrib em
mè dica
fis cals
encant a
apunt at
destin ats
veget ació
retalla des
rícul um
? .
B ig
S ig
d ing
e volu
m ada
v ola
ò b
es got
on da
con centra
amb aix
ter rat
ec e
Es tr
pu guem
ed ors
cu id
Con cert
Car acter
gi des
super a
escol ta
Cal af
pes ar
pes ca
mus ul
199 1
consell ers
bot ó
Port ugal
traslla t
obligat ori
---- ----
percep ció
abst en
Def ensa
afor ament
Aren ys
Cí vic
Recurs os
, ...
F us
M ich
R us
S is
T on
c ents
e fic
u pa
à ut
en cen
per ceb
di ada
di pòsit
em iss
im er
ha y
mar cada
entre vistes
Al ter
ro dona
dur ar
gener alment
ER S
jar din
cur i
interess at
fí siques
definit iu
concl ou
equ iv
fru its
ful la
convi dat
bur ges
eleg ant
Do ctor
autèn tica
frac às
inser ció
Argent ina
C EST
E FE
M entr
N S
a k
c edi
in dret
ad junt
ob ri
ob sta
des ena
pos ava
ser i
aut ò
Ar ch
inst ituts
camp us
Gu ia
neg ociacions
Or questra
trib unals
indic adors
PA S
fos c
entorn s
atur ada
det ecció
bos ses
pint ures
sob te
Bat xillerat
auto determinació
requer eixen
coinci dint
Mari ano
sufici ents
nete jar
desapar egut
exclus iva
Cast ella
discipl ina
provis ional
femin ista
desper tar
wo od
Professi onal
asset jament
ÈN CIA
priva citat
Mentr estant
6 1
D L
E I
F la
S tan
V O
e k
m ú
p è
s amba
w in
en lloc
al leu
ci ts
ut x
eix a
for at
rec ollit
Mar cel
Un es
Con tra
sor prendre
cri pt
coment at
Seg ur
hu manes
explica va
exig ir
resid ències
Bla ck
esca par
franqu isme
enqu esta
afa voreix
Agen da
6 è
H it
M ON
V IS
X VI
r est
im provis
par at
pos sessió
ver dures
for estal
dis posat
Con tr
tru car
fr us
Car dona
aca bi
mitj an
ien e
Gu in
mir all
AR I
habitu alment
org ànica
Ba y
curt metr
contem pl
alliber ament
Wil li
Republic ana
A ju
G ro
P reu
À sia
ent us
con cessió
ca ire
gr os
tin gués
co pi
fr ut
lle vat
seny als
compl ert
cir ur
dol ça
participar an
lim itar
Pl ana
obser vació
civ ils
Juli eta
vit am
pèr dues
bra ços
AD N
Hol ida
Ag ost
Ober ta
Hern ández
apas sion
" )
7 1
? ,
B B
C lín
D escrip
S ecció
T x
b ir
b ella
x 366
er mita
qu a
on í
in du
si ves
oc cidental
rec ents
don ada
cer car
possi blement
depen ent
fil s
fil les
compet ir
Cer d
Port ada
trà fic
execut ar
experiment ar
Vis ita
Hu man
condem nat
etique ta
fir ma
descri u
metod ologia
financ era
Igles ias
Sev illa
3 D
J orge
f ur
i P
i ents
x en
de mar
an si
in as
ig ó
eg ar
seg urs
cos tar
pu bli
sol dats
reg ions
cr ist
cin què
sin o
to do
cult ures
llar gues
aju darà
Vi at
Can et
qüest ion
aga fa
dut xa
implic ats
patr ó
evident ment
emprened ors
mur alla
religi osa
drom e
expan sió
Gru ps
1 a
H ouse
L í
w as
Ú l
… .
ci ències
om è
ig s
ll ars
rec re
sen cer
ro qui
In tegr
produ ccions
fr ases
lleg enda
espect ador
corpor al
Ja zz
indic ar
Dis pon
fant àstica
lit res
classi ficat
Comp any
rè cord
Ban k
invest idura
motiva ció
Lic eu
S ota
U C
V eg
u at
ç ament
è ric
en de
oc or
ser ien
pers ist
An ti
seny ora
lect ures
apro vada
bon ica
alcal dia
gal etes
QU ES
ingr ess
CD C
vincula ts
Sosten ible
consecut iu
trop es
cement iri
. ).
C ER
F all
F ísica
P RI
m y
m asses
s als
u plo
el o
at rib
it iu
ic ció
va gin
ob edi
ec ològica
mat rícula
co alició
rect or
Sal vat
Ma x
tempor ades
públic ament
Ex ist
fest ivals
be ques
signi fic
gir ar
caracter ística
conser var
periodis me
vulner abilitat
exter n
Ap p
Contin u
revis ar
nomen at
Resp ons
acu dir
Polit ècnica
Andr és
Gav à
Descrip ció
V in
t um
ò loga
re tard
os i
os ex
ad on
li quen
ex posat
fer its
ra có
port ant
van g
pe dia
inter rom
aut oc
gener en
lu ència
prom et
mant ind
fut ura
cur rículum
ine da
prepar ant
estim at
respect u
espec ífics
cab ells
fotos Veure
pin y
ang le
wit h
vict òries
freqü ent
acum ula
servi dors
Ale j
Pers ones
Ball ester
Ama zon
C ES
D esp
K ar
P R
P acte
a fer
p obre
ci tes
ad min
ig o
vol dria
ari o
vis it
ag l
ín ia
major itàriament
assist it
serv eixen
caracter itza
energ ies
empresari als
mecan isme
modifica cions
Sergi o
begu des
itx ell
Holida y
A h
A fers
C ity
Z A
a a
c y
s ard
en via
at ch
in vers
am et
ant es
con qu
ca dell
ter o
vi ar
vi ària
ser a
ra ça
ig ma
po guessin
comp ten
Mar ch
nat ional
lle tí
econ om
trobar em
Pol ònia
arr el
anim ar
aprof itat
impul sa
tram itació
començ ant
escript ora
vac una
corre dors
elèctr ics
bra ç
Mic ros
Apart ment
Cà ritas
gim n
curios itat
Exec ut
mn ium
Caracter ístiques
J on
] [
a pel
b ibli
l is
p ent
ur na
ha el
pres s
du en
mat ric
mat èries
ess encials
mes es
ju ï
fic ades
comun ica
ion ats
mot iv
utilitz ats
constru ct
anim itat
esqu í
Mer itxell
Res er
Del ta
Mor eno
signat ura
passe jar
inform àtica
Sec ret
vincula des
apos tar
immob ili
franqu ista
Nor m
cens ura
enem ic
renunci ar
excus a
jogu ines
acci dents
entus ias
uplo ads
L an
S cho
T in
e gui
r é
u ga
in oblida
se ccions
ter ri
ll una
pe ta
ne um
sim ult
reb rà
cult iu
esper o
depen en
depen dent
aju dat
fàcil s
negoci ar
TS J
pint or
Rib es
AM PA
preci p
compart eixen
autom at
constant ment
autònom es
Audi o
enfoc ament
Sosten ibilitat
convenç ut
Cru z
Álvar ez
Andal usia
sobir ania
Cerd anya
A val
C L
P ra
V EN
Z ar
a er
f urg
g ats
w are
í lia
í coles
ar bit
an ada
re marca
in ev
di cions
di vis
con voca
ll in
ass ab
su men
seu re
ed ora
An im
cu idar
Ar tes
Di ego
program at
passat gers
acord ar
acord at
servir à
Ter cera
expl í
confir ma
informat iva
fres ca
Du es
later als
progr ess
estalvi ar
saluda bles
secre ts
Empres ari
aficion ats
Jx Cat
Regió 7
efic àcia
E quip
I L
T i
T RE
b omb
g onal
m urs
u k
v elles
an irem
tr ú
im mer
ac s
te a
na ve
alg o
met àl
sal va
organitz adors
canvi ant
Sal ou
tall s
cul ars
cert amen
meu a
reun it
àst iques
Mu ño
determin ada
mè dic
allot jaments
elim inació
Ofici al
accessi ble
autob usos
estàn dard
despat x
Pall ars
Muño z
E gi
L or
S arri
T re
T hom
a porten
la ct
re vel
tr al
ist as
19 31
bar at
Par k
Val ent
intent at
mu y
arrib ant
trà lia
ang les
separ at
consol idar
còmo da
ph p
enginy eria
Aus tràlia
Particip ació
inscri ure
E G
F eu
M C
P ag
S tar
V ull
j es
t àct
w iki
à via
is mo
gr oc
ver t
vol tants
tin guem
vis iten
ves pr
ne ta
fun dar
ren da
CO R
avi ó
cad ires
èx its
electr icitat
protagon isme
comb ina
envi ament
Sem inari
profund ament
amag ar
Pob la
har mon
repar ació
Pú blic
Sols ona
proteï nes
G in
S tre
es cau
en z
en ques
in dem
un dar
un animitat
ent ès
ol o
tr ies
di ció
com portar
gu àrdia
par cel
pro vin
ter àpia
fer ides
act ituds
Al b
àn dol
ella s
Con ven
ple ga
pas sem
Fran k
neg atiu
probl emàtica
enten c
rid ge
acabar à
mob ilització
fre da
àm ens
perf ectes
incorpor at
escen es
constitu eix
Pot s
XI V
imag in
estran gers
desapar èixer
justi ficar
republic à
Princi pal
autob ús
artifici al
detin guts
suï ci
I van
L it
L et
S óc
V o
c ass
x in
ar y
an èc
re mat
re coneguda
in dig
ot o
ut en
des pert
pre vistes
hi drat
Es plu
ran c
pu jant
leg ar
leg it
ed itar
pen sions
ín tegr
activ ista
pet icions
proc edir
peri f
especi alitzat
particip atiu
mot ors
ide als
obli gar
mon eda
cam es
fam osa
manif esta
199 3
Ben estar
For ment
Ram ón
rebut jar
198 9
Fe der
pint ar
inaug urar
dro id
crí tics
còmo des
sac ri
emo ció
Sar ag
Gel trú
establer ts
exer c
seix anta
A igua
S y
T R
V iny
f usió
l ica
Ò mnium
es br
de ries
an go
ob serv
car ril
mar ítim
No ves
ició s
art ístiques
ben e
inf la
18 0
sor pren
Cas als
vest its
final istes
format iva
investig ar
mob les
univers itaris
lim itacions
sion ista
elim inat
òp tica
Oc cidental
insist it
protoc ols
Hon or
vacun ació
Industri al
2 a
C li
C LA
C ient
T G
h y
de ta
en for
re pública
in certesa
ad rec
com èdia
im èdia
ta x
ra u
pa ella
tres or
tin dria
ES P
gui ada
estr ès
plic ar
Re ina
curs es
hist oria
loc ut
ap unten
Tot hom
plant ar
vest ir
coment a
Co di
rom ana
consider ació
llum in
administr ativa
sè ries
jut ges
titu lat
senz illes
Esport iu
vice presidenta
complex itat
Fon ts
denún cies
subject e
FO TO
mascul í
lleuger ament
Bàs quet
Liter atura
mediter rani
gued à
D am
D oc
H av
I sa
J ur
J ut
L ou
S ur
T ran
T ren
X III
b lat
g ies
l or
t ors
v itat
ar ris
al berg
or questra
in era
con vé
im on
gr avar
ex tin
res iden
for tes
te ga
cre ador
prof it
Ar ran
sab ates
coneix ia
far mà
condu cta
dot ar
Pas tor
lus tració
Fot ografia
ante lació
Garri ga
posicion ament
F es
F orn
G ü
G ata
O f
S AL
W ord
a jorn
i ans
de terior
de grad
re men
com issions
si ficació
ri que
ll ança
esc ut
entre teniment
ni ament
inter ns
sobre viure
af ició
cons ella
Com erci
ep id
pla ca
An em
An droid
op tat
sin cer
ines per
plant eg
explic ant
consi de
centr ada
AN A
cis me
Mol ina
volunt ariat
For mat
contract ar
fl ix
just ament
exig ent
separ ar
Os car
ios ament
composit or
urb ans
barb aco
! "
F alla
G ri
H as
I de
N ob
P is
b ui
r estr
en con
am ist
com itè
pro pagan
des compte
ist an
pres id
pres sa
car boni
què s
inter venir
ed itat
Qu ines
mer g
torn em
jar dins
reb el
aju dant
Vi ol
recor den
rom à
199 0
recom anem
quad res
allar gar
plu ges
fix ar
So vint
manifest ants
estratèg ic
etique tes
elev ada
Mic hael
crè dits
Bis bal
fum adors
exempl ar
Xà tiva
llibert ats
5 è
F S
F it
N atura
l on
n ed
s s
t is
u c
é rem
re vela
ic à
ol ina
ad vocats
ons o
ist emes
ig h
int èr
sos pit
trav ess
gen i
cont ents
ofici alment
las co
sat èl
Ber guedà
tecn ològic
pag aments
sembl ants
candidat ures
Alg ú
Treb alla
encarreg ada
Dem ocrà
barcel ona
maqu inària
frag ment
brit ànic
mascar eta
Pom peu
rellot ge
B RE
I ber
J EC
a i
f ixa
p àr
r urals
u se
v ents
ò bia
es cons
de ien
en fons
in va
in itat
tr ens
ut h
des apareix
vi de
pre c
mol èsties
Es pero
cap tar
present acions
aut og
pi on
Con n
De fin
tru cades
sim pat
continu at
super vivència
format ius
Man lleu
oper atiu
ON U
reun eix
volunt ària
administr atiu
exig ències
atra ccions
previst os
Arag onès
Dom èn
indis pens
Guar di
medic aments
hig iene
Feb rer
Dispon ible
Sarag ossa
B èl
C RE
L og
P RES
R io
è poques
un o
un it
per judic
ic ats
ha vent
ha guessin
res ult
ab sur
ac e
ve z
ll im
tin gueu
Es trat
cre en
cal ma
In fer
pu e
leg alitat
trob aràs
ing s
fr en
hist òriques
trans fer
prot ect
CI ON
fot ograf
ev o
vot ants
Mol let
esde vingut
Reg istre
nu cle
queda va
pec u
deri va
amen aces
mad ril
past ís
destru cció
aclar ir
FOR MA
periò dic
agraï ment
D C
D els
J ar
] ,
a çò
f ina
p p
en vell
pr íncep
em ot
em prendre
con ge
ut ilitat
for d
ll istat
rec op
En trada
cre atiu
cor da
rà bia
pat ates
lla tí
labor at
comen cem
comun itària
lle ug
acc e
sub ven
CO L
Sal ó
tur ó
aconsegu int
Mon estir
fact uració
plante jat
Del eg
197 7
agra ït
rad ical
lider at
coh esió
enqu estes
Edi cions
divul gació
Corn ellà
Ent itats
intèr pre
1 12
N ing
O per
P ant
S ens
a ños
g et
m estra
p est
ar es
in volu
tr ant
ant igu
con ec
con éixer
ca ut
ass ess
ag er
... "
mot os
ce bre
Ex cur
indepen dents
compet icions
afect ada
celebr ada
volunt ari
aliment ari
198 4
198 7
imp act
197 8
Pi er
informat iu
emoci onant
mult itud
amag at
hos tal
epis odis
compat ible
Glob al
sensib ilització
contun dent
Micros oft
A ir
E F
L GT
M ònica
R ome
n ats
an der
com enci
li quid
ex cés
vi via
cap tur
fin alitzat
reg les
val u
actu alitzar
if icacions
ub icat
mot s
neg at
Ma cià
Seg urament
posit ives
llarg s
Pre cisament
Gar raf
independent ment
electr ònics
Ros s
proteg it
secret ària
substitu ció
Fel ici
compon ent
cavall s
peix os
Pers onal
nad ó
Net flix
audi ència
contempl ar
A A
R aquel
V it
V ost
n ob
r ab
t èx
x ols
in è
im put
ta ques
des cripció
pl ur
cas ol
In t
bar reres
mo dal
ing er
pens aments
ger ia
constru ccions
represent at
deman ant
termin is
medi ació
lleg at
prepar ats
avan çada
Lli bres
Pat ronat
pert ori
demana va
Tra ct
adolesc ent
compleix en
Ap ple
implement ar
Investig ació
express ament
clín ica
anarqu ista
atmos fera
vespr ada
Bèl gica
3 60
A ri
G reg
G EN
P rà
S U
b ien
l ant
r itu
º C
à udio
re mun
re marcat
pr estacions
di gui
em et
oc ult
eix es
ver y
ra cons
Per i
pe d
min es
present ades
Qu ir
agr essions
agr ícola
àr ab
apar ells
final itats
Ex peri
Mont cada
veï nat
mas ia
instru cció
carre teres
tom eu
cans at
proce dent
esten dre
ann ex
Urban isme
atemp tat
Prà ct
A par
B au
C àn
D eb
I v
J ord
R ich
T ria
i A
k in
p òsits
es qui
es men
al ine
an dre
em i
pl ural
du u
co ure
cer im
tract ava
fr enar
var em
òg ic
Univers ity
Mat eu
Sol idaritat
hum itat
Tur quia
parla va
coinci dir
ras tre
Bor ràs
relat ivament
fru ites
ceb a
Mitj ans
geg ants
seleccion ades
capí tols
Gau dí
PD F
Alcal de
Eix ample
Jim énez
B ella
R aval
h ect
s ú
u des
í tol
€ .
de mo
in os
in grés
que ixa
per du
ció s
con tenen
ser ra
ver it
ver ds
part aments
tre pit
cal ent
ag re
dos is
lu cre
ion als
donar an
bres sol
cur ts
posit ivament
fran ja
prop ici
cret ament
investig acions
tren ca
quil os
mob iliari
IS T
quar antena
elèc triques
cristi ans
Resp ecte
grav etat
fug ir
diri gent
Enginy eria
automàtic ament
Tir ant
obedi ència
indem n
P IB
m ó
m oc
m any
qu eria
pro vé
era cions
te ore
ro ig
ro ja
men gol
Com ença
mi es
ella t
necess àriament
fe bre
contr ols
realitz ats
tí pic
apro pi
fut ures
pràct ic
nar ra
Ne us
concre tar
magn ífic
varia ble
cast ells
bicicle tes
begu da
Mem òria
parà metres
monar quia
BAR CEL
farmac èut
Hit ler
A mor
G rat
O pin
R ural
f ita
g mail
i at
n ul
es posa
en cer
re pertori
am ant
am able
est ro
em etre
pro ve
et ari
gr í
El ls
ab aix
cas al
fin alitz
cu it
paci ència
format iu
cam inada
Ro y
redu eix
Pas cual
Ob ra
deri vats
UR V
emprened oria
ator ga
centen ari
colum na
autò ct
! .
B anda
J OR
P N
S ci
S ra
V ols
c ess
c eta
f àr
g ili
n ada
p ès
t ons
ñ ola
en carrega
er as
an eu
ic ades
gu et
ta ul
des près
gr is
ab usos
ac ar
ins p
te la
tar getes
cer cle
estat als
cr ita
sent im
Ll ic
dig ne
Or tega
redu ïda
Ben et
gra ci
bla va
entren aments
pròxim es
lit oral
estratèg ica
traject e
titular itat
reivindic ació
contempor ani
emmagatzem atge
capçal era
subrat llat
impression ant
dinà miques
acostu ma
Egi pte
! ,
" ;
% ),
1 30
M esa
M ach
O ne
P av
P LA
P OS
p ist
en càrrec
tr acció
des esper
ex posa
cap es
Al onso
àn tica
deix in
loc alitzar
especi alitzats
so fr
fut urs
Tr as
Mont juï
recor dem
Cor ona
funcion ari
Gar ant
Pres idència
guer res
198 6
traslla dat
97 88
orden ar
auton òmic
ingü ística
esment at
Àn gels
relig iós
admet en
comiss ari
Coordin adora
supl ements
Alter nat
Alej andro
inoblida ble
barbaco a
B ER
H oll
T ècn
V ilar
g or
i ón
ç ats
ú niques
de ure
on alment
re tar
re ial
pr ost
se gr
és sim
di plom
El is
te br
cion alització
ib il
tar rag
ju guen
ro om
pu la
Qu int
deix arà
treball em
fi les
cant a
propos em
gen ial
so cia
Ll um
not icia
lim ita
fra u
Cre at
Cre us
compar ar
compart eix
ogrà fiques
obligat òria
prohib it
acadè mica
competit ivitat
hip ò
metropolit ana
demar cació
Ning ú
Montjuï c
B ill
c all
d atge
p neum
u ma
x id
ò mics
en ve
se a
des conegut
ex ten
ul la
su mat
den es
esc o
Al um
eb ra
In form
Bar tomeu
àn dia
reg als
cr isis
fun er
Par al
mis sa
continu ada
As sist
post ura
ext ens
Can vi
far ina
IN TER
Col la
regu ts
recuper a
tras torn
MA S
èm ics
Lli ure
Mer cad
associ at
Bo ok
198 8
adequ ades
EU R
EU iA
fís ics
mínim s
urg ències
desit ja
contrib ució
acab ada
celebra cions
quali ficat
Escol es
Hos tal
plas ma
renova bles
pru dència
Aliment ació
ansi etat
restr ing
C oc
D ic
M ala
P De
c obert
h ost
l ink
n ec
s ona
t ún
ò tics
— ,
el it
it enci
con vent
ix en
gu lars
pro vo
ul en
fer ma
ab o
pl àn
ro ga
esp ant
junt es
cu inar
cin es
br ossa
CA S
edu c
Cal a
Mo del
consum idor
be ure
comerci ants
estre ta
creu ar
Ros er
futbol ista
dispos ats
ang lesa
equ itat
reiv indicacions
cooper atives
liber al
concre ts
prov incial
embar às
estric tament
sac er
audio visuals
regis tres
roqui al
BARCEL ONA
' ),
3 a
G all
J ac
g era
s ada
s ing
de tenció
an alitza
in dex
it iva
am an
ta xes
des nivell
da vall
ac úst
cre us
co ca
pu jat
pu guis
reg alar
sent ia
sal u
Con tempor
Con federació
TA TS
alt ats
Em ili
const ància
Cor re
gas os
comprom ès
Ter cer
llei al
adre çat
deb atre
alem anya
prohib ició
perspect ives
log o
Cent res
inten cions
suspen dre
fol k
Distr icte
Forment era
B urg
E co
F IN
S ob
V el
a pre
d éu
À ustria
on ga
in ers
per dent
se tanta
ot e
ob e
ob se
El x
El ena
ex am
pl à
vol ut
dis frut
tin o
vis ibles
uny ol
In dependència
av or
via bilitat
Con dicions
polí gon
direct iva
mot o
mot x
ch eck
Vi las
As socia
Inter national
Ll ull
cur iós
ref re
not ar
desenvolup ant
Or den
consider ada
funcion en
tras torns
Mat eri
expres sat
hor ab
regid oria
Inst al
Actu alitzada
Bl anc
preci sió
reno var
conveni ència
enç à
convi dar
process ament
cristi ana
costum s
salv atge
report atge
cív ica
PDe CAT
B re
D OR
G od
O m
P ineda
S all
V ell
X A
a igu
b eca
j eccions
l anda
m ia
o rem
p ins
r oses
re vés
ent ena
di vor
amb ul
ta g
us k
da y
li ques
oc es
oc at
ri vals
pe tr
cap ella
In tel
col ònies
pass ad
sol ars
estr al
activ es
fi dels
neg a
uï lla
cam inant
ru gell
càr regues
afeg im
vo re
Su port
aconsegu eixen
integr ants
espectac ulars
rob atori
fl ot
Entre vista
necessit eu
Sa int
adap ta
distrib u
GA BA
telè fons
mús cul
Gl òria
Pet it
enri quir
guard ó
Tecn ologia
Za pat
Moder n
' )
D urada
U IB
X II
b s
b asc
ó ra
​ ​
om ar
ic ant
des enes
ac ho
pa gat
po u
ec cion
ans es
ti en
cl à
pass ades
Mar g
Mar roc
rà tic
inci dències
nat ació
ures a
Con ta
lo w
mun di
fr om
inst ància
agr essi
Cas as
Cas tel
equip atge
dor mit
guany ant
celeb ren
gest iona
valenci anes
èl ix
teix its
amar ca
acus acions
gal eria
excel ent
fas cin
veget als
lectu als
estu dia
transvers al
long itud
Elec tr
Sarri à
Vost è
fàr mac
sacer dot
C T
G ala
S indic
T RES
g ada
p uny
en des
at org
se ts
ad ult
ant icip
em issió
par er
res seny
na cionalitat
entre gar
ven ils
itu din
cal enta
pu ga
activ ament
ital iana
Di vers
presi dents
refer ir
desc oberta
Ex tra
cul te
conver sió
Univers itari
TI CA
ocup at
real itats
interpre tat
assol it
perme tran
verm ella
pub lici
Er nest
Fem en
femin isme
desplaç aments
vie ws
sobiran ista
Verda guer
Mich el
E f
b ec
g na
h im
p ura
t als
í eu
est als
ol er
il lament
hi dr
ja p
mar quen
cl os
cre adors
co her
min or
pu guen
lli gat
Qu í
ES TI
deix ava
ing ton
Re volució
sal aris
Con èixer
onal d
ili ars
direct ius
vin cles
govern ar
lament at
bu its
bi ografia
afect ació
dom inant
Mo ore
UN YA
Lli bertat
constitu ir
identi ficat
jur is
enseny a
lus tr
recla mat
Pe pe
migr ació
exter na
Cir c
arm ari
haure u
contras enya
monit ors
descobr iment
polla stre
Ciu dad
aïlla ment
recicla tge
perse cució
conform itat
Calaf ell
involu cr
3 50
E TA
M y
N ota
T EL
T rem
a consella
c obreix
f ili
s obres
de ter
de ures
al o
re marcar
in cesa
ent esa
it ades
est á
con junts
et e
aqu i
ex teriors
ul tra
ass ent
ge d
cal en
aut op
estr anya
tru cada
hom osex
Pr ob
dest inada
vent all
mil itant
dig na
Or g
integr ada
mas siva
aprof ita
Ber lín
cò mic
condu ctes
anunci s
vuit anta
lus tracions
mel o
inspir ació
resi du
cobr ar
Monts eny
oti ps
CATAL UNYA
C ob
D ansa
F isi
P it
W al
d rien
f ans
g ant
j arà
p am
en capç
el es
is ca
est ret
tr istes
il er
des fer
ver na
pres sion
pl àstics
.. ...
En rique
int enten
In trodu
DE N
err ada
tor is
document als
Cor por
local itats
comprom isos
Gran ada
rob atoris
let isme
Am posta
comb inar
198 2
pant al
aban donat
Esport iva
activa ció
abra çada
imprescindi bles
clo enda
destru ir
rellev ància
Char les
despleg ament
sà p
consu mir
DV D
Palaf rugell
TSJ C
esbr inar
! )
' ).
A van
C ro
E col
G or
O bert
S EN
T N
T am
b alla
e y
g és
r ades
y ou
à pies
á rez
de cre
ar rela
ic ona
ca ixes
des ert
li e
ter ap
ver es
for tal
pre cari
ma u
ven ut
cre mar
cer eb
Qu ader
via ble
Re lacions
lla vis
br oma
br onze
agr essió
pas tor
sim p
vir tut
14 0
propos en
ide ologia
tri ents
lament a
cep ció
ciutad anes
Pa pa
jug ada
Sol é
conven cional
relacion ar
fact ures
dot ació
correspon en
ik e
Cre ació
prior itats
desapar ició
Roc k
dismin ució
Ciu ta
horitz ó
vertic al
cres cut
despert ador
Nob el
1 10
C GT
D an
D ir
D ER
G AR
J ul
N ext
T it
V OL
z en
de gu
an ima
ci tar
or ze
tr of
ot era
ob té
le lament
ver si
ll op
car net
den cia
te dra
port iu
cl ars
19 40
qui es
Mar xa
Aqu ell
reg ional
enci alment
Est iu
tan mateix
comun itari
sor tint
reb ran
Jos e
san cions
record ant
pon ents
dol ent
consider able
UN T
cient ífiques
Vol unt
acaba va
NO U
atac ar
Be at
plen es
detect at
rad ic
Ví deo
Territori al
Navar ra
comand ament
escult ura
contín ua
narrat iva
pages os
ste in
butx aca
reme i
adrec es
pàr quing
A ro
B asc
B ret
F ru
H id
V eu
a C
a pla
f asi
m àn
p eg
p tic
ò pia
la dor
per e
is sin
ad opció
con vèncer
ta xi
ici onal
pres um
me dia
su ports
ven ç
cor at
ges pa
12 5
vin ya
Co re
mus saf
nú vols
destac ades
hum il
UP F
Dia gonal
gèn eres
197 5
identi fica
capital isme
urg ents
assum pte
crim inal
compart ida
Econ òmica
icult ors
autònom a
significat iu
escal f
config urar
fac ultat
lòg ic
àci d
cull er
Ut ilitz
merca deries
modal itats
Vilas sar
Ciuta della
B rossa
I si
L is
L lí
U OC
V ide
X ile
d ren
m ats
de du
en fil
am fit
se ct
ta ca
pos tres
20 30
tra ves
ari da
cre ativa
ran o
Al hora
ju venils
cal a
jo ia
dic o
sa vi
Jo ana
vin gui
CA CIÓ
voc al
dona cions
fam osos
IN G
llu itant
her e
demos tració
lim itació
Fin al
vari ant
gust os
benefici ar
plante jament
satis fact
acus ació
enca den
acos ta
acum ulat
Ind ústria
bran ques
Vir gili
lig ents
promoci onar
Cooper ativa
manipu lació
glu cosa
aguant ar
Fr ont
Conver gència
escom br
Thom as
pecu liar
% ).
H C
J unt
M À
R is
c ures
j am
m g
de us
de partaments
al eg
on ista
re pres
om at
ob tenció
par ci
vi dent
ve ur
po etes
tra g
rec ur
En ten
dis sen
ure m
co u
esp on
cr os
pen e
necess itar
necess ites
lle ts
ren e
inici als
ub i
plica cions
comple xa
not icies
desenvolup en
lim itada
San z
selec cionar
Cat ed
adequ ats
minis tres
sosten ibles
Ped ra
Oli va
alem anys
ònim s
vincula da
enfront ament
blan cs
bom bol
consolid ació
específic ament
monit or
Desc obreix
sín drome
espiritu al
C au
N arc
P F
P aris
S tat
S OL
h ur
p us
s ana
re is
del in
tr ics
ct ura
con formen
ur ats
ha ja
no w
ex àmens
ul o
fer it
ab at
na cions
ju eus
he imer
mit e
activ istes
Con cretament
De ci
agr upa
proc ed
mis sions
CO 2
constru ïda
Co operació
deman em
illa s
cul o
gau dit
Pre venció
assist ent
recuper at
sis ena
jut jats
Cu ina
incre ïble
197 9
vé nen
196 8
dibuix ar
relat iu
clim àtica
connex ions
discipl ines
invent ar
acol li
Th is
cog nom
símb ols
semin ari
estad ístiques
Ir landa
partí cules
inse ctes
signific ativa
antigu itat
Narc ís
A grup
D eu
K o
R ull
[ [
c n
e ja
e bre
h at
m ama
x ut
z ón
en do
om s
di em
il y
ta pa
fer t
ab ús
ec o
enci ada
estr is
ili p
Car naval
prot estes
to vall
mitj anes
CI ES
ger man
sig na
ev ent
represent acions
so us
ext ensa
investig adora
tren cat
àst ima
territori als
Vic t
rep às
dr ama
afir men
rob ar
gra pat
Pas qua
has ta
197 0
viv ències
Men ys
acus ats
Pi qué
dispos em
implic ar
acab ant
sensi ble
je je
transpar ent
medit errània
Apart ments
felici tar
mostr ant
Pon ent
Chr ist
vincu lat
correg ir
indispens able
1 000
B ach
B LE
B lasco
C af
J oc
P enya
U ll
a ur
a ve
p si
r estant
¡ ¡
es e
qu otes
re mode
is ses
ol iva
se ta
di àriament
em portar
ve i
pa utes
pre dic
dis cursos
mar is
cor tes
leg alment
pen jat
pen ínsula
mi des
trans forma
coneix er
grà fiques
CI U
incl ús
alt ament
ún cia
public ats
Em preses
medi ambiental
llen çar
Lle tres
Ju dit
PS PV
ocup en
tit ulars
expres sions
tecn ològica
demos tren
Pas qual
198 5
exig ents
QU I
patr ons
quí mics
Ge orge
mens ual
dismin u
innov ador
bran ca
____ ____
raon able
Bes òs
Arri ba
Ener gia
conclo ure
provin ents
divor ci
dissen ys
I MP
M IN
P int
S ou
S ard
T ara
T ube
V ista
V II
c àst
e jat
ç ol
é l
al tar
in aris
am iento
im mens
por s
ll ogar
ja ja
tem àtiques
cre acions
ro ques
sol em
dar ds
Ar mengol
mal es
trans form
Par elles
reb uda
rela tiva
tri ple
RA T
so vi
bo ok
cam ió
gau dint
26 0
nú vol
Su eca
mu les
Le o
198 3
adequ ació
pant alles
agrad i
pil ars
sec undar
infer iors
encarreg ar
Dem à
alliber ar
bloque ig
Hos pi
Wh ats
exhib ició
cirur gia
presid it
envell iment
tèx til
A ni
C SI
E dat
G is
N as
S AR
c òn
d og
i an
p ad
r àn
á ñez
an is
per dó
est any
tr entena
im per
im partir
ri era
du el
car am
vol ar
fa una
mes urar
fic e
present ats
No guera
tic o
està vem
prof es
enci ació
vin cle
mant ega
ull eres
cent í
Sal t
ordin ari
òs of
personal itats
son ora
univers itària
èm fasi
infant esa
Av ís
aga fat
anomen ats
fit xa
perío des
Aut on
Gal ícia
Cla u
plani ficar
innov adores
Lab or
enem ics
desplaç ament
diri gides
Mant en
CUR S
Contr ol
terap èut
B L
B ed
B ou
B TT
D or
E MP
J úlia
M OL
P EN
P OL
R ober
S andra
t le
x amp
à niament
en gr
er to
tr om
im posa
des comptes
ment ida
all o
tra ï
comp licitat
cre ences
ina va
prim àries
Al mussaf
In fo
cor recció
cor rents
Bar ris
present ant
Qu alitat
ín tim
Est ació
cin t
agr ícoles
situ ats
vin y
dest inar
sim bol
depen dències
tir a
refer eix
tur ístiques
àl isis
Vila de
nu trients
condu cció
Inici ativa
extre ms
recla men
compar eixen
acus a
inform àtic
volum s
Ins tru
religi oses
consolid at
Ripoll ès
Metro polit
lliç ó
A F
D er
G ot
G ut
G èn
I ma
b eb
i ficat
s ag
ò bil
de via
al li
re coneguts
pr estat
est ades
des gas
ul li
for estals
ac cion
dis me
cal aix
pu ig
cer e
bé n
mà gica
acc essos
reb uts
utilitz ades
tempor als
rig ht
hu ana
essor is
arriba va
Segu im
Hist òric
migr ants
Mari o
veget al
ator gar
bom ba
mascul ina
escap ada
narr ació
Alfons o
Ass essor
contín u
Prov incial
Execut iu
Stre et
A dol
C PU
D alt
G P
K ing
L LA
a poder
b ola
c aments
e i
f ps
o tros
p als
p alla
al et
re ve
re taria
un der
que ixes
am igues
pr estar
ad vers
di pos
con fer
ta bac
us sa
ca fet
ab ol
ec ològic
du ent
ass ada
car bó
cl is
bar rera
cor on
men uts
ag reu
igu altats
rer o
reg la
gran d
vant e
Car la
Car re
Cons ult
fil ms
Gu any
gen cat
public ades
Ma pa
bo x
assegur ança
divi dir
pal au
Inici o
Pat ri
titu lada
Ne ws
crim in
gres sió
Au gust
Comp anys
insist eix
Cast ells
frag ments
previs ions
Recor deu
porter ia
giron ines
acomiad ar
mari huana
Arquit ectura
dedi quen
Scho ol
Empresari al
propagan da
Rober to
A partament
B it
B ola
B and
C CIÓ
F ill
F reix
H ora
R el
R eix
R ector
S é
T eix
V iv
a fortun
f ec
i én
m ont
n als
z er
è t
ú ni
an gular
os o
ol tes
com icis
des fi
tra çat
esc oll
dis par
19 h
col les
soci alment
mb ia
qual itats
inci dent
gram s
Pr ats
mos sos
realitz aran
CI E
ger manes
TA CIÓ
apro pa
mem or
ològ icament
dist àncies
comprom etre
Ver ge
TV E
gratuï tes
197 4
crit icar
assum eix
desit jos
doc ència
orden ació
prefer ències
mad ura
coinci deix
Bi ologia
parlament ària
fiscal ia
arquitect ònic
eleg it
exter nes
dismin uir
sof t
Orient al
financ ers
equival ent
dens itat
Tall ers
Rich ard
Almussaf es
A igu
F os
G ui
H and
K at
S ac
T ens
i fi
m ell
m osa
m escla
p g
t omb
à nies
an ant
per mis
ab as
ici as
ve ieu
po ètica
inter ro
19 30
Al tea
Mar y
jo vent
An ar
pi ques
Con ca
millor ant
mer cant
to dos
organitz ats
Par lem
porta cions
edu car
eny es
web s
cep ti
fan g
Man if
mil er
caus at
ug h
aplic at
afeg int
llu ites
Su árez
integr itat
perf ecció
pag ès
aliment aris
dot zena
crit icat
Im peri
signat ures
ogrà fics
avis ar
complic ada
varia bles
Arx ivat
Sec retaria
Bla u
Mitj à
extrem adament
commem or
terror isme
micro ones
excur sions
Sor tida
itiner aris
bio diversitat
colum nes
rut ina
horitz ont
patri ar
mòdul s
convert eixen
íntegr ament
Tran sició
extin ció
hect àrees
< /
A st
A ires
A igües
C he
D énia
I TAT
T op
W ar
d ri
j un
n g
n atal
p ció
z u
en se
ci ber
in da
va st
par ent
por c
ver tebr
inter locut
fin alització
deix eu
sim pli
olog ía
CO S
trav essa
permet ia
cad u
jug arà
nu clis
Cer vera
terr asses
Ten en
econòmic ament
satis fet
mul tina
deri vades
auton om
impe cable
bit llets
autom àtica
certi ficació
mult imèdia
Dom ingo
Project es
Cent er
video jocs
feix ista
descri ure
fals es
olí m
barcelon í
engan x
ampla da
llibrer ies
progressi va
Arque bisbe
setman al
Categ ories
Hil bert
Amer ic
portà til
Buen os
conside rem
Conn ect
Opin ió
Zapat ero
4 50
B iblioteques
C eller
E vident
F F
F ant
F RAN
F èlix
G L
J UN
L ingüística
O x
T ab
b ou
g om
i quen
j i
n º
n ò
p seu
x u
ar do
at òria
re presa
in compliment
am polla
ad ient
con ces
con reu
pos ici
pos eu
Per son
cl ari
co herència
tes a
19 60
men ció
Com ple
dir é
present em
cer àmica
og en
pen y
ella da
tract ats
Est any
Est adi
agr up
Cons ist
utilitz ada
fil òsof
baix ant
pes a
Seg re
prò r
fam ilia
Lle ó
Tor na
person alitzat
dedic ats
comerci alització
confi ar
entren ar
comença va
preci sa
habil itar
ENT RE
aport ant
impe deix
propiet ària
neu tr
insist ir
Dec lar
exter ns
clo a
Escol ar
atract iva
ascens or
assignat ures
Feli pe
sorg eix
Carrer as
detalla t
icis me
prece dents
lega cions
horab ona
Marg arida
= "
F L
G om
I rene
L ectura
P il
S àn
S AN
S agrada
T im
g it
h eter
s ó
ò mens
per n
per ador
se p
tr ius
em marca
des igualtats
ament al
res sò
ra ïm
ors a
ven ien
int ents
In n
au ditori
cer c
No us
reg ener
pen es
val les
op at
ne ol
lo qui
cil iació
Pr ima
nacional istes
mir ador
As sum
Cal des
Ex per
ref res
cont estar
fam a
Ro da
Pa eria
enten em
rom ans
estim ada
òl ics
ibliot ec
recom ano
mè rit
efect uar
coordin adora
Lla gos
Ol ga
Bon et
Sim on
parlament aris
ox igen
aproxim ació
lider ar
adop tat
Artic les
adver tit
Ale ix
Mitj ançant
empr ar
succe ir
nad ons
enge gar
obtin guts
Din amarca
yst em
Álvar o
Tag s
aprofit ament
emiss ora
tún el
amfit ri
escombr aries
A mat
C rida
E usk
I di
M ini
c any
f ast
m ex
t ú
an za
in de
va por
im pl
des carta
des astre
ass im
dis cos
ge la
mar gin
af ili
pen itenci
actu en
rect a
ont o
10 7
mit h
mit es
br asil
lle idat
vin yes
organitz ades
prom esa
sim ula
cant onada
din er
clar edat
Fran ques
product iva
gest ions
èr ics
prepar ada
fos ca
gir ona
mec ànica
Ten ia
recol lides
Pau la
Im pul
Cl iment
perill ós
rup tura
196 9
Nat ació
resist ent
Ru bén
65 1
Do wn
Pet er
fac ebook
commem oració
subject es
seleccion ats
cog noms
reac cionar
Atl ètic
Record s
acostum ats
Willi am
Aval uació
Pier re
LGT BI
petr oli
precari etat
Evident ment
C han
E v
F ON
J ava
O bres
S w
T os
U p
a consell
b era
d ía
n istia
t à
à niques
ï ns
€ ,
ic cions
em os
con tenir
ur arà
com unes
oc ol
20 h
ac la
car dio
car dí
co ix
ho la
fin alitza
Com a
ep i
ag or
reg ne
Ar rim
Re unió
sab tes
catal unya
davant er
sor preses
àr bit
reb ent
tel emàtica
escol tat
nor anta
regu lars
aplic ada
enten en
Mon cloa
lliure ment
Le e
sur ti
ajudar an
fron ter
Sen at
ali ats
deri var
Ciutad ana
experiment at
urban es
inform àtics
classi ficar
deb ò
clim at
Mus ic
impuls ada
ime dia
convoc ada
commem orar
parad ís
semin aris
presump te
prevent iva
imm ensa
explos ió
desaf i
xin ès
ràn quing
? )
I ceta
W ay
f ires
j as
j ac
t iu
y wood
ò ces
an és
ad metre
di ment
di mit
con ceb
im posat
us o
ca denes
des em
des emb
des obediència
ul tar
eix ir
ver des
iv os
aix o
na us
vis ib
tat ge
id ònia
segu its
In forme
pass es
Catal anes
dem oc
cla ve
company es
neg atius
format ives
treballa va
Man acor
autor itzat
òr dia
Col um
aplic ant
assist encial
Po demos
son or
Cor al
Rec ep
integr en
associ ada
atur ats
front al
recom anar
torna va
Por ts
suc cessi
Ac cep
apart aments
supos en
supos adament
modern ista
acad èmics
Direct iva
esquer re
flex ibilitat
bom bar
Andre a
>< /
Dal mau
diagnos tic
burges ia
Quí mica
C RI
D onald
F ron
L C
N is
T EN
Z ones
a partament
j al
k it
n in
o ver
r un
s ir
ç ant
ò f
at letes
re prendre
di missió
li ga
ac ollit
pre inscripció
car is
rec al
af any
af ecte
cor rup
Mar co
Mar gar
don in
don ats
cat orze
og at
trob i
produ ïda
Re y
Re com
sab ent
pú ries
edi l
Cas tro
Cas ado
apar ença
17 0
ce deix
baix at
Seg arra
Ll una
far é
mil itants
lleg eix
exist ir
corpor ació
ner vis
real ista
associ ades
Cer cle
crit ica
excl o
Ob ama
americ anes
dal ena
compar able
Be ach
orient al
psic ològic
òp tim
virtu als
hos tes
feli ços
pedag ogia
avanç ant
You Tube
esbor r
cated ral
cated ràtic
irregular itats
apreci ar
Hel ena
Sín dic
inev itable
trag èdia
cortes ia
compareixen ça
Sàn chez
A ga
A cord
D í
D IS
E ul
F en
G ib
H um
H eb
M ig
P ia
R EN
T ip
b ale
d d
l ular
m ona
r uï
en f
ci os
om ple
om bres
ic on
ad qui
con vic
con tenció
des igualtat
ex haus
vi à
su ple
mat a
Es par
Es crit
Es tava
cl í
int oler
gui ades
met à
pat iment
ER O
ple c
vin cul
apar egut
punt u
ev itant
Em púries
const ants
interess ar
lici ta
compl ements
rid í
fest ius
Cap ital
acter is
Pres supost
Le vante
prem ta
Ram os
llà gr
condu ctors
allot jar
197 6
ali ança
infer n
Cab rera
cí vic
estableix en
Tem por
xique tes
Curs os
blan ques
Alz heimer
Bos c
respir ació
reflect eix
Recor dem
Dra c
hero i
recap tar
pact ar
proteï na
ecos istema
miner als
arreg lar
Infer meria
( ...)
A k
B ab
D D
D ur
D ist
E E
F M
L ola
T ossa
b í
d ota
i blement
j uni
r ons
t am
t ub
Ò scar
ï s
er on
ar re
ar te
re trib
re accions
in ista
per for
est ès
tr it
ant if
con quer
con cedir
com etre
il latge
ob vi
ca ça
gr ip
vi vien
ra cional
pa pa
pre val
pre ocupar
ins on
port ació
ja pon
ti on
dre tes
pe dal
id s
cal cular
ro datge
qui er
entr y
plic at
tru c
loc alitzacions
err y
Cal vo
def els
cam ions
posit ors
llibre t
defin ida
regu en
favor ables
gas tar
text ura
fort una
aliment ar
edit orials
accep tat
36 5
fal les
sus cepti
extre ure
tradici onalment
auto estima
oblig ada
oblig ats
inaug ura
fu gi
Rom ero
Cir cuit
arren car
Curs a
sugger iments
secre taria
tari fa
catalan isme
vie w
pesse tes
jubi lació
Preg unt
Resta urant
grava ció
Reser va
Norm alment
cerim ònia
fàrmac s
degu dament
Vict òria
651 x366
Arrim adas
? ",
C rit
E qu
I U
P AL
R ot
S indicat
V ES
W o
b anys
f òs
l èr
o ur
p ess
s ats
s obr
u ds
en unci
al z
am ing
se du
tr í
tr àg
em ès
con fort
us at
gr ap
ve urà
En desa
dis co
der o
id os
ed ad
sa ga
mal estar
veg i
cri atura
cri atures
od y
super fici
ric h
sig ne
alum ini
vent ura
IN E
començar an
Mont blanc
Pre vi
jug adores
acompany en
sion istes
enc et
198 1
gol f
Espa is
Ten ir
quir úr
pin ta
concl òs
Igu alment
supos arà
Bi el
particular ment
coll ita
adolesc ència
inspir at
log ística
faç anes
gastron òmica
Edi fici
fór mules
Ib áñez
discut ir
Psic ologia
enll umen
Fus ter
lleug era
Sall ent
deter mina
delin qü
Declar ació
F UN
G at
M ª
M ata
N àstic
P ren
S mith
f alt
u u
x ics
ò mbia
de tenir
al ia
an er
an ualment
la ga
qu illa
el og
in ta
in suficient
est ere
ant í
va g
va ca
im s
im at
ob lit
si guen
ra eli
pl oma
ass o
ten dres
tin gué
Barcel ó
tract en
ban ca
millor at
torn aran
sin gulars
dit es
canvi en
Pu b
continu em
depen dents
16 0
punt ual
product iu
gen ètica
Ma ó
Seg on
Gir onès
investig a
estruct ural
peu ta
conven is
Castell defels
diumen ges
troba ven
glés ies
assum ptes
yo utube
recull en
flu x
Bus quets
PC R
úr gia
Pob let
sorg it
feix isme
gro ga
Pri orat
brit ànica
tari fes
seqü ència
establer tes
nervi ós
blogs pot
Olím pics
mantind rà
terri ble
Audio visual
explí cit
harmon ia
perif èria
enfor tir
Guardi ola
esmen es
Associa cions
pantal ons
Vilade cans
B E
C arri
D NI
E ts
P M
S au
S ep
T M
T UR
V inar
W ork
g los
h à
n ers
à rem
ç o
la g
at ent
re tro
re construcció
que i
am ort
ol d
pos ted
ig ü
pa viment
dis sol
Es cu
co va
19 45
Com enc
An àlisi
ola s
actu at
produ int
mà gic
Car ras
vin drà
especi alitat
seguir an
super mercat
nacional ista
RA DA
cop al
Ex èrcit
defens es
defens en
Col òmbia
arr y
cad à
tren cament
Vic ens
PP C
afir mació
atur at
Ca pel
selec cionat
pregunt at
gratuï ts
constitu eixen
respect ant
envi ant
propor ció
pli ament
imag inari
convocat òries
prefer it
supos o
acab em
aven ços
contribu eix
process ó
Arx ius
Caixa Bank
enginy er
flex ible
emmagatzem ar
Mot or
labora cions
vergon y
visu alització
distin ció
Lin ux
Chr isti
Neg oci
estí mul
toler ància
Ud G
entusias me
Tria s
Prima vera
enllumen at
A vinguda
B in
C hi
G N
H err
H osp
K m
L EC
S ector
U A
U L
Z o
b als
b acteris
c ón
d és
k el
o ct
p all
p esc
x ef
la p
re produir
un eixen
ent ri
tr ista
di e
ir in
par lo
par roquial
ca os
ut in
ser em
La porta
ec ular
ass ocia
car b
te òric
port u
dis cot
inter nes
19 33
segu irem
gui es
labor ador
atre v
program ades
tor rent
dor m
obr ers
obli dat
termin al
cert ament
dirig its
Ad vocats
indic ador
acompany ant
Cap it
For cadell
Gran d
Dis ney
San g
Cu ba
rent ar
atra cció
consci enciar
cus sions
mac ro
experiment ació
inform em
cà p
auton òmiques
mala uradament
disput at
úr cia
Roc ío
adver t
terror ista
innov adora
Gas tron
hosp it
visu alitzar
feder al
sèn ior
obsta cles
Fall era
immer sió
Agrup ació
secundar is
neol iber
adqui reix
. '
B ran
E mb
I tal
J ard
L im
M ana
N av
S ir
S ON
V at
b ri
b ag
e volucion
g ur
g ics
j eres
m am
o posar
r or
s mart
z quez
ã o
de volució
it as
que ig
pr i
di versió
pro jeccions
ca cau
me jor
pre veure
Es tru
Per o
In dependent
pu gueu
cr ites
tract es
Re ad
lla vor
vant es
empres on
sos té
envol ten
ch er
bi om
24 0
bol ets
cis ta
dom inar
èx ia
Tar ra
estim ulant
Rec uper
Pres ley
alter acions
polític ament
oli fer
candidat a
SI Ó
sot metre
exclus iu
Mag dalena
Bas ada
barre jar
ferro vi
religi osos
asse qu
brut al
Pú bliques
fantas ia
simb òlic
pros per
Solid ària
disting ir
llanç at
ash ington
gimn às
Comerci al
A j
C ass
C all
C od
F ir
R y
R ig
S oc
T H
W ill
j pg
k ar
z i
Ç A
al ça
ci li
ci ud
un ion
pr olifer
ic os
tr ina
em è
ot ur
ob ren
pres sions
ll or
ten nis
van a
entr ant
ne o
ne uro
and or
lle vant
mis ter
Gener als
ev ita
bas ats
fest iu
estruct urals
Ant on
Inst itu
Ve geu
àm pliament
sis è
moder ns
subst ància
exig ència
vet llar
inclo urà
creat ina
connect at
orient ar
coinci deixen
psic ologia
provoc ant
adquir it
rad io
Trans port
convi dem
'' '
fabric ants
Bra ith
pertany en
controla t
fals a
monu ments
cog nit
wa ite
retr oc
estàn dards
cú pula
Hom s
inquiet uds
Nació Digital
mobilitz acions
emerg ents
combusti ble
Conser vatori
tomà quet
Viat gers
Úl tima
sals a
Defin ició
caut el
Greg ori
Quir ze
centí metres
Previ ous
Braith waite
" ).
B ri
B adia
C ont
D J
G eg
J en
M é
O ct
S agr
T RO
V ac
e arch
h arm
p ada
s r
v on
x em
è re
ò metre
es mena
am polles
is lam
des gràcia
des non
ab us
ser iosament
20 23
ec olog
den al
den ti
esc ència
dis puta
Al fred
ro gen
alg or
An n
Con gressos
situ en
acc essoris
sor près
Val le
tor res
ev é
semb lat
Em pren
Ll ob
ref le
RE U
mus cular
Vic tor
òl it
resol t
pag ant
foc s
fal ten
entren adors
recla mació
concep ció
Rib as
començ à
urban ística
Juli o
desapar egu
CD R
llic ències
Fil osofia
immob les
lingü ístic
Mil à
nomen ament
Da urada
cicl istes
embl emàtics
minim itzar
Càn cer
Vide o
Cated ral
, …
B ag
E ren
F ora
P els
V ar
W ashington
b ess
e h
g reg
t assa
è ct
ü l
de pressió
en la
en deut
al ber
el li
at í
re munt
or da
in ants
is raeli
tr ó
tr aba
as si
ix ent
si guem
des con
gr ada
ab onar
por que
ment a
pa guen
pa quets
itz ants
mat isos
rec er
dis sabtes
han d
cion isme
Per piny
inter és
ro ella
min oria
present aran
sol es
cat òlica
av ort
ema il
lu la
direct iu
var d
Pr om
cant ó
utilitz em
punt uals
cont ex
Gir on
institu cionals
Mu seus
Camp anya
Que da
Pl us
pin ya
Mir alles
fund ada
TO T
aport at
sot err
justi fica
toca va
senzill s
adver tir
fla men
commem ora
felici tats
expul sió
cass ola
Hav ia
Word Press
Pav elló
Alternat iva
fortal esa
úni or
ciud ad
, [
. »
A QU
A FA
C op
S ex
S mart
T IN
j à
k ov
r in
s h
u ix
u ada
re d
per judicis
del ta
com pro
gu ix
ir re
ob rer
pro pag
ter ç
ab and
eix ida
port o
ven a
vis c
int im
cas ualitat
19 17
19 50
Com ments
present ava
ori da
mi grat
tract ant
br ic
mer da
and orr
CI AL
Vi atge
ce ps
desc àrrega
Ex tre
EL LA
bu ida
not ari
rig ada
san ció
Tor dera
person alitzada
TI U
passa port
qüest ionar
cò m
Lli brer
promo cions
anomen en
comentari os
dot at
pit jors
popular itat
cab ulari
íssim es
Segu int
Mor ella
Act iva
196 6
Camb ridge
perman ència
acum ulació
varia cions
sò lid
Munt anya
expe dició
feix istes
GR UP
guitar r
compens ar
conserv ador
saf ata
meravell oses
ajus tar
Document ació
preocupa cions
incent ivar
residen cial
epid èmia
Comenc em
1 15
A E
A met
A ero
A ug
M àr
M IS
S af
T ítol
a prèn
e jament
f ònica
h ns
p actes
p ilar
w ell
Ú s
í xols
en com
en corat
an àlisis
ic ana
est ina
ad ar
con viure
ha cer
oc cident
ul aris
pos in
du c
du ia
car peta
ma y
man cances
su pressió
aix eca
esc àndol
ge ogràfica
tin guis
ti o
ti z
19 20
col pe
pass aran
dir à
mo re
ola t
ES S
Re alment
pat int
mun do
sos pita
ilitz at
Cons ells
obr int
fil os
Gu íxols
Ser rano
mon edes
dona ven
RE C
Mo viment
Po den
augment en
augment ant
Mat emàtiques
MA T
Castell ar
Ve ïns
agrada va
cost ats
Ten int
senz illament
Diput ats
conser ven
97 7
execut iva
fix at
auton òmica
Mari e
verm ut
tret ze
hivern acle
mens uals
assass inats
rè mol
accessi bles
brill ants
Prof essor
competit iu
guard ons
denom inació
detalla da
dinam ització
PAR TI
JO AN
recap tació
parad igma
CU L
select iva
Neg re
cist ella
vincu lació
argent í
demòcr ata
demòcr ates
concentra cions
absur d
Holl ywood
tristes a
escalf ament
aleg re
remode lació
Franques es
A G
F et
G PS
H eu
R at
R OS
T ècnica
b eta
h en
k u
x iu
es pel
de vila
an et
it era
it arà
os cil
ad ul
del im
ció n
tr y
tr ack
ha ha
et ern
pres encials
pre tenen
iv et
ins crits
rec s
dis capacitats
cal ç
ort h
enci as
apar entment
cri dat
product ivitat
conf ia
mor ta
Seg ura
cam per
som ri
Consell er
Su ècia
PA ÍS
Ch amp
MA C
aga fant
Cer vantes
rib era
rebut ja
imp actes
pant à
Municip is
evi denci
íssim s
mul ta
desit j
arquit ectes
encarreg ats
fu mar
aplica ble
prohib ir
etique tada
Hor ari
descans ar
Nic olau
progressi vament
Enlla ços
esque ma
iP hone
llin dar
nave gar
perdu da
Inform àtica
apla udi
Heb ron
Vinar òs
B egu
B atalla
F an
L y
M ans
N OS
S á
V ig
b alls
e w
g ents
n à
o de
p ta
t uts
v ill
à pats
an na
re volta
ri ament
vi gència
for çar
ec ològics
su mant
Es cor
cap t
der ic
cas c
19 00
min us
Aqu ella
estat ut
estat uts
trob ant
cr uïlla
Sant os
plic ació
ban queta
project ar
ben ed
pet jada
ap t
rit mes
program ar
prom eses
Par tic
do ctora
cant ants
pens es
cul tius
Can àries
cam a
òr nia
lici tació
Or din
pon ts
tas tar
ocup ats
go ig
real isme
Not icies
pir ates
respect ius
197 2
197 3
capital ista
gre ga
fonament alment
escrit es
urban isme
196 4
dè ci
sindic als
Me dia
Trib ut
provoc ada
magn itud
republic ana
enfron ta
controla da
respir ar
Mob ile
emàtic ament
sín tesi
Proc és
samar retes
pronunci ar
Categ oria
relax ant
Ener g
inv itació
vina gre
Gèn ere
Perpiny à
A i
C anç
C ros
D AL
E DU
M oral
R an
R as
R ac
S um
V III
f ites
j ón
l àndia
n ant
p ans
r s
ú ries
en darrer
in for
in visible
per pet
per cebre
os an
est el
gu ers
res post
ve geu
st at
ll is
pre cis
mat emàtica
ti rem
seg ment
cap itals
19 38
id ació
Mar quès
igu en
dur s
dent al
Ar chi
pi anista
Est her
hab ita
br ots
ilitz a
loc at
situ ades
pod íem
Di versos
Cas ino
olog y
tor no
avi ons
gl òria
represent ats
Cal if
vent ila
def ecte
medi ambientals
interess ada
passar ia
Tor roella
Pre m
vul gueu
mort als
mort alitat
PA C
divi deix
Castell ers
tecn ològics
tecn ològiques
LL U
marc ats
comar cals
signi ficar
Cr ònica
Pat r
Ver gés
ampli at
proteg its
ome tria
connect a
inaug ural
Comar ques
Sobre tot
esment ada
mult itudin
ov elles
Hol anda
cicl isme
procla mar
hero is
nutr ició
Blan co
Vent ura
adjudic ació
pà tria
Xà bia
Consul ti
ofen siva
Sag unt
Etique tas
vitam ina
Veg as
Exist eixen
vang eli
furg oneta
Domèn ech
Felici tats
teore ma
prost itució
pròr roga
suple toris
A CA
F ig
G M
G aire
H I
H ero
I CI
I TA
M ec
M ult
M úrcia
P ur
R C
S tu
S cot
e X
j ador
p oma
s ter
at zar
re tre
pr esta
ol e
ol f
di ana
em e
da val
oc k
mol l
te òrica
mar í
ti ene
Per met
cre ia
ga z
pe bre
esta cion
ran is
ro de
bar reg
pol z
pol ar
men ja
lli ura
lli urat
An al
aut ent
rect ificació
nat a
ba o
sim ples
deci deixen
particip ativa
ub icada
vest uari
Gu iller
estudi at
tri pu
RA C
AR T
const ar
dom ina
funcion alitat
integr a
dr íem
UN ESCO
viol ent
fl ora
fl ota
expl or
Cer ti
quad rat
fal se
interpre tacions
197 1
foto volta
ali z
UR L
perill s
suc c
ke y
IB I
ip ular
informat ius
Tra il
modern itat
complex os
mantin dre
adver teix
comi at
artes ans
proveï dor
Vir tual
optim isme
recon eixen
pac ífica
imm ers
Hil ari
cana den
absten ció
immobili ària
Isa ac
Lou is
Peri od
parci alment
Llibrer ia
Gaire bé
D IN
E ras
G IA
H en
P à
S ans
W est
b ibliotec
n oble
al d
que din
se tena
ta ble
par o
fer ida
ec ologia
ll àstima
ten cions
dis cul
19 37
af luència
id èn
esp la
cr is
cin ta
divers a
posar em
gen es
permet ent
constru eix
Pro va
conf usió
net s
ula cions
compet ent
preg ó
cir cul
rom anes
hotel ers
ival ent
màxim s
destac ada
Vila Web
consell eria
Mos cou
Res posta
allar g
Sí ria
Hist oria
agu lla
pract ica
Cent ro
Ambient al
banc ària
grav at
we et
All ò
mascar etes
àci ds
rum b
abet h
RT X
domin is
adh esió
Arrib em
profession alitat
Ub icació
Clo ud
exerc eix
Gü ell
vide oc
nucle ar
Bret anya
ebre m
Whats App
japon ès
Jard í
A I
C e
C us
C ec
C ris
D it
D ou
E ric
F arr
P 5
P un
X L
X imo
[ +
i et
es glésies
de qu
er ig
er te
al ba
am ora
est i
ad ona
ta pes
par ado
for ats
mat x
mat ernitat
ib ol
bar alla
bar ranc
cor t
sol o
ag reg
difer encia
Ar r
Jo hns
ren úncia
15 h
contr ar
Cons tant
camp anar
CA MP
super vis
fon aments
Pro pi
bo ira
mem br
desc entr
Inter venció
condi cional
ez a
redu int
Cor om
Su poso
disseny ador
hor ts
Mas ia
pis cines
UP V
expl oració
arrib in
liter àries
toc ant
democrà tics
fís icament
Social ista
Municip als
lus trat
Go od
Men dels
concurs os
adre çar
experiment ats
compart im
implic at
reiv indica
inaug urat
concentr ar
repet eix
necessita va
deleg ada
CN T
Mit ja
esment ats
len ou
sò lida
atract ius
càm ping
requis it
cell ers
Gau diu
rebu des
roman dre
engany ar
partid aris
emerg ències
enva sos
direc trius
escèn iques
inclus iva
med alla
Etique tat
Wik imedia
terrat rèmol
conqu esta
Pag ès
coher ent
" ?
" ...
: )
? ".
B rit
C ub
C rim
D ro
R S
T ib
V IA
c et
c up
l ista
l enta
m ades
o va
es l
at l
del ici
ant ece
ot h
con re
con cedit
con gressos
ur ades
as semble
si er
gr ess
ex portacions
res ident
ser iós
ra pi
ment alitat
ment ides
ll enya
pre ciós
car tera
te ories
ja ciment
esc lat
bl u
vis me
ill s
pe di
19 34
ran g
col oni
Com mons
trob es
trob alla
dem i
pen ya
ban deres
inf eccions
pob lat
super en
CI S
guany en
mir ades
Co va
so hn
escri vint
bas ades
uï da
compl int
recor re
cot ó
mort al
Ant ònia
consider ats
indic ant
favor its
exper iments
dedic ades
Reg ional
bot if
tran qu
anomen ades
Res earch
compta b
Fe ia
OL O
196 7
mad uresa
patr onal
acab ats
US B
vac unes
tradu ir
significat ives
homen at
comport aments
varia ció
èst ia
implant ar
Ferr é
barcelon ina
exact a
abandon ament
Produ ctes
llig ada
fidel itat
Az nar
dinà mic
xines a
Mà laga
redact ar
acred itat
Inf ància
Enlla ç
Bil bao
revel ar
llim ona
passad ís
autop ista
CSI C
llàgr imes
Christi an
propag ació
F oc
G S
M ort
R ègim
S port
T iana
y le
è lia
í bul
al b
an ir
la u
at ar
re volu
or ro
in ess
in hib
per ru
con vo
as tron
as falt
im ar
any ada
res sal
ab r
pre co
pre judicis
ma pes
man ipular
tre mol
dis pers
ge ografia
ni e
19 32
fin ques
In és
cor al
col on
Mar k
Com iss
form ularis
sol dat
ag ències
cu des
ES PA
Est ad
Re la
Re fugi
cin tes
labor en
ren om
mis èria
EN A
assa jos
comple tat
Ser ia
cont enta
uni forme
compet ents
Po esia
Gr amen
castell ana
Actu alització
tram itar
vari ada
mè diques
constitu ït
Vol ta
Don ar
pil otes
legis la
distrib uir
increment at
retir at
psic o
At ès
fen òmens
sac se
Rub io
jurí dics
assenyal en
apos ten
Trob ar
previs ible
proporcion en
exili ats
temp esta
atribu eix
dé us
mural les
curtmetr atges
Clín ica
ango ixa
Viol ència
inva sió
Sci ence
pneum àtics
provo quen
grand ària
Tip us
Mendels sohn
Gramen et
( +
A con
C erca
I z
P 3
P L
S es
S ad
T RI
d ò
f essin
t v
t àl
t úlia
x of
á zquez
… ).
es i
es car
al çar
at g
at err
it os
est and
di àries
us ta
ter itat
ex ager
vi br
por te
ass al
bre t
comp ensa
Per io
co ord
int imitat
sen cera
inter fície
19 28
segu ia
pot ents
col om
pol ic
pen als
mi rem
sent ències
set ze
trans curs
estar em
apar egu
neg atives
fon ia
Man comunitat
oper adors
Mo z
feb les
assegur ances
vo cabulari
compr èn
volunt àries
comprom esa
Ter ri
CE P
moder at
Res ol
avant guarda
adequ adament
subst an
viv ents
SE G
Pos em
acus ar
adre çada
th is
tros sos
cerca vila
maqu illatge
mass atge
enregistr ament
hí b
presump tes
grec s
Coneix ement
Serr at
arro don
Blu e
Object ius
curtmetr atge
intèrpre ts
nec es
clí niques
refle xa
Calif òrnia
( '
B EN
E lect
N ar
P ix
P esca
S k
T ext
T imes
U D
V os
d l
e guin
g ota
i der
m ers
y ect
ó mac
an or
at is
re força
in seguretat
est ables
ad mès
em perador
gu eres
ob a
ca uen
ve uran
itz ador
ten sions
su les
vol íem
Es ca
int est
ones os
inter medi
ju eu
ro dar
trob aran
gran es
pi oner
Est às
fr ena
equi pat
porta ven
EN TS
tí pica
Sal am
probl emàtiques
semb li
bo ig
lici tats
Hi p
exist ia
Fer ro
Gar y
go ogle
cò pies
respect ives
Espa ñola
patrimoni al
ton y
alternat iu
resist ir
fu e
LI T
mera vella
emp enta
quali ficar
contam inants
immob iliari
Cent elles
Pob lenou
dob les
histori adors
acost umen
giron ins
Mire u
lú dica
destr os
pesse bre
But lletí
mp 3
wiki pedia
sacri fici
farmà cia
pue de
obse qui
Materi al
savi esa
desgas t
Carras co
lap se
Partic ular
C ull
D RE
G iu
H arry
W iki
Y a
d ú
g ab
k en
p ack
s anta
È S
an alitz
ci mera
in capacitat
om plen
est ómac
se ñ
di bilitat
con cor
ta ge
ca ixer
et ària
des pul
oc al
fer es
ve ien
ec les
den cial
mol í
esc lar
mar ró
tin es
ti ple
cal ci
Qu ar
Est an
tan cades
inci dents
lu x
mà tic
tim s
veure u
Pu c
vest íbul
TA MENT
obr era
Ma jors
conf ess
menys pre
Inter pre
ind ús
AN TI
aten ent
fos cor
divi dit
Ben vinguts
viat ja
passa ven
participar à
parlar em
premi ats
protagon itzar
protagon itzat
liter aris
én dez
pressupost ària
lus ions
Bor ja
Comun ista
afirma va
sot met
expli quem
tut or
cristi à
pron òst
circumst ància
enor mes
comiss aria
sòl s
Plan as
actr ius
Andre ws
Mass ana
pertin ents
pertin ença
vil le
cull era
absor ció
assegu t
Trad u
Aca dem
acred itar
bet evé
Fà bre
culp able
Ang lada
Dep en
degrad ació
encon tre
Treballa dors
indemn ització
motx illa
Introdu cció
proced ència
contínu ament
Reix ac
pern il
Champ ions
A ina
B orn
C it
C òr
C inc
G AL
I ra
I gna
M estres
O h
O k
O MS
S ES
T ime
Y S
b in
g ado
h ep
i fe
v arà
y ol
z as
er ina
ar ru
el le
at ents
re parar
or de
or ía
un e
is on
est els
se cs
tr ig
tr ats
di ran
em in
con tar
il le
ob sol
ament als
li o
més Característiques
ab sis
st art
part int
car tró
port i
port ades
pot es
cor atge
cr òniques
cu b
Re du
10 1
Tot al
seny alització
govern ador
deu en
mir o
constru int
bus qui
consi deri
cur tes
Can o
Can als
suport ar
Lle vant
Univers al
Pa per
usu àries
pràct ics
fí cies
rid s
veï na
prepar en
especial itats
Ra úl
carreg ada
aga fem
ros tre
alter ació
Cr è
estigu és
parl ants
ik a
titu lació
foto gràfica
satis fets
Cl ot
mul tes
coordin ar
aprenent atges
So par
lluny à
Internet Wi
Fl ors
masc otes
condem nar
bur ocrà
Sec und
enfront aments
cristi anisme
emprened or
GRA N
vess ants
talla t
Cà tedra
coc o
derrot es
Record o
debut ar
estren at
semi finals
Coordin ació
adh es
acredit ació
Of fice
Excur sionista
Tècn ic
disfrut ar
Menys Polítiques
Tara dell
cere als
mésCaracterístiques Accés
( -
. ;
B ibil
E pis
G rec
M N
P H
P es
S pa
S istemes
T est
U CI
V ies
a se
b og
f éu
o pa
s w
z á
z za
ü r
en glob
re form
in unda
in comparable
que dant
est én
se para
ad ra
di lu
em po
con reus
amb ients
as sign
im b
des en
su plement
esc am
co dis
ora cions
pot encials
cor ba
Mar ín
lli gar
jo ies
gener ant
pat in
pren em
Car nest
ren aix
Cas es
apar ador
envol tat
punt uació
gen oll
RA L
Ma ur
As segur
Co rea
tur ista
ula ts
sort irà
ard ó
Univers itària
Mont grí
preg ària
TI VA
esport ista
Po wer
her bes
corpor ativa
estim ular
dera cions
administr atius
tele comunicacions
jut jar
vari ar
Llu ch
fal tat
mínim es
consci enciació
foto gràfic
desit jar
NO VA
compart int
implic ades
Bor rell
supos ada
denunci en
normat ives
corre us
estran gera
vulner able
inten si
ator gat
sof à
multi discipl
Torn eig
àlbum s
compat ibles
subs cripció
descar tar
tort ugues
Yo utube
meravell ós
pun x
contrad iccions
esbor rar
Jer us
Gim n
financer es
coman des
Mala uradament
múscul s
mundi als
Americ an
bombar de
Johns on
Igna cio
. ),
A company
A gra
C any
D ON
I AL
L ot
L CD
N asc
V ine
g ement
j ó
l arà
ar cs
at i
at òries
in fr
am on
pr osa
ad dic
tr igar
em bot
ot eca
con front
com ès
im posició
par aigua
li qui
fer en
ra cisme
ac les
ment als
part i
ass ot
mar ges
Es ter
cap tura
int uï
Bar bara
cr om
amp es
pi ent
pat ologies
ofer iran
trans cor
Car l
Car bon
poder ós
vos té
Pu blica
mos seg
tí pics
gest ionat
tri o
Cal drà
bo ur
Ll op
Ex teriors
pt ats
àg il
Tor ras
respon en
pon ència
vul guis
mob ilitzar
màxim es
favor it
Mon ta
Mon te
Ber tran
associ atiu
Pl anta
mè dics
interpre ta
Segu idament
obser vat
Baix a
fab et
th at
ràpid s
infer meria
diver si
psic ològica
verm ells
modern ització
fabric ant
claus tre
invent ari
Gonz alo
escla tar
expe dients
artes ania
monu mental
noct urna
hel ic
conten idor
Alba ida
Gre en
viola ció
Afeg iu
absor b
Cad asc
Inf ants
Fà brica
Clín ic
anèc dota
emi gr
insp ecció
sing le
Trem p
bombol la
filos ò
Carnest oltes
> >
A SS
B ibli
C ó
E i
E merg
F EL
G AN
H al
I denti
J OS
L um
M embre
M erca
R ER
T ener
U cra
c obertes
g amb
g otes
j amí
p ala
p irà
p hone
r úst
es por
de _
de ceb
en creu
al ien
an cia
qu ers
re construir
di ci
com e
im possibilitat
gu ès
pro venen
des infect
ra igs
car ena
all onga
te ulada
mar ina
Es pot
seg ures
19 18
pass o
Com ín
fet ge
An glès
Barcel onès
actu ant
actu alitzada
pi des
10 5
gener alitzada
fr at
hom olog
sos p
ida ble
CA TA
of òbia
Vi ena
mic rob
Uni versi
mor o
ON I
san cion
Pla za
compet idors
Or dre
Or tiz
person alitzar
llu it
Mun do
quin zena
io ga
creix en
administr ador
Ca ñ
incorpor ant
Lu cas
fal lida
Res id
introdu eix
preci osa
IC S
Act e
experiment al
vas culars
196 2
norm als
fund adors
lent ament
àri us
consol ida
estratèg ics
allotjament Descripció
compleix i
Mill ora
Fil m
immob le
competit iva
pedag ògica
Ren fe
despleg ar
reac cion
jer ar
cinemat ogràfic
degust ació
musul mans
indig nació
sú per
hipò tesi
Llí ria
permis os
òces i
Hosp itals
guitarr ista
membr ana
rapi desa
Bibil oni
7 50
B ir
B eg
C lim
D ay
J ane
L iber
O rig
P UNT
R ab
R ama
R eno
R onda
S N
V ega
c nic
e labora
f lo
h ard
n í
n ab
v u
v amp
es bar
es fera
de més
de utes
de vast
er ació
re obertura
re utilització
in em
in capaç
in conscient
un des
ent usia
am olls
ad ulta
com posta
des bord
ri ger
ul lada
pos tal
ac amp
ig iós
ell ar
ass alt
man us
vol ant
ins pect
bre us
cre mat
fin ances
In fra
pol ies
jo ven
cu ando
op ia
mi de
sal vació
agr icultors
mer eixen
contr ov
àr dies
posar an
apar car
17 14
deci dim
alt h
escol tant
bus quem
mem òries
bu ga
ordin ària
vot acions
vor eres
quer ella
TI S
afeg eixen
compr at
Ra y
For um
VI H
Edu ardo
contract at
mu se
fant àstiques
Sab em
condu eix
respect a
desit jat
roc ar
crim s
Por ter
connect ivitat
196 3
influ ir
vig ents
esment ar
Comp tes
elev ats
adapt ada
inspir ar
Diu en
but lletí
enri qu
optim itzar
preser vació
fia ble
rescat ar
Professi onals
Jer oni
cinquant ena
infin it
work ing
revolucion ari
Olím pic
mallor quí
encapçal at
àut ic
PRI MER
liquid ació
resseny a
Ciudad anos
horitzont al
Eras mus
preco ç
controv èr
A MI
A cab
B í
B ob
B ones
B àr
C y
C ava
C avall
K en
L ínia
T ex
V eter
W ater
c obra
e ibol
f arien
l ing
n eb
t its
u z
z ano
ar om
an iria
la gen
ent er
it eu
per judici
con ca
ur des
as tres
as seure
im min
us h
us t
et n
li dera
ex it
pos es
ser p
ser ola
ver de
pl orar
esc an
dis parar
ess ors
eg em
cre dibilitat
nos tàl
id ora
mo uen
pla ent
... ).
pen sió
actu alitzat
mal tractament
art í
trans format
Val or
particip atius
err ades
seny ors
pens ada
Esp ect
gen ètic
Uni da
bus cau
Em ma
cur ar
medi àtica
Univers itats
espect re
celebr ant
veï nal
fest ivitat
Rec ol
teu a
acompany ades
PA U
darrer ament
conven cionals
àm p
guar donat
Cu ix
pan carta
Lu ís
Not ícia
sex ualitat
proteg ida
Baix os
Premi à
considera va
Ba se
norm alització
concentr at
Econ om
circu its
Tec h
significat ivament
recoman ació
doctor at
teat rals
Pic asso
procla mació
oo oo
convenç uts
Sil via
Escal a
estad ística
tamb ién
tèr mica
didàct ica
Europe an
empla çament
Aju da
psi qui
Herr era
Jerus alem
2 30
D ri
D ies
D AN
H ong
I o
J ones
L ink
c èmia
d anes
n iu
s how
t x
u par
es força
es capa
at letisme
un dat
pr incesa
est as
ol ors
va si
ur u
com te
im parteix
le ans
des vi
ex ca
fer rocar
ver ta
ist ol
ll ant
man uals
esc amp
mar cant
comp ut
Es c
ina dequ
ill ar
esta fa
cos tan
19 23
nom enar
bar ca
don eu
mo cions
esp ont
dem barra
val idesa
ES A
gan ivet
ella ment
estr als
Jo han
lla pis
art it
sem estre
inst àncies
loc ació
trans it
trans portar
lle var
sor prèn
Cas ano
às siques
àr qu
dest ina
mos sèn
CA M
cant at
ch ar
lect ives
aju di
TA LL
òg ics
ce des
medi àtic
pt ació
lleg endes
obert ament
Or leans
rom ànic
las h
munt any
dirig int
text ures
Te atro
CE IP
cò ct
queda ven
caracter ístic
Cer dà
dot es
RO C
fal tes
Res um
rebut jat
adequ ar
recep tor
proteg eix
excep cionals
deri vada
connect ats
Bale ar
196 5
prè vies
Nat ional
QU È
quí mic
sit e
substitu ït
genera cional
escr ut
mantin gui
apos tat
Alta fulla
empat ar
empat ia
innov adors
Bis be
desper ta
reclama cions
òcr ates
Bro wn
compens ació
engan xar
frac ass
meravell osa
sobiran istes
salari al
obs essi
Dal í
Pens o
líquid s
Situ at
mitjan it
Guin ardó
Esplu gues
FORMA CIÓ
Deleg ació
Roy al
Castel let
Ef ect
Corpor ació
sàp iga
soft ware
Accep tades
Tener ife
2 20
A VE
C RA
C ost
F as
G IR
O vi
O ce
R ius
S ot
V Í
Z el
d ons
g ons
g essa
i fa
l ob
l ut
p imes
p adr
s ils
t ia
v àries
z y
Ó N
ò dic
es o
er an
an òn
re tallar
am un
per den
ol is
com bo
ha gen
ha gis
us en
ca ç
des coneguts
ul trad
ab al
ab elles
pre tenia
esc assa
tin ga
prim it
Al iments
id ades
bar res
cons agr
don à
reg ionals
pen seu
met all
ER TO
18 h
curs ar
vin dre
vin gudes
haur às
camp ions
presi dida
14 h
CA ST
trav essar
ch en
super ant
conf luència
post grau
resta urar
deman arà
ref riger
sort ia
llen ç
oper ar
carrer es
artic ular
afect arà
Mont bui
Pre par
resul ten
recor deu
Mol ta
Ja ime
compr adors
dist int
dr amat
cò mics
moder ada
bla us
Res ort
Ab el
hon est
Cre ix
coordin at
interna cionalització
rien d
perill osa
pais atg
emoci onals
relat ives
tancar à
context os
aven ç
sensi bles
regular ment
tradu ccions
Cab all
Trans par
solid aris
aixec at
mons tre
Fo ix
optim ista
bloque jar
lig ències
SER VE
Plan eta
Esta bl
mí ting
endins ar
cinemat ogràfica
greix os
Clas s
recolz ament
plor ium
veter ans
patroci n
Necess item
regis tra
abund ant
discre p
Estr ella
Alum nes
desfi lada
Nis san
convic ció
Tempor ada
antece dents
0 80
1 17
B M
B elles
E leccions
F alles
F GC
G reu
J udi
L en
L ar
M ú
M OR
O K
O ut
P ad
S à
S ports
T Í
i ones
p ació
v àl
ò xid
de a
re petit
or qu
in estabilitat
is es
ad voc
tr il
di en
di fon
con formar
con forme
as sec
gu ants
des pres
ig ament
all y
En g
bl ia
19 24
19 47
bar ret
pass à
vers a
pol è
form alitzar
dur an
lli gam
jo an
actu alitzacions
rect angular
gram es
edi ficació
cin g
fi ança
contr ària
ital ians
bat le
plant ació
reb os
edu ca
ric k
gest os
grat is
bo a
Ex plica
clas s
defens ant
lici tant
defin eixen
vor era
osp ect
TI VI
assegur ant
Ra hola
Ra ül
Mat as
hor ta
Vic e
dist anci
viol í
viol ències
promo gut
administr atives
comb inacions
creu er
pic at
vall s
vuit ena
segueix i
Pos ar
tercer es
traslla da
increment a
glob als
fres cos
cà lid
influ ències
bit llet
tom ba
Sim ón
deleg ats
Lleg iu
tradu eix
Gl oria
disput arà
llic enciat
aï llat
Torre dembarra
legislat iu
boni ques
teat res
barcelon ins
secund ari
milit ància
privileg is
parà graf
embl emàtic
Ib èrica
simb òlica
sender isme
Rad io
cedi da
Ballester os
anèc dotes
Pràct iques
verit ablement
Burg os
Femen í
cereb ral
Isi dre
Junt ament
Labor atori
BL OC
Metropolit ana
bale ar
contex tu
Archi ve
assemble es
- )
C ra
E qui
F ent
F ire
H ug
M ár
O ller
S un
U V
b unyol
d ols
e volut
f ri
f rà
p ng
s ents
v ens
v itals
y m
Ò RIA
€ /
es pl
de d
en cam
qu im
ci ms
on ya
re put
re conegudes
in jus
it or
om an
ic ot
is sos
ot or
con ciliació
as í
ir s
ici des
pres ons
ens is
pl us
car itat
esc oc
ess is
ju dica
men ús
Mar ket
An terior
pi la
Est artit
Re flex
sab ors
Con tes
lo ca
tru ita
hom og
torn in
torn ant
Car olina
pob la
atre ure
ap liquen
dest il
deci siu
depen drà
gest or
tel et
Vi ver
mir at
Cal vet
bon ics
Ro ad
caus ats
recor reguts
Mol í
son ar
consider ant
Ra imon
Ben im
Ben icar
For ma
determin ant
mu cho
bot es
conse cució
administr ar
origin alment
reser vat
EU RO
efect ivament
Ne gra
Rib agor
pil ots
contrib uït
Cam pos
reno vat
orden at
coinci dència
repet ició
yo ur
plen dor
emb ors
verm elles
idor m
frances es
embar ca
destin arà
compleix in
PRO JEC
Coll serola
apos tant
eva cu
Af gan
compren sible
Tal ent
doctor al
provín cies
encar ar
hort al
Escri pt
Tecn ologies
Gre mi
Document al
telef ònica
bel ga
aux iliar
reiter at
rever tir
Incl ou
constat ar
atem ptats
dià metre
best iar
finanç at
equiv oc
progress ista
planteg en
autog est
Estrat èg
tarrag on
fili al
esborr any
Eul àlia
eX plorium
polz ades
Period istes
Elect oral
helic òp
buga deria
Bàr bara
Casano vas
! ).
1 14
B als
C amar
F res
H ER
L and
M D
P ell
R icar
S essió
T ut
V ers
W P
_ de_
a junt
a plega
c uny
g il
g arri
h ara
j et
t ig
è tera
es par
de rec
ar ning
an à
an trop
at ria
ic ones
di posit
as ter
im par
im partit
il oc
ob es
ob ier
ta p
us es
des coneix
ex quis
ver ge
ra p
itz i
ll us
ins ular
mat inal
vis cuda
cas at
inter canviar
19 29
19 54
Al menys
ho use
cor dó
col ònia
pass in
pu gn
fic ador
Mar cos
Bar ó
don de
ag en
Sant uari
dic cionari
mi reu
actu arà
met alls
Re gu
gener ositat
ne ws
art ístics
ben z
cin co
mà tica
equi par
to da
sub til
do wn
CA SA
prob abilitat
utilitz eu
rela ta
product ora
Gu er
paci tat
arribar an
bus cat
rat lla
Ro des
mus ic
IS TA
Ch il
marc ades
rob ots
Fin ances
Mer cedes
moder nes
incorpor en
Ram is
liter alment
Llu c
pan ell
TE M
quedar an
Res ist
fig uració
comb inat
sus t
On ze
adap tant
Cam ins
correct es
informat ives
urban ístic
LE D
vit alitat
prior itzar
emp ad
òp ics
fabric ar
significat ius
elev ades
indi cis
Af ect
arren ca
dict ador
SO BRE
sof ist
discrim inat
Edi ció
cicl ista
Cel eb
catalan ista
nasc uts
hipot eca
Vill ar
stre aming
clín ic
Def ens
adjudic at
Leg al
direc cions
Jack son
Eli z
defici ències
Ment al
Arch ives
publi quen
Integr al
agl om
Valent í
result ant
CION AL
lleial tat
Idi omes
àrbit re
còm plic
MenysPolítiques Els
Cuix art
! ",
B ul
B apt
F ull
H ort
K ong
N in
P 4
R on
S to
S anc
S OS
V as
X i
Z en
] ]
c anya
d ola
h et
k ir
r oll
w ik
z à
Ó scar
… …
en gran
ar ist
ar ag
ar eny
an as
an ès
el d
or ella
in útil
per es
ic as
ad ures
ant is
em an
ot ina
com a
il è
ob tenen
ob sessió
le d
et y
vi er
pos ts
ser s
ver b
man res
hi po
esc op
tin guda
ti pologia
cre atives
vis ions
ió dico
tar des
don ades
cer dà
Qu é
gran ja
vern es
pat ologia
catal án
ben è
hab it
ber enar
agr ari
mer idi
pet ó
cult ur
mis sat
Pro p
def ectes
explic o
sort im
bi ologia
tro fe
bol es
Tor elló
anim em
Po der
estim ació
For ça
Ha y
Gr am
CE O
aliment àries
Sab er
TE C
difícil ment
tindrà s
Ten nis
Sa k
Cre ar
Pe dag
dispos ada
deri vat
orden ança
rot onda
ingü e
inver tit
conveni ents
contribu eixen
GU ER
afirma cions
recorda va
Ven ècia
complement àries
extraordin àries
jurí diques
Bus iness
sopar s
recoman en
Hab itació
gastron òmic
màs cara
rus sa
restric ció
alluny ar
Ga za
tort uga
abst in
Llar ena
Cristi an
préstec s
rebaix ar
Gro up
ende vin
Continu em
Jut jat
prec ís
hostal eria
9788 4
Màr queting
Tribut ària
confront ació
Emerg ències
Transpar ència
Afgan istan
, ,
B ad
D j
F lo
I ran
M and
P oll
S ó
T y
T rà
V et
a plau
d als
f èr
g ola
h àg
m its
m ull
w atch
x er
x iques
à pat
de bilitat
de tencions
re trobar
re embors
un its
is c
est ones
ant ib
em pitjor
con fondre
ur adors
im primir
ha gué
si es
si ón
des mant
oc ell
ab sent
ab asta
du al
man dar
su porta
ins crit
mol è
rec u
esc ur
dis si
ven edors
cre gut
19 48
ju eva
pol ivalent
Catal an
cu pa
cu iner
val idar
mi ento
Jo vent
Con vocat
sor olls
reb all
continu aran
esper at
lect ora
13 5
sig les
Fran ces
gest ors
mir en
comple xes
refer it
bi ològic
reun eixen
veï nals
dol ents
Su c
asp all
etc ètera
Ben idorm
go verna
atur ades
fl oral
Llu is
Res ultats
Res idència
Not es
confi denci
atra ure
efect ivitat
sob rec
Mor era
ali ances
elabor ada
infer mera
foment a
line al
normat iu
Sim fònica
Is ma
Fi del
GU A
Mag n
òp tima
Organ itza
Mitj ana
femin istes
terror istes
sugger eix
nas cuda
Met eor
apren en
Bro ok
derrot ar
setman als
Bur j
Accés s
Solid ari
Quer alt
Ul tra
naz is
Ton y
vitam ines
eliminat òria
Cli ent
plur alitat
aur ic
Capel la
Amet lla
Moral es
Prem sa
tony ina
A gn
A ventura
B ac
C ari
C ho
I na
J ef
N à
N ens
N eu
P utin
S UP
V alla
c han
f ara
g ina
i ers
k il
n ac
u ats
v aris
es gla
de mol
de gà
ar ca
el ia
el ef
re compensa
in als
in ex
pr iu
va u
va ja
par eix
et ho
ex portació
vi als
part e
su or
su pòsits
den cials
hi drà
unt u
mar ro
mar xat
tin ta
Es lo
tem àtics
19 14
cal gui
men yst
Mar ítim
Bar ra
cer es
cer cles
trob in
cu er
Barcel oneta
dic e
mi queta
ing en
met al
activ at
fe ó
Con vent
br os
agr upament
Car mel
prot estar
espa cial
Ajuntament s
reb aixa
ch is
super visió
super fícies
TA C
constru ïts
apro vats
const ata
defens ors
defin its
Tor r
Tor onto
arr era
recor rer
tornar em
bal cons
VI C
servir an
oport ú
demos trant
lim itades
sar ra
Cer t
Pl ant
democrà tiques
pir in
plante jaments
Tur ó
Tur ull
gol ej
Segu eix
introdu ït
Art hur
Juan jo
desenvolupar à
dro ga
Ger vasi
và lid
sot mesos
prest igiós
Oc cident
justi ficació
reci tal
Tom ás
decor at
arm ats
busca va
veget ari
competit ius
Bis bat
pedag ògic
Alco ver
múl tiple
Recor da
urn al
Alex andre
Eu geni
abandon ats
acomi adament
alluny at
preocup ant
................................ ................................
descobr int
RU C
Gel ida
lava bo
Fort uny
Cort és
Distr ib
excessi va
ESCO LA
Angel es
admir ació
Rafel bunyol
-------- --------
Company ia
Secret ari
Conven i
TG ES
subven cion
pest anya
Assist ència
Org ànica
càst ig
Eusk adi
FON T
epi demi
ridí cul
otur isme
infor meu
indús tries
Ucra ïna
pirà mide
5 a
B eren
D esta
F ór
H igh
S èn
S tor
S énia
T OS
i og
j adors
r ina
r ols
r íem
s ho
é e
— —
er ussa
al ies
at h
at res
on ge
in justícia
am èrica
is ter
del iber
di abet
ot ec
im preg
ha ce
des coneguda
des prèn
ex posats
ex tracció
res ili
ab orda
ell és
car s
ten or
su primir
port ugues
ge o
Es cò
co pes
int o
inter vingut
19 43
can ar
Com pet
form alment
estat us
deix eb
gui ar
sa gr
sent irà
10 h
pat ia
Des ign
cin emes
set ge
hem at
trans ports
Car ner
comun istes
inici arà
Si erra
vent ilació
menys preu
prò leg
trad uït
gau deixen
valor en
her eu
establ erta
ale gr
Ad am
PA H
PA RA
esqu el
Le onar
Fundació n
vid ències
arrib à
Pl ans
pan ells
Bo ix
quedar ia
Res ulta
pic ar
allot jats
On line
segueix o
Cre iem
excep cions
creat ius
Rà pita
Be etho
cooper atiu
separ ats
CON S
vac cin
històric ament
preveu en
impuls ors
avis a
assass í
Deix em
explot ar
Ed gar
mani obra
Disseny at
subrat llar
nutr icional
hipot ec
viola cions
bac allà
magistr at
afric à
excessi u
valent ia
degust ar
natur alment
àut ica
curi osa
DL SS
Human itat
Respons able
Esplu ga
legit imitat
Pis cina
madril eny
Rome va
Iv án
Dic cionari
salu dar
Bre xit
Fru it
Core ografia
veur às
perfor man
assequ ible
endeut ament
Begu es
bour ne
Burj assot
Escò cia
Beetho ven
A vant
A ward
C és
F AC
H y
M ò
O t
P assa
T amb
U lla
a gua
b ú
e jada
g ara
j an
p às
u le
u ña
x í
x ador
ç à
la ps
ci as
on era
on etes
or elles
os ten
ad na
di guem
ant o
em pl
com posicions
gu àrdies
ir is
ir onia
ha ig
le gues
ca bal
des perfectes
gr ossa
pa ge
po ètic
car to
ten y
esc ó
Es mor
cap tació
cap ellà
19 22
eb an
men os
Com as
àn gel
Aqu ells
An d
dic tat
pi les
sab ó
ne gu
ne vada
pat ata
torn à
vin dran
bat lle
super mercats
CI N
fot oc
represent ada
conf lu
apro p
post guerra
so pa
mic ros
mic rò
bas ar
Ll eng
ru ix
tro pologia
drà s
Col or
Pa is
Mo is
her et
IS A
IS O
tit le
Ch ica
bil itats
facil itats
Gr ans
Pl ani
vari ades
sion at
Cat àleg
fra ctura
modi ficat
espec ulació
recep tors
pec at
Cl in
Cl àss
desit gem
futbol istes
Lla tina
elabor ats
IB 3
dibuix ant
Li fe
fru ct
greu ment
rad icals
equilib rada
rendi bilitat
fir mes
caigu des
Med ina
cavall er
quilò metre
anal ítica
Far mà
Joaqu ín
Fre deric
Torn em
avanç ats
juga va
mascl istes
facilit ades
mass ís
retalla da
Garri gues
pronunci at
bro u
land ès
atro pel
ignor ància
Antic h
acceler ar
Constru cció
Bern ab
Moll erussa
frus tració
sorpren ents
farmà cies
autog overn
acce deix
Ross elló
trepit jar
apre cia
flot illa
Divers itat
Quader n
Lis boa
Gut i
antif eix
hand bol
blu es
Bí blia
confidenci alitat
Leonar do
" ),
A ven
B assa
C ara
L ong
M assa
M ind
N iv
P AN
R utes
S pr
S ori
T as
d anses
e vidències
f t
g ora
j s
k h
l ots
p its
p urament
w an
y ar
À mb
à polis
qu esta
ci tació
re vol
os fera
is m
est am
ad missió
tr ades
di gest
di pòsits
com et
gu err
ha guera
le ge
ta cte
ca ució
ca ient
li ps
El oi
ac let
car istia
ten da
ins pec
port als
port aran
aix ó
tin er
cion ista
Per iódico
cos tes
inter rup
Al ícia
tar ann
can ó
leg at
cr uel
cu ir
difer enciar
inci dir
mal barat
mit ges
alla u
Jo e
poder osa
gi la
prom etre
Par aules
especi alitzades
sub ter
cri dant
esper ances
aju din
dor f
rela ciona
ide alment
product ius
voc als
mir acle
und ència
mic o
èr its
bas en
prò pi
cont undència
oper a
oper ador
rig o
Tr in
Hi vern
aplic arà
rom and
munt at
dol ços
trib u
funcion als
efici ents
Rec entment
lim itats
premi at
MI C
elect ors
avant passats
instru mental
èl ica
parl arà
Fa se
Vol tre
Pen ínsula
Part ici
pin z
requer iments
Bor ges
ingr essar
deleg acions
masc ota
Alem any
pub licitar
complement ar
ompl ert
Dom in
menj ars
esca cs
fat iga
desper tat
mut u
Produ ct
lel es
indis cut
orgull osos
cob ren
lot eria
enll est
oce à
Educat iu
Fam iliar
pastis seria
òb viament
simpat itzants
Estrat ègia
Jar dins
ritu al
radic alment
cadà ver
xem ene
avort ament
Aero port
ventila dor
daval lada
tranqu ils
Particular itats
Secund ària
Nasc ut
Carbon ell
immin ent
hortal isses
obier no
diabet is
' «
1 er
B ass
C oses
G org
L ara
M asc
M àrius
S tal
S how
S ystem
U I
V iva
W alter
f ulls
g oma
o do
s ants
s ots
v è
x x
À N
è rie
í tic
– .
en ver
er ro
ar o
al istes
at esa
re formar
re productor
it é
ic es
ad onat
tr ament
tr iu
di et
di ments
em bal
em peny
va gues
im part
ca pr
ca val
des encaden
ex tr
ul ina
ab ilitats
ell y
ec cionar
pre mat
ma xim
ten deix
su aus
esc ull
esc alar
ón ica
ven ced
cre ats
tat u
ga ires
van gel
cel ebrem
cas ament
19 19
af lu
ag os
dur esa
qual ifica
An ys
millor en
ren des
contr aris
30 80
21 h
ap unts
realitz em
deci dida
Gu ard
Co okies
Can igó
not ables
RE A
Tr initat
uni lateral
ine a
anim at
person as
27 0
her eus
consider o
disseny ada
disseny ades
Mon tes
viol enta
rob ot
Puig cerdà
AC TIVI
consist ent
Not icias
enseny at
cab dal
fit xes
fit ness
Social istes
Ne y
ates es
vet erà
pin tat
glob us
registr ats
perill osos
orient at
diver tides
Comun icat
Sim ó
tradu ctor
comoditats zona
condem nats
Prot eg
Ven e
blau granes
ompl int
adapt ats
adapt ades
resi deix
Bra vo
enfron ten
maqu inari
St udio
medit ació
ànim s
gro gues
Met ges
facilit arà
giron í
subrat lla
distr ictes
rum ors
Bru ce
Colom er
raon ament
inquiet ud
Gim énez
mix t
recoll its
reper cut
encen dre
agl ut
ZA CIÓ
Democrà tica
260 x366
conces sion
pesc adors
occident als
ferrocar ril
Cés ar
! ".
A prendre
C ri
D AR
E EU
H ores
I CA
J I
O P
P ego
S D
S V
S at
S oft
T ema
T ard
T MB
X errada
b ala
c ants
f atal
f óra
n us
p iu
v im
v uel
à miques
í lica
ï r
el ectes
re met
un os
om i
est ri
est iga
ad y
ad ó
di des
di gué
ot ja
il is
par atge
pro posició
ut u
gr i
fer ment
ver bal
ac urada
ici o
pres cripció
po dent
ll om
ll ana
ari os
te òrics
ja queta
En gl
comp tem
tar is
col lar
pol o
pel e
can alla
form als
pla gues
cr us
entr arà
produ ïts
Est atal
Est eban
tan quen
sab ien
Jo urnal
ban cari
hab itant
Car ol
prot ector
gi o
to quen
Di ana
ire u
Par cs
sub merg
donar em
continu ï
od le
super ació
social isme
gl uten
major itari
paci f
Vi ew
conf essar
mon d
Inter ès
Ex emp
Man olo
medi oc
defens or
desenvolup ada
Pa z
Pa ge
Mont illa
rom ànica
llu ir
llu iten
Mo ham
her ba
tit elles
consider ablement
indic ada
volunt àriament
Rec ull
fos ques
exper ta
hor m
-- -
sion isme
Ver ds
pir ata
ampli ant
Ne àpolis
Pos si
Se gr
dal les
assum it
Pi era
civ ilització
orden ances
fix ació
FE EC
vit ge
Rom an
emb ass
Au x
compon dre
Cast illo
fac ultats
aus teritat
SO M
acu dit
Mac ron
esmor z
descar tat
divul gat
Villa ge
enregistr ar
fia bilitat
num er
magistr ats
Afeg eix
transcen dent
observa cions
Fab ric
Dest ac
Zar ago
arbit r
senzilles a
prove eix
educ adors
God ó
afili ats
traba jo
Scot t
ecles i
Crè dit
Universi dad
Greu ges
espl èn
Benim aclet
Ricar do
Lleng ües
Ney mar
EEU U
A man
B of
B rea
C un
C enten
D re
E A
F U
F ri
H ig
H ill
P y
P ON
R un
R TV
S ect
S av
S ams
c um
e in
f igu
h il
i anes
i OS
m id
n ín
p iv
p hot
r ament
r ub
s ades
t us
u ega
} }
à cies
es plendor
en ys
er at
an àvem
qu ita
re partits
re activació
in interrom
ent os
per í
ant ia
ot ar
com pa
ut er
vi les
vi dres
for ti
pl omes
du la
pre caució
car l
car bon
man o
all ó
su av
mat is
ge omè
fa cial
Es tran
19 35
19 55
19 49
19 58
prim eix
Al erta
cal la
Com enç
don o
ult ura
mo gut
trob arà
reg nes
val ents
sa h
10 9
catal og
fe ed
br uta
mer o
fun dat
torn e
loc k
sin er
Cons ide
ap legar
Pr ades
especi alització
bat eries
Pu j
ef í
donar ia
presi dir
presi deix
equip ada
Fran ca
Fran ce
obli dem
bo ard
bu da
not at
not ificació
passar el
Cor reu
IS ME
Ad voca
tras plant
aconsegu ia
destac ant
Ben avent
impul sor
let xa
exerci t
perf um
Am ster
correspon dència
Lu x
Pat i
incre ï
asi àtic
Del gado
On col
ident itats
ach ing
necessit o
convertir à
desit gen
intens os
Ciutad ania
patrimoni als
orden ada
este lada
So vi
parlament s
acum ulada
Comp ta
embar car
cans ament
Nos tra
Esper it
COM UNI
Lab oral
Ag ents
Bell vitge
Produ cció
brit ànics
metr atge
radi of
Pod ria
contrad ict
progressi u
aspir acions
Arque ologia
Sols onès
lú diques
Ali ança
ecos istemes
composit ors
disfres ses
POR T
enamor at
posse eix
rama deria
Mes ures
hidro gen
reper cussió
bru ixes
BB VA
amist ats
Int ent
him ne
Prob ablement
Dir ig
german or
escoll its
Hand bol
regener ació
Sad urn
gab inet
Publica cions
plaent era
Chica go
tarann à
3 40
A viat
D R
E DI
G H
K y
L IA
R ico
a pa
a ño
e e
f allar
h l
h ec
i lat
j únior
l emes
r ós
s ofert
x eres
à for
en um
al ú
al ev
at iv
re passar
per ll
ad oc
di oces
con cer
il ies
pro ces
des ment
oc ulta
any à
vi ven
ab dom
act eri
pl anes
pre temporada
car naval
man ga
ins ults
En der
cre ença
co in
19 11
eb a
Mar x
àn dez
trob eu
... ,
arri bo
cu lat
aut ocar
deix à
gui onista
prof undes
Ar tí
tract arà
forma va
Re port
sent i
10 2
gener ada
sal ud
pat ent
lla una
fr aria
set è
agr upació
labor atoris
sin ònim
lle us
ren al
DE O
porta veus
ub icar
mot ivar
tí cies
ric o
tir at
ev als
public arà
bo us
tempor alment
escri via
uï ta
Ll anos
oper atius
drà st
dig nes
investig at
vul n
garant int
cot ització
fre do
aconsegu im
divi dida
carreg ant
dr é
LL IB
gra fa
resol ucions
serv eixi
Cr ítica
sus pès
SE O
Aut om
AM ENT
SI M
superior itat
coordin ada
assol iment
conser vat
impres s
plan etes
Act es
classi ficats
mad u
patr onals
acab in
Lo ve
vig ilar
adquir its
despla çat
reivindic at
config ura
argument a
fruit ers
contempor anis
afron ta
ferro viària
fla mes
hàb itat
succe eix
acoll iment
consecut iva
Fis cal
mostr arà
Ste ph
llig ats
narr ador
impression ants
Març al
disfres sa
dram atur
mix ta
aboc ador
càlcul s
domèst ic
promot ors
espat lles
esque mes
mú siques
iP ad
Jur í
fascin ant
jap onesa
juris dicció
Volunt ariat
dipos itar
multina cional
Ox ford
metà fora
Vat icà
Aj uts
recer ques
Resid us
Ribagor ça
Ina ug
Ender rock
' '.
D v
E ug
H S
H im
I ni
I bi
I MA
I tiner
M eri
P ac
P leg
Q m
S tr
S ky
T ari
U mb
V ins
V IN
W el
b èl
b orsa
d v
f oli
h amb
w orld
ci da
in àries
in diferent
per tor
pr ano
is quen
est amp
ad ob
ad dicció
del ic
ot ge
com provat
ta par
pro vinent
ca f
ca seta
ut e
des cu
gr im
ri ba
fer ri
La ur
ll ist
car rils
mat emàtic
mar ia
eg al
ti empo
cl àssiques
seg reg
cos as
inter canvis
19 05
cal çat
pot assi
In nov
Com pl
Com pra
àn yer
ori z
tract ades
sa una
Est ar
rect e
lla cs
pren guin
gar atge
lu a
Car am
comun ió
15 00
12 6
inici ada
organitz ador
Val verde
vir tuts
mis sion
cant ada
cent es
CI O
LA S
gl osa
TA DA
fil tre
RA CIÓ
net es
AN S
Ro quetes
Or feó
Pal a
rom àntica
dol id
prepar ades
garant it
estruct uració
Ant iga
disseny adors
Ben jam
integr ats
facil iten
Ha ur
bot ons
caracter itzen
vari at
dot acions
Bo w
Port o
fig ur
dra c
SE T
Sa ps
Alg una
suc cessió
orient ada
equ ivo
Mari ona
perme tria
assegura va
Pet icions
escal far
sò lids
explot acions
escla v
video joc
?? ?
arque ològic
eter na
procla ma
divul gar
vacun ar
úst ia
Clar et
tò dia
Aprof iti
afric ans
fortun adament
cèn tims
prece dent
Tol edo
ambaix ador
jardin eria
invers ors
captur ar
Garant ia
ambul ància
Cull era
Benicar ló
obes itat
Valla dolid
Sori ano
Amster dam
Sadurn í
' :
1 h
A mic
A prenent
B U
B t
C M
C up
D oble
E IX
F EC
O lim
P DE
P DI
P ages
P LAN
T arr
b oc
d ants
d ama
i vi
l ics
r ist
r establir
v ència
z el
z or
ç uela
ò drom
ò liques
ü ent
de mag
ci gar
re muntar
in osa
di guin
com partits
com plicacions
amb ici
im perme
ir rever
ex prés
ex posades
vi o
vi venda
tot als
ve y
ell os
car ro
car ros
ma ca
tra um
tres ors
vol cà
En viat
En horabona
mar ató
cas o
ni ficació
19 25
19 26
alitz em
ro dones
ro dal
pot able
qui da
In vent
vers ació
ep ic
form igó
av ell
ès ia
entr any
Un der
deix alles
op ina
estr anys
Re fer
lla m
agr ària
tim e
plant illes
mot lle
mot ivat
govern ants
CI C
alum na
conf ecció
Co inci
Ex cep
ht m
Mont oro
llarg ada
cir cula
exist it
deixar em
nit rogen
Ad ministracions
consider ades
indic ació
Gar den
mu ch
LL EI
fant àstics
Am pli
Cer velló
interpre tada
agra eix
Pen al
efect u
SE M
ino x
elim ina
Lla ch
doc trina
rot und
encant at
Hot els
resist ents
fu ga
Econ òmic
infra ccions
femen ins
certi ficats
forta ble
rò quies
resum eix
sorg eixen
ester ol
compat ibilitat
Eu caristia
Ripol let
test s
Estudi ants
dinam itzar
VAL L
preocup at
amat eur
repar acions
metod ologies
telef onia
Bes alú
relax ació
ict us
Gol f
Ph il
afric ana
Tru eta
compost os
escèn ica
fòrum s
portà tils
ér rez
cív ics
Aur ora
enderroc ar
simult àniament
Gin ebra
Conven ient
infla mació
Dam m
deterior ament
pion era
periòdic ament
intèrpre t
verit ables
fert ilitz
Auton omia
Assessor ament
pseu d
Pressupost os
flamen c
andorr ana
Rac ó
Hen ry
controvèr sia
Már quez
helicòp ter
empad ron
aglom eracions
Guti érrez
Vene çuela
A JUN
B envol
B AN
B CE
C res
C esc
C ine
D id
F ilip
H ui
L at
M ul
M iller
M óra
U FC
V uel
W a
a per
a ires
a pagar
b au
b riques
b àndol
k ins
m ètica
m èrits
n ight
p ital
p tics
x ant
À S
í tiques
ò tiques
er tes
ar omes
ar maris
el eva
on ers
re partit
re compte
re torna
re activar
in just
am nistia
per cussió
ad ir
em por
em premta
con vin
no ci
no vena
us ual
ut il
des ist
des graci
gr ossos
li bro
res saltar
ul í
fer rer
ra ig
La w
all eria
En davant
ven int
cl or
cre ades
ga i
inter venen
19 53
ener o
ro dat
bar r
bar ata
cor respons
pu gen
pu tacions
orn ament
present in
present ador
Catal onia
Qu ants
està tua
op ta
op cional
Ar c
Ar cad
tract i
tract ada
Est el
sab at
lla ços
Con du
agr essor
inf lex
loc alitzat
aca bo
fi qui
vin cular
esper ada
tir ant
Fran cesa
sist emàtica
final ista
pes car
rat olí
AL ITAT
posa ven
bu fet
desenvolup ats
obert ures
Col lege
ama guen
dol enta
fre ds
estim ats
asp ira
euro pa
dist or
contract acions
Mas nou
Mi ke
Mer cant
Ca pr
edit ors
Pl anes
San chis
vari ants
AC TU
Llu ï
sens orial
mec ànic
benefici aris
compta bilitat
Ab ra
intel ig
cus to
Aut o
Im ma
adap tacions
pert ànyer
196 1
premis sa
inform ant
concentr en
emoci on
acab ades
Juli e
Juli et
sant uari
legi ats
detect a
tut ela
BI O
Er n
lingü ístics
Fon tan
Munt aner
Nor uega
artes anal
Imat ges
avanç ades
fug ida
suposar ia
pact at
singular itat
encaix ar
jogu ina
anarqu istes
vs ki
domèst ica
promot or
TRE BAL
bomb es
bui des
transfer ir
emot iu
Experi ència
publici t
Cob la
Equ ador
càp sules
ferrovi ari
andor rà
Bri an
Propi etat
Corom inas
coord ina
Resol ució
Infra estructures
Efect ivament
telet reball
PROJEC TE
Eliz abeth
Poll ença
Jovent uts
Beren guer
Farmà cia
Voltre gà
Exemp les
Convenient ment
" …
1 18
H all
H IST
I E
I mag
K it
N au
P era
S elec
T un
b ig
c _
c essos
c allar
h egem
i za
n eixen
p ale
v illa
x ia
á l
ï en
ò quer
ò metres
de pur
en dre
en èr
en zo
er ad
ar oma
an hel
qu ader
on et
on cle
re obrir
ol lar
se y
ad éu
del icades
ob tenint
des ocupació
ex positors
ver í
ra ces
ist e
st es
me ga
pre disposició
man d
vol gués
En cicl
esc asse
entre tingut
comp tant
ven im
cre arà
pe dor
itu alla
19 0
19 42
19 56
af us
ps í
Al canar
id ores
id oni
dur arà
og èn
pen yes
cu gat
lab les
lla dres
fe deracions
contin guda
Con cepció
inst ants
fi cia
inici en
Pu çol
camp ament
14 6
continu arem
11 1
LA U
estan cament
guany adores
tir s
obr im
Pro posta
Cal le
Co ca
bon dat
bas ant
Man u
far cit
oper ativa
òr b
Tr ànsit
rom àntic
feb le
Ja cint
recuper ant
Ad ults
Sol e
Le ón
consul teu
sortir an
tram pa
Cer tament
ocas ion
Llu ç
fig uren
comb inen
imp liquen
envi arà
eric òrdia
cus tòdia
Segu ir
interna cionalment
lit re
prefer eix
Bor ri
Rom à
và lida
Fl orida
GU ES
Ge o
Ge ografia
polit ica
adop ta
TER S
Ta vernes
past ors
aero ports
argument ar
llic enci
cavall ers
úr gic
blan queig
Abr era
itiner ant
rus sos
reflect eixen
empr at
Gas par
Hon gria
vigil ant
Tecn ològic
Pod ríem
cru cial
Fu entes
prevent ives
atribu ir
dram àtica
dram àtic
inclus iu
constat at
butx aques
seri osa
utx eta
Respons abilitat
autoc ara
respectu ós
Ari adna
Jac ob
acúst ica
Contempor ani
recur rent
agrupa cions
Ima gin
beb è
Patri cia
Llagos tera
estere otips
adul tes
bog eria
inunda cions
advoc ada
Frances ca
Lluï sa
6 a
A bas
B res
B ici
E TS
F act
G os
G ROC
H ir
I an
J r
J AR
M aqu
M ola
M UN
N acho
R ita
S tra
X irin
Y u
c ora
d ans
h igi
i ats
i fic
m ís
n ologia
o a
p om
p èn
r á
r ació
r estar
s hop
t ives
w his
x et
è fon
ï nes
ò grafa
es va
an on
at leta
on istes
re vi
re vest
in formen
in dign
in condicional
per si
per segueix
tr ò
em pre
ir regulars
ob tindre
par li
par ats
pro gressió
et z
des escalada
gr ocs
li ó
pa pall
itz adors
pre veia
all enge
ten dre
tra ient
mat erna
ti po
cl and
cl ick
cre ieu
pe dre
pe atge
int on
19 52
ho quei
ves a
In di
cons ola
Com pr
ult im
pla ga
No vel
Sant ander
ín dol
sem àfor
primer enca
trans formacions
sin cron
12 h
íst icament
plant at
17 h
cri ança
Fran ço
poc o
tri angle
RA M
comple tes
bus queu
format ges
medi cin
oper aris
prop òsits
afect acions
arr ons
person alitzades
ofici s
cad ència
Mo ret
redu ïts
funcion i
funcion ant
viat ger
For m
conven ciment
VI LA
Ber ta
comprom esos
afir mant
dub tar
Mos sèn
associ ar
esdeven en
San itària
MI T
guar donats
Inici alment
arriba ven
Associ ation
subst itut
reflex iona
Nom bre
Go della
Rib ó
tron c
adre çades
començ o
extra escolars
dispos ava
intens es
mac o
orden a
alternat ius
Civ ils
So und
apart ats
fund adora
liber als
FE M
Li ve
Pir ates
và lids
Gal eria
ck er
convi den
profund s
estir ar
complement a
decor ar
Bas es
Mill orar
bany era
refugi ades
claus ura
menj adors
Jun ior
grad ual
Hab itacions
Bé tera
Unit ed
pedag og
fè iem
Lon don
talla da
Rob in
Gen ís
ences a
consecut ius
obtin guda
Mem orial
comand ant
comand aments
Agu il
ajus tat
funcional itats
cob la
televis iu
endins a
acomiad aments
acostu mat
revolucion ària
anuncia va
valora cions
didàct ic
Ent itat
sint et
Object iu
né ts
evolu cionar
tum ors
Desp la
sard anes
gimn àstica
remat ada
fotograf iar
Quint ana
aconsella ble
Pit bull
Got ham
Consist ori
Exper iment
dimit ir
Dí ez
FUN DA
GN U
Llob et
OLO GIA
Moz art
Interpre tació
Àmb it
pròpi ament
higi èn
2 ª
2 10
C ade
C urt
D rag
F lu
G am
H D
J ub
L TI
M ina
P EL
S ib
S IN
S IS
W I
a h
b atal
b its
b atre
b ach
f urt
g ots
k ers
l yn
m é
n an
o don
r una
s am
t òpics
u f
u dia
v ota
v iments
x y
y ing
ò riament
de deu
en fila
er is
al è
an alitzat
qu o
ci tats
re empla
in ars
it ès
it ius
pr orro
ol lo
se tes
ct ures
com is
gu al
ca ves
ser r
ver dura
pres cin
ll ur
pre cep
ins osten
te ta
aix eta
esc assos
eg at
cre dit
cap aces
cap davall
inter es
inter pel
af ar
Al bi
cor des
cons on
col í
col esterol
form ulació
ed icte
An ne
Sant pedor
op inar
Est im
forma ven
mal e
sent int
sab adell
ofer ts
pren drà
tru cs
cin turó
Par ròquia
àr abs
cri u
cant autor
od om
13 h
punt es
major itària
sig nació
Gu inea
Vi atges
Ma estrat
bas ca
Seg üent
AL L
alta veu
Mont gat
person alitzats
reun irà
vic er
investig ant
redu eixen
Cor reus
tras pàs
estim en
aconsegu í
Mat èries
fos cos
ok up
hor ror
Mas car
Te am
viol ents
impul sant
confi at
exig eixen
ik o
Ab ad
Mal ino
concep tual
Ten iu
passe jada
energ ètiques
coinci dit
supos ava
Os ca
destaca ble
càn on
manifest en
bis bat
bia ix
perman entment
CC CB
masc les
esment ades
equilib rar
eleg ància
inspir ada
Dol ores
franqu istes
fla ma
Ins p
Sub ir
Fre e
Aten es
succe ït
Mot o
All í
Agu ilar
perd uts
expul sar
Blan ch
derrot at
dan ès
salv atges
Ph ilip
xines os
promou en
patroci ni
redact at
profession alment
Prov ín
entrevist at
Tro feu
lliç ons
evolu cionat
equiv ocar
improvis ació
ocor re
pion ers
Mercad al
Corre dor
Gis pert
profes ional
engr esc
cafet eria
mercant il
Ast úries
posici onar
ruï nes
enf ad
vincul ant
suscepti bles
tendres a
portu guès
prolifer ació
tripu lació
Esca cs
reput ació
Mois ès
Niv ell
Lluç anès
A fortunadament
B C
C av
D ib
D OC
E ines
F ord
F IA
G ames
J ú
K ir
L am
L amb
L ament
L ect
M ix
M UNI
O ll
R G
R al
S OC
T ena
T ind
b adal
c ota
d ara
g id
g ost
k an
l ers
l ulars
o h
o y
p ó
p és
p ig
s ic
s ul
u ps
è giques
de ca
de ts
an ònim
at ló
re posar
re mot
que do
per di
tr ab
amb iciós
im bat
ix ot
gu anys
il o
ca buda
des infecció
oc cit
vi ci
pos à
por ció
st an
pa usa
tra u
su fra
ja u
ja ven
ge ogràfic
mar bre
fa cis
Es priu
Per alada
cre ïble
Al fa
Al men
Al cú
Catal uña
sol edat
esp in
he e
op le
Jo el
Con certs
polí gons
tru cant
pas a
inici ació
Cas anova
èc niques
tí piques
gen oci
mir ava
represent ava
apro vades
explic arà
rat xa
cur ric
Ex press
Can di
cam ina
cam isa
pt ament
fran ges
passar em
òr dica
Tr am
valor ats
ine quí
espanyol ista
Mont orn
pon ències
tec lat
Mon u
Mas ter
Le on
recom anat
expl ora
Pl ens
bla ves
identi ficats
Br uno
evi dents
lus tre
Bat lle
desit jada
glob alització
intens ament
gal le
arx iv
TO TS
ful ness
Sim plement
ocupa cions
Program ació
quart et
Vis ites
lider ada
flu ix
Comp te
prohib ida
Tec hn
quali ficats
Ta i
cast anyes
log otip
proce deix
veloci tats
vost ès
St op
autèn tics
enqu estats
Figu eras
sof reg
Tele cinco
fals os
estranger es
emple at
abandon ada
VAL LS
Quant es
Andre w
pertin ent
Gru po
mí tic
aux iliars
transmet en
Mè to
aler tat
Educat iva
descen dents
agro alimentari
Ud L
crist al
Úl tim
Zar bon
angles os
Cient ífic
Domèn ec
sofr ir
Corona virus
hidr ats
otera peuta
enfil ar
visib ilitzar
hà bit
empreson ats
desnon aments
CUL TURA
videoc lip
Salam anca
pronòst ic
Ira q
esbar jo
embarca cions
Plani ficació
AJUN TAMENT
Malino vski
MUNI CI
Alcú dia
( *
6 50
; )
= =
A PP
C id
C hu
D ent
I F
I O
M ás
N Y
O lesa
P á
P EC
S amar
T úria
U SA
W on
a ci
a fers
b rigada
c ci
c òl
i el
i zar
o pressió
x ip
À r
í an
ú cia
… "
en fort
ar mat
an des
in compl
it ion
per seguir
om ni
ic er
ol anda
tr ali
ant ici
con a
si do
si guis
pro yect
des crit
oc órrer
ex actitud
ex posen
res son
ici onals
me dalles
ass ades
su ec
ins ult
te z
ess es
oci na
comp li
ti ó
cion alitzar
Per ú
int ox
cas i
19 21
19 09
19 41
19 57
Al ella
Al fredo
form ades
eu f
mo la
leg ant
av itualla
dur ació
An gles
Qu ad
ín guez
10 8
sab íem
Con fi
De port
ba i
inf il
sos tenir
pet es
lle gu
vin guin
to ur
Di fer
organitz ant
Pr è
Pr íncep
especi fica
àr regues
òn icament
envol tada
vir al
do reix
coneix eu
Sal va
tu it
din osa
RA G
òg ens
obli guen
ind í
Ex posicions
medi evals
ru g
lleg im
Josep h
usu les
dors al
Vall doreix
ocup ant
ocup ades
intent em
bal let
mas ies
Castell à
Inst itució
Mon tero
Ber nar
dub t
protagon itzada
signi ficació
castell ano
estrat ègiques
Institut o
estre ts
DI O
sus pens
enseny aments
pint ades
efect ives
vuit è
Franc ès
confir men
impres sions
començ aments
Cam po
Ori gen
BA T
orden ades
dibu ixa
encant ar
encant ats
aplica bles
prior itari
LI CA
desa perceb
Fl ores
hagués sim
magatzem s
sot mès
Prot ocol
Nú m
Rod rigo
avis at
DO GC
comport at
Med alla
assessor ar
repart ides
Cla us
Ed win
amag ada
gull ó
quotidi à
arque ològiques
fib res
subministr aments
òcr ata
ingre dient
promoci onal
Autor itat
nic otina
televis ions
là ser
fantas mes
defen siva
Clas se
rellot ges
recoll int
combusti bles
fotògraf s
Palaf olls
natur alitat
tomà quets
BB C
suïci di
Feder al
Rome o
Deb at
Sob irà
dormit oris
Quader ns
Stat ion
SAR S
reve lació
Manif est
brasil er
desemb oc
Pregunt es
Geg ants
Canç ó
Estad ística
substan cial
intest inal
Epis copal
còct el
meridi onal
auric ulars
hidrà ul
Artí culo
( …)
A mar
B S
B est
B iden
B anca
C aix
D NS
H omen
I CO
I EC
I PC
L una
M éndez
N àutic
O M
S ofia
a po
a qü
a èria
b ic
b ina
c c
c oberts
d ís
f aller
g li
k ur
n ica
p iter
s eleccions
x vi
z an
… ),
ar agon
el u
at eria
on ari
re y
in n
in nova
est up
ol ot
se ient
di ligències
ct er
con egui
ur recció
com ments
com pag
us ula
des feta
ul les
ici da
itz arà
ass ar
pre var
car di
tra ure
esc ric
dis sim
oci tat
ven j
ven ent
vis a
ga va
cas als
19 27
ho f
col ze
pol og
pla st
reg ala
ella des
treball arà
Est ado
tan ques
mal eta
Re ferència
empres onat
gar rot
aca bà
Di oces
program ada
Par lar
sub si
Una persona
if am
coneix ien
utilitz i
rela tius
As tra
Cal ders
so ja
refer int
tall ant
mor tes
tur c
centr en
fam oses
AN D
Pla ta
interess en
hu it
lleg iu
espanyol isme
anim e
pon der
funcion at
estim em
integr ant
Te oria
Gr ad
agrada bles
mu jeres
LL EG
hum ida
gra ella
guer am
jut gessa
pan cartes
constitu ïda
pic ada
decidir à
declar ada
identi fiquen
Vol eu
Espa ñol
recol zar
distrib uït
Lla c
execut at
GA T
fix os
apart ar
Jus sà
Jes u
XX III
tom bar
bis bal
ocupa cional
substitu eix
emb ri
ME DI
Treball em
gratuït ament
xi fr
AB C
reci clar
past ana
clo ure
implica cions
micro organismes
flex ibles
quotidi an
mons tres
Especi alment
reflect ir
Nu tr
Eu gen
conserv adors
símpt oma
adquis itiu
accepta ble
seqü eles
excus es
prevent iu
Gol d
Tag ged
his p
aficion at
glu cèmia
Obr era
culmin ar
abund ància
audit oria
precip itació
Pra ga
inev it
tàct ica
CLA S
moc ador
melo dia
Fisi oteràpia
estret ament
culler ada
Bed room
Bit coin
autonom ies
amfitri ó
Way ne
algor it
discul pes
Comiss ari
GIR ONA
ospect iva
Cari b
Fór mula
performan ce
Segr ià
Bof ill
Sovi ètica
Pages os
Franço is
A dif
B uda
C en
E mer
I d
K ur
M eg
P edi
P allar
S ic
S OR
S elecció
S úria
T àpies
U JI
W ith
b ad
b adia
d ón
g h
g ències
h ad
h ub
i ficant
j ul
l àm
o z
o tra
p tica
v ènia
w ater
à lies
ò gan
ú quer
de tr
en ig
al fa
at aca
re produeix
in isme
in cur
in yo
in existent
om pli
est oc
est ètic
ad iu
ad ones
ad voca
del icat
del icada
di vuit
con ci
ia c
le la
par les
si vament
ca bles
des er
des via
des viar
ex cla
fer mesa
ab ras
pres so
car ns
car ret
mol ecular
mat ins
port in
esc às
ge lat
comp as
cion istes
tem or
inter accions
inter actiu
19 13
Al omar
alitz arà
alitz ador
cal ories
In ser
cor ren
pass és
Mar í
Mar ca
Com en
Com partir
sol ista
sol itud
cat às
rà pides
ús ter
cu es
Ar n
inci ner
mal bé
mal versació
Re ig
10 4
lo ok
lle ig
ren dir
ap te
Di àleg
às ia
object iva
mos quit
particip à
reb ot
reb ia
super vivents
alt itud
ev itat
gen ètiques
arribar em
conf essa
mor en
bas cos
AL IT
bu en
vot ant
Ro do
caus ant
capaci tació
dom inen
materi alitzar
corpor acions
aprof iten
facil itant
Mi ami
consum eix
consum eixen
fort ament
pag ada
promo vent
Am paro
Ca ñas
arrib ats
toc s
pan xa
Pas t
Bo ada
Cat erina
Ver di
estigu em
pic ant
rent at
falta va
fron ts
terr ass
quar e
evi dencia
lus trar
Go ya
sob irà
obser vant
imag en
ali at
Cam acho
dispos icions
espera ven
diver tits
deixa ven
retir a
concentr ats
separ ades
mad ur
impe dit
Ru fi
mag ni
Ofer eix
masc le
maj ús
equilib ris
Oc cit
coh es
llengu atges
cast ig
domici lis
video conferència
artes ana
Resp on
Ren aix
Bro ad
engan xat
Wh ite
pac e
pac ífic
monar ca
Enginy ers
moltíssim es
dim oni
transcen dència
sensib ilitzar
Cad í
Consum er
excessi vament
nadal enques
Arrib ada
Blu es
defici ència
Para igua
persist ent
Desp í
bene ficia
inesper ada
Tract ament
remun ta
retar ds
melo dies
presum ptament
disminu eix
FRAN CES
encet ar
bret xa
àmp lies
Convocat òria
Agn ès
perí metre
Aprenent atge
inox idable
Encicl opèdia
Jesu crist
1 ª
A plec
C ul
D eg
D inar
D ick
D ONA
G y
G OS
H ans
H ard
M issa
N atur
O DS
P Ú
P esc
P ou
P osa
P hot
P iny
P adr
U X
V ázquez
X úquer
e vas
f art
j osa
m amí
w i
w ord
w ifi
x il
y l
en cies
ar rebos
al co
an u
la ta
qu est
re compens
re brot
in é
in ador
in cul
un itària
pr ag
ad ject
ant igament
em anci
em polles
va ques
con cedeix
ur met
com ens
amb ició
par is
si ona
des coneixement
des allotjament
da ura
li qu
oc ola
ex posada
ab ar
ab el
ab ocar
por teu
for ca
ment restant
itz em
car denal
ma queta
mat i
esc u
esc uma
entre m
eg en
00 1
ga e
sen ador
19 08
19 06
tar ima
segu ides
pot encia
bar t
cor ds
cons orci
pu es
men gen
Mar s
mo dest
alg ún
av orr
... ),
pen si
val en
op ten
produ eixi
tract ors
Est ellés
Re coneixement
sal vat
project a
hom bre
comun itaris
contr over
12 2
12 8
realitz i
17 5
camp iona
11 h
gl ut
13 1
fil tres
Gu ad
public à
Pro ven
Inter nacionals
uï ts
Ll on
bi ològica
hu a
Ro om
enten gui
establ int
intent ava
For estal
Ber g
Dis posa
gra cia
reser vats
propor cionat
Bat ll
ali è
Por tar
Eti òpia
psic òloga
Tra pero
CON TRA
detect iu
và lua
Fl ix
inc òg
rad iació
Trans ports
compon en
embar assada
prohib eix
vulner ació
Direct ora
complic ats
rar es
LO PD
rè plica
Ed ward
emprened ora
Munt any
Wi Fi
revis ions
controla ts
artes à
tau leta
boni ficacions
Nov etats
Fre d
Met al
arque ologia
Fo od
Alex ander
expect ació
Alcal dia
Ama deu
Dra ke
Bot ànic
Proc ess
brillant or
aspir ants
lú dic
lava bos
temp estes
estren arà
We ek
ampl is
abon ats
vetlla da
cirur gi
econom ista
Lor enzo
ritu als
Bella terra
PN B
taul er
insp ira
enve ja
clà usules
homosex uals
espon tan
clave gueram
conquer ir
fòs sils
explícit ament
pri ori
emè rit
minus vàl
autent icitat
esl ògan
Beg ur
entusia sta
etn am
assec ador
Isma el
empl enar
Esmor zar
piv ot
Benjam in
Arcad i
FUNDA CIÓ
odom èst
4 a
A leg
A viny
C eb
C og
D ut
E ast
E vangeli
F um
L ist
M eli
M èdia
N G
P LE
R M
S GA
T D
T ò
V ist
V int
V OS
Z ur
c ència
h ima
k ami
m án
r r
t ou
w h
Í A
à vies
de pre
en rera
en vien
ar el
ar on
an que
qu its
ci visme
at itis
re e
or gue
in atge
in directa
ol ins
ol ives
se quera
di rem
di etes
em pob
em para
con fon
con gel
con greg
ir rit
si à
ter àpies
ex p
ex cava
ri am
ul in
vi vendes
pl àstica
ec l
all unya
ten er
dis set
tin dreu
Per elló
seg ones
co ves
cas ual
19 44
19 59
af il
ib ar
ho a
ro dó
pass atge
Com es
àn ec
àn dem
àn dols
soci alització
form em
form ular
jo i
dem ás
ort odo
Des de
lab er
ofer ia
Con te
Con figuració
gar ra
labor adora
labor atiu
comun ista
to das
program ats
Par es
Par ets
sub sist
.... ..
apar caments
ion ant
14 5
coneix ent
Sal le
Sal vem
ide ològica
Fran colí
RA CC
As segu
lament ar
bo icot
públic o
Ll ista
ví dua
EL EC
not ablement
conver gent
gua pa
regu lat
igual at
compr ès
acompany arà
Ben ig
qüest iona
hor ària
carreg ats
MA TER
mas ter
rep òs
contract ats
pis sarra
nu evo
mostra va
caracter ístics
vid ad
accep ten
sens or
TE AT
pregunt ant
Lu cía
consist ia
consist ència
Dia bles
creu ers
solu cion
imp unitat
Fa cil
pint ors
lus tra
hon g
Alg emes
inclo gui
Pe la
dispos arà
considera cions
Ba ci
He alth
relle us
PER E
Treb allar
arx i
urban itzacions
vas cular
prefer ides
Ac í
encarreg arà
plen ari
cau cions
infra cció
gres o
Cab ré
pau ta
Ge òr
acum ular
Son y
FI TN
fir mar
expli qui
LO G
lingü ístiques
Escol ta
artes an
tau letes
iz ación
boni ficació
ocupar à
Hol mes
Gau deixi
Pri va
Llor ens
apunta va
Yo ung
expul sat
panor àmica
ced its
Ali cia
infin itat
infin ites
gestion ats
Aprof itant
partí ci
abund ants
vertic als
Cart ell
obsta cle
mú tua
Willi ams
Human itats
xen òf
respectu osa
Jon quera
comunica cio
divis ions
lact osa
infla mat
protect ora
GEN ER
sofr iment
residu als
màn iga
él ix
solem ne
neutr alitat
cardí aca
superfici al
estímul s
remunt ada
Extre madura
Ordin o
allarg arà
Arr els
coloni al
Iz quier
Perio disme
ultrad reta
Judi cial
injus tícies
hipo glucèmia
mull er
Sèn ior
publicitar is
Engl ish
Sams ung
ininterrom pu
epic entre
Rufi án
Occit ània
incòg n
FITN ESS
' ;
) -
) [
A go
B ull
B ien
B oris
B unyol
C le
C resp
C LI
G io
H OR
J onat
K u
M af
M agr
M EUR
O est
O cine
P ig
R espect
S p
T estim
T ècniques
V es
V uit
X ique
Z ero
a eri
b assa
c d
c ador
e ó
e jant
f ada
f ex
g ena
h s
i ant
m ítica
o w
o pen
o tro
o ïda
o frena
p á
s ans
u cra
x al
x ix
es quin
al ac
an ell
an glés
an alitzant
re tic
re posició
re viure
re tenció
in istes
in und
os ong
is er
est esa
ad junta
tr ien
di fun
as im
gu s
gu sta
ha i
us s
et t
des ar
des igual
des enllaç
ex e
ex haur
ri de
ri alles
res ig
ra cista
pres ses
pres encialment
tra ça
tre m
mol ins
mat emàtics
rec obr
comp la
ven edor
cl ou
cl eros
cre mes
inter activa
19 5
ps ia
eb res
nom es
In forma
cons pir
pu jades
Bar tol
Com and
form ula
cer cant
dur at
val enta
estr icte
treball aran
Re ci
sent enciat
lab ert
lla dre
durant e
itar ia
ple x
pet ons
18 96
trans porta
pob lament
to qui
Pr incesa
bat a
bat ejat
mant a
cult iv
vest re
vest idors
vest idor
propos ades
pul mó
desc obri
Man ual
bi e
bi anes
fà briques
IN F
autor itzats
valor ada
Col ònia
afect i
fem elles
orig inar
Soci ety
Govern ació
regu era
afeg ia
enten ent
proper ament
garant eixen
garant eixi
acabar an
trib in
estim o
disseny ats
Sol à
integr als
CE F
fl orals
anomen em
vari es
escen ografia
condu ït
accep tada
Pas sió
creu at
SA B
Pot ter
gol fes
SE C
Im post
inclo ïa
97 2
97 3
Tel èfon
orient ades
inform al
prefer eixen
celebra va
Lo urdes
greu ge
Bal mes
inc ans
Ofer im
solid àries
FI ES
agu e
destin aran
estric ta
desig nat
config uren
Dom ínguez
sò cies
quotidi anes
IR PF
proporcion ada
clic ant
tort ura
Cha cón
ascen dent
atri z
enge gat
gall ó
Promo ure
ajus ta
Gre at
Blan ques
orgull ós
Usu aris
Sebasti án
Ay uso
Argent ona
Regid ora
core ografia
bull ir
ele var
preten em
potenci alment
enterr ament
pages ia
Ub untu
** *
espat lla
diagnos i
Ment res
naz i
mú tu
rest ants
copi ar
simult ània
Lit tle
Doc osong
arris car
inesper at
Rio ja
Jul ia
Hid algo
culler ades
Judit h
Fant as
GL UT
successi ves
discot eques
biom assa
somri ures
desitj able
bened icció
Anal y
legisla tiva
encreu ament
inspect or
missat geria
Eslo vènia
resili ència
Zarago za
Inaug uració
Eug ènia
Cres po
Compr ar
Homen atge
A tur
B lo
B OS
C los
F G
H E
K han
L P
L ev
M iss
P T
S ix
S ió
S ing
S her
V era
c ria
e ve
f le
f og
f riend
o posat
o posicions
p ells
r esten
r ambla
s ord
x era
y u
y ano
À RIA
Á lex
à til
è riques
í cula
ar rep
al le
al fabet
qu int
ci ments
el udi
at én
on ina
re coneixements
in habilitació
in convenients
un as
pr at
est ú
est ig
ol did
em ber
ur as
ur ing
as on
ha guem
ta ur
us ant
si da
pro gen
des activar
ter mò
ex acte
vi dència
fer ir
ac r
hi poc
mol est
dis cussions
tin guen
ven uts
Per is
cre ient
pe da
cas ino
19 46
nom bres
ult ima
present i
trob alles
Qu ique
resp ira
val er
op è
estr os
Re yes
sent in
gener alitzat
pat im
Con fl
br asa
DE A
prom pte
Par do
Pr ò
espa ñol
àr recs
bat ut
Pu bl
apar ent
deci siva
mis er
coneix es
cant en
utilitz arà
TA U
22 h
mir es
Ma ite
so prano
bus quin
Ex plor
tur ons
centr arà
AR S
artic ulació
document at
PS M
PS UC
afect ant
dol ors
quil les
intent o
compr ador
acompany ants
univers als
mas siu
Ciut ats
electr odomèst
gir s
comerci alitzar
administr adors
aliment a
vera citat
origin alitat
SA LA
extre mes
popular ment
Br ut
Ob tingut
Veure m
til les
SI CA
Tel ef
Por tes
PER SON
fab ul
rot llo
ka ya
prefer ida
acos ten
industri alització
sufici entment
LE T
contribu int
At letisme
coll ir
equilib rat
justi ficat
abra çar
pract icant
human itària
tut ors
Bus h
BI T
MAR IA
inten cion
privat ització
Her rero
pertany ent
resum ir
acadè miques
vess ar
sugger ir
Ferr ocar
alcoh òlic
procla mat
we en
demostra cions
lig ht
Alcal des
oi ents
All ot
enregistr at
exhib ir
televis iva
pí cnic
argent ina
Cristi ans
ferm ament
aler tar
adher it
inno cent
abon ament
abon aments
meteor ològiques
Lí bia
ingress at
Exist eix
bibli ografia
Norm alització
Ide es
simpat ia
Oper ació
JOR DI
9788 49
Elis abet
Contempor ània
Emili o
dormit ori
arrela da
acolli dor
Manten iment
afortun adament
Pil ota
penitenci ari
contenció s
Mana gement
Giron ella
Vig il
EDU CACIÓ
gaz ine
succ essor
espla i
Trobar eu
xof es
Tradu cció
Gimn àstic
Cany elles
Ovi di
distint iu
Mò dul
indiscut ible
xemene ia
6 30
A vi
A soci
A lab
A vell
A MP
A plicacions
B org
B LAN
C ement
C hem
D ance
F ires
F élix
G RE
G ame
K im
L ob
M ori
N er
N an
N ik
R ON
T emes
T ok
T GE
U PA
V EU
] :
b èstia
h r
i plau
i ère
i vidad
s ki
t ònica
w r
w ill
È xit
í os
í tics
de v
de curs
en horabona
ar n
at r
at z
on ja
or b
in her
in vas
in definida
un ida
un do
tr ons
tr um
di mon
di òxid
em poder
ct ir
ur gues
com esos
im pos
im posades
par às
par cials
si bles
et ta
ter túlia
ul ten
20 50
ment ar
po em
ll est
ma yo
den ya
ins atis
mol esta
esc at
ess ora
ge ometria
mar ines
ti dor
Es presso
Per f
vis cudes
der bi
cal i
cal le
cor rob
col o
pol if
pel i
don ants
àn gels
reg nat
An der
An unci
". [
dar is
ort ografia
tract és
Re visió
Re agrupament
ne vades
catal ano
activ isme
pren ia
Con fer
Con venció
lu gar
labor ant
trans corre
Car d
fi quem
ren y
ren uncia
nou cent
prot otip
tal ents
haur é
sub missió
plant er
Amb dós
Val ors
particip in
cult ivar
continu ava
TA S
product ores
sist emàticament
eri des
estudi en
tri p
tri partit
Ma h
deman o
mor als
ru a
manten ia
comunic atives
autor itzar
RE DA
prop ia
Pal estina
respon ent
celebr aran
gua i
aplic ades
investig ats
quant ia
las ka
mig camp
Mo odle
dol ces
Public ació
estim ula
expres si
univers itàries
gas o
Gran ados
dub ta
relacion en
Le y
prem ia
caracter itzat
alter ar
arrib és
incorpor acions
toc ador
pic t
compta va
org ànic
propor cions
dific ulta
Cl à
assum int
adi ents
Pi la
desit jo
plan xa
Ol tra
apareix ent
inform ats
encant adora
fix es
nombr osa
nombr ós
auton òmics
acab es
denunci ant
ocupa va
Comar ca
mel ó
mel me
exclus ius
fiscal itat
diàleg s
reci pient
bur y
process at
Du bl
certes es
immigr ant
ball ant
dismin uït
relig ions
PO UM
secre ta
mascul ins
GR À
Alcal á
test ament
llig ades
queix ar
Atl àntic
adjudic ar
presump ta
medic ació
gestion en
pà del
escult ures
Gim eno
recicla t
MEN YS
Sam uel
partid ari
gaudi u
veter inari
Op tim
transvers als
Ke vin
distribuï ts
privilegi at
Consul teu
culp ables
entrevist ar
furg onetes
arbit rà
Cient ífica
Dam ià
ajorn ar
sincer ament
sospit osos
perjudic ar
comenci n
casol ana
teore mes
encer tat
clà usula
jap onesos
encapç alada
satisfact òria
tovall ola
Ani versari
MOL T
Freix as
patriar cal
pess im
cautel ar
bess ons
enla ir
dèci mes
stat us
Fig ura
eme trà
Spa in
parti dista
jerar quia
arom àtiques
VÍ DEO
CAST ELL
Bals areny
Sanc ho
Desta ca
negu it
Stal in
siner gies
Steph en
dramatur g
inflex ió
escasse tat
Dib uix
Baci llus
Geòr gia
A bat
C ia
C ola
C ENT
D arrera
F at
F ix
G ENT
H TM
M r
M í
M om
N ico
Q R
R um
R ach
R old
S and
S essions
T at
V AR
d j
f ades
g òtic
j on
m urals
r ara
s un
u les
y on
… ,
de cepció
en llu
en dut
la do
ci no
in cert
que dà
am ig
di vin
ur ana
ur gia
com ment
as sembla
ir rom
ob ria
ca ixent
des mes
des acord
des hidrat
ex tracte
ac he
ve da
ment res
ens op
car xofes
vol dríem
ins in
na var
dis parat
mar ins
comp t
fa ça
ti d
inter mit
inter discipl
alitz adora
segu ien
fin alitzada
ro ure
In ci
bar ats
pu és
au ge
pol vor
ep í
sol vència
tant o
trob ats
Qu eb
Ar te
ement e
sent encia
ne w
alla s
gram àtica
pren gui
fr é
inst ein
agr àries
ER IA
mer ce
mer escut
inf lació
hist or
and ès
comun itàries
gent e
direct ives
12 7
ap li
especi ficar
Pu e
sub hasta
nes i
camp ionats
ub icats
do va
CA A
esper anç
ch ester
eny or
grup al
sig nen
Gu est
Gu im
últim ament
coment ava
refer eixo
bus t
escri uen
mon òleg
Man xa
medi at
condi ciona
compet encial
vist iplau
caus ada
caus ades
rom e
rom àn
Fer ri
Ra cing
Cap devila
esqu adra
Pres iden
oport un
Ve geta
hum ilitat
Le ave
dell s
edit ora
just os
sur f
consist ir
comb inant
terr estre
org ànics
cab ra
ast ia
teix ir
oli veres
necessit i
Sa for
Mor os
compar at
Ros sin
plan ada
NO M
llo guers
enca ixa
Be atriz
requer it
requer ir
energ ètics
premis ses
prefer ent
prefer its
psic ològics
emoci onat
Mari ola
quí miques
Rom ania
zz i
FC B
Ge or
sot er
sot mesa
acum ulen
embar cació
Nú mero
fir mat
arm ada
arm ament
Tem ple
xique t
aus trali
Esper ança
regal at
iny ons
Ins ular
Ins cripcions
legislat ives
respir atòries
?? ??
proporcion ant
olí tic
consecut ives
mascl isme
Fut ur
contras ta
gall ina
curios itats
tò xics
clín ics
rut ines
periò diques
imm y
artifici als
infect ats
magistr al
encert ada
Aca ba
select ivitat
cist es
Cur iosament
Den gra
sint onia
domèst ics
adher ir
diferenci ades
Play Station
alleu ger
Audio visuals
assab entar
Anim als
llumin ositat
FOTO GRA
agre dir
Mach ine
retar dar
plàn ol
aman ida
refre dar
Electr ònica
Divers es
còn sol
palla s
multina cionals
democ rat
diagnostic ar
dd g
carb ass
discot eca
prosper itat
LLU IS
Cec ília
Farr é
Academ y
Rama deria
nab is
discrep àncies
tril ogia
frà gil
pseud ònim
Vuel ing
sabat illes
Despla çament
insosten ible
venj ança
Comen çar
Rodo reda
FRANCES C
afil iació
cleros i
HTM L
Rold án
- >
A pr
A dre
B ON
B OL
B OE
C á
C im
E p
E fe
G ö
G et
H LA
I Ó
J òquer
K I
M ia
M ama
M US
N eix
N atal
O T
R À
R ap
R adi
S he
S elect
S quare
U Vic
V AN
V aria
Y olanda
b cn
e fe
l els
m ins
s k
u eta
v ò
w is
· ·
è pica
í l
í m
í tez
ï u
ñ ana
de cadència
ar ena
an co
re punt
in convenient
un teu
ent or
am ina
am aria
is bol
est án
ol ar
se ients
ad í
ant ica
ant io
ur ce
des fil
des muntar
da c
ter io
ul s
vi ves
vi vent
ser via
ra cionalitat
ac rob
ici li
po da
su pr
En tren
dis solució
eg ip
ti ble
ven e
ven es
Es pla
Es tras
cl ica
tem àtic
cre dencials
seg uro
cap elles
inter anual
19 15
Al liber
Al meria
ib èric
id as
bar bar
min o
pu ix
pu esto
ep t
ag ilitat
igu em
entr amat
Un categ
Sant amar
deix alleria
produ ïdes
tan g
Re forma
10 3
ban dol
Con tingut
Con fraria
millor able
inst at
cil ia
pas es
Car dedeu
import ar
12 9
pod cast
gi rem
Par aula
oll er
dest itu
ion ada
deci r
utilitz in
Sal es
gat e
Fran cina
def ug
bas tants
llen ça
cont estat
not ificar
vot ada
ard s
defens ava
uni den
vist ar
Or de
TI T
TI TU
TI LIT
dom inat
quil o
intent arà
jug adora
estim ulació
Cult urals
Ben issa
Ben ítez
Mi gr
Na cionals
Ve ig
LL E
bot igu
be at
signi ficats
administr at
Am nistia
aliment en
tram via
Sab at
quad rada
exec uta
Ur bà
pressupost ari
terr estres
agrad arà
Vol eibol
imag ina
adap ten
Pi ñol
antic ossos
reno vada
elabor en
estal vis
passe jant
cooper ativ
Ped ral
48 2
Nat urals
resist eix
Ger mans
Medi ació
sufici ència
autom òbil
Van dell
perman ents
femen ines
Vis ca
TER A
Nú ñez
Gl òries
fir al
fitx atge
PRO TE
reta ule
LO M
amena çar
Mic ro
gastron òmiques
aixec ament
enginy ers
màs cares
quotidi ans
Bel én
consolid ada
PU IG
subs trat
cobr ament
cè le
convenç uda
Món ica
conserv adora
ascen dir
ballar ina
cine asta
convid ada
ii ii
taron ges
sobiran isme
destr uït
cement eri
defen siu
estren ada
HO RA
intr ín
jubi lats
Glob us
condicion ament
FES TA
Mè diques
perse ver
xicot ets
funda cions
ANY S
andal ús
ambaix ada
Stan nis
llumin ós
impact ant
nob les
propici ar
farmacèut ica
Grat uït
finalitz arà
Llic enciada
hipò tesis
Gala xy
pression ar
arrela ment
caram el
EMP RES
Guany em
Person alment
impl í
Espar reguera
tràg ic
delinqü ents
mister iós
retroc és
Jen ni
harm ònica
Var gas
barreg en
Ubicació Particularitats
CATA LA
impar able
molè cules
Stor y
Mind fulness
malbarat ament
romand rà
Cade t
batal les
Provín cia
Jú piter
detr iment
excava cions
Priva citat
electrodomèst ics
( #
A res
B om
B oc
B ron
B RI
B ár
D y
E CO
F arem
F lash
G it
G ay
H P
H é
J ana
N ick
O na
P ec
P ack
S EU
T amar
V enda
Y O
Z AT
c un
c ec
f ós
n ines
p y
r ant
r enta
u aris
y à
ç ana
ñ é
es ma
de pera
de cantar
en ne
al ent
al dar
al pin
qu ista
re posit
in directament
per deu
os c
os oci
is o
est arien
di lat
ur bis
com mo
com itiva
as ar
im os
im possibles
im potència
ob i
us se
par ade
par quet
ut opia
des plaça
ament e
ter n
ex tract
ri à
ver dad
for min
ac al
st and
pl ug
du o
pre ma
pre ferència
man eig
ins al
te o
esc andal
mar s
tin guessin
vis at
van eres
der as
cos ina
af ocs
Al mass
alitz i
eb ren
cal cul
In nova
bar roc
esp ion
dur i
ed ores
lli ur
reg ar
Sant amaria
gui at
difer encial
produ irà
ne a
Con se
ben ef
mun ta
sos tres
18 21
trans ferències
sin cera
poder osos
lle v
direct ori
haur íeu
canvi arà
sub ordin
plant acions
cri ure
mot eca
prob abilitats
govern amental
Sal om
punt ualment
propos ada
àct ica
fon da
fon gs
comple ts
post als
mor f
mor ter
rat lles
mon jos
treballa ven
Can ovelles
AN YA
uni ficació
document ada
Pa k
caus en
anim ats
vul gar
fest iva
ez er
Mol iner
lín ea
ale ena
Cor bera
tècn icament
rim onis
gas olina
Mon tan
Pres enta
demos tr
Ve la
Reg idor
hum it
electr òniques
anterior itat
rob at
castell era
aga fen
Que en
dial ogar
vari ats
Institut e
pregunt o
Pat erna
Ver d
creu a
respect at
exig it
Vol ia
Cos mo
SE GU
Pos eu
Ros si
uel o
PER A
Fot os
Fot ografies
connect ada
execut ius
encant aran
prefer entment
presiden cial
influ ït
acab és
TO P
foment ant
impe deixen
dif ós
ful let
bis bes
prov inci
franc és
aproxim ada
Program es
Mus icals
arquitect òniques
etique tatge
process ador
Crist ò
Bas ket
argument at
sel va
grad ualment
grad uació
contempor ànies
Agr o
Mil let
fol re
fè ric
Cic les
refor çat
brut ícia
Produ cte
ascen deix
espir al
Pan or
contrad icció
audi ció
RAN T
aïlla da
infin ita
suau ment
exer cint
absor bir
Pass at
Preg unta
Eur oc
potenci ant
nadal enca
fall ers
enterr at
pèl s
combusti ó
continent al
descen dent
contun dents
anot ar
esdevin gui
Ang aleena
Situ ació
esgot ar
musul mana
atrib uï
lact ància
Let ònia
Viny es
Jut jats
sospit ós
nob lesa
inè dita
apropi at
autòct ones
cess ament
exam inar
Ecol ògica
POL Í
accion istes
coron el
Viv im
antí gens
neoliber alisme
TH E
Fàbre gas
Còr dova
englob a
dici embre
Tex as
espont ània
padr ins
Hug o
Pell icer
Bapt ista
Sto re
Zen eca
iog urt
Brea k
oriz ed
Insp ecció
RAG ONA
quotidian itat
antio xid
Santamar ía
espion atge
A ta
B ec
B alt
C arà
C ENTRE
D H
D un
D ot
D omen
F rag
G OR
H ub
K al
M ut
M EC
N ev
N IV
R ess
S C
S la
S amba
T È
T ret
T ay
V la
W W
W all
a un
a queix
c eu
c ór
d estruct
f ona
f òbia
i ensis
m esc
r ència
s and
z ig
es mal
en fora
la van
qu eres
at m
re mo
re dirigit
in cor
un àn
ent at
que dés
per dem
ol ó
ol et
del ine
tr als
di os
ot ècn
com porten
ia ia
as signació
im posant
il itar
ob il
no ció
des confiança
des confinament
gr ade
da urat
da urada
oc h
El im
ex portar
vi cis
vi bra
vi deos
por ters
for ja
ve hí
èn yer
me j
me dul
pa ir
pl y
La y
La iet
po quet
ec en
ll ers
ll uï
du ta
ass in
pre caucions
ten c
En car
esc è
ess encialment
mar at
entre gat
ti ds
tem po
seg a
ill os
cos í
inter posar
19 07
Al p
segu iu
qui o
qui en
orn e
Com mun
Com encen
don e
ep al
av ala
av aria
No vell
An to
cu iners
deix aran
Ar ena
Est eu
tan cant
mal etes
Re ich
inst int
br omes
mer it
labor ativa
Car caixent
pob ra
atre vir
import ació
xa i
Par la
sub mer
mos quits
ef emè
17 6
Val les
CA LA
cant o
od ge
16 5
TA RI
Fran ja
nacional itats
tel ó
baix en
Pro u
obli dats
rat a
Ex erci
tur mell
san ejament
comunic ativa
IN ES
fran cs
Mont sià
ret ola
Estat uts
assist encials
mus ica
tornar ia
her ine
ocup ada
garant ida
acabar ia
expres sen
viat jat
Cap ítol
Ch allenge
VI DA
Mi k
mu jer
conjunt es
Dis capacitat
Fin làndia
perf eccion
castell on
Le ague
pag ats
Ca dena
pal ès
ocas ionar
RO M
elect orat
Pat í
compta ble
propor cional
Ne il
recla m
urg ell
excl ou
adi e
Diari o
registr ada
deri ven
BA IX
Ba ños
llo ps
th uring
fus teria
dè iem
separ ada
fel iu
Bor bó
jos ep
Loc als
plen ària
sant cugat
càn nabis
Bal let
emb ran
Is land
zz o
inc ess
mel an
ck ing
modern isme
Mus sol
convi uen
empren y
etique tat
process al
decor ats
reivindic atiu
eleg ir
Rub ió
PRO GRA
config urat
Munt anyes
arren cada
alliber at
AT EN
ascens ors
Gab inet
podr é
plo ure
fib ril
optim ització
Hon da
wa ys
mut ació
Eu se
Rob a
alluny ada
engan xa
giron ina
preocup ats
parad ig
Ste fan
Pon ç
distin tes
expan dir
MAN A
Ober tes
TAR RAGONA
renova ble
destr al
ele vació
immun itat
nervi osa
revolucion aris
explos ius
Aliment ària
dedi quem
posse eixen
Buen o
Tol osa
Wik iloc
esgot at
pè tua
precip itacions
procedir à
tax istes
ares ma
imput at
POS I
BER T
segr est
tarrag oní
plàn ols
Manten ir
traï ció
alli bera
Aigu amolls
olím pica
mex icà
acla par
Recom ana
retrib ucions
Gat ell
Cod ina
llor er
cautel ars
Victor ia
espel mes
aplaudi ments
RAC 1
Terri bas
Pix el
sw ing
polies portiu
Caball ero
Mú tua
distanci ament
Cert amen
Clin ics
pele gr
hamb urgues
Tarr és
Invent ari
Abra ham
psí qu
Candi dat
Montorn ès
Mèto de
Astra Zeneca
Aviny ó
depre d
Queb ec
antica pital
Estras burg
NIV ELL
thuring iensis
" -
A GRA
B ang
B US
D ates
D RES
D avis
E vit
G ES
K A
L GB
L ady
M ap
N eur
O I
R ica
R UM
R uth
S pan
S ònia
S hel
T et
V LC
e ves
g ó
n cia
r t
r aspall
s obra
t ó
Ò pera
Ú S
de cl
en ga
en jardin
er ol
er oteca
ar é
at ure
re eix
re fin
re tenir
in eres
in jecció
in visibles
que dem
que jar
am à
am ino
ic ans
est aba
se o
se ques
ad mirar
tr iga
ant enes
em brut
con ce
con vul
amb es
as signar
im en
im près
im posada
ir landès
ha ve
il li
ca det
ut ili
des connectar
El ement
vi ques
ac l
pl àstiques
po ol
ll ogat
man ia
ins crites
mat o
En e
dis cs
mar xes
tem ptació
cas erna
sen cers
Al bu
Al bal
ib èrica
ho ff
ju li
fin es
pot estat
In dic
min eria
men cion
soci ocult
esp anya
dur en
dur ament
reg gae
qual ificacions
An sel
An dy
pen jant
aut ista
aut ores
aut oria
gran et
ing os
Ar k
ili vi
sos tingut
ap tes
tal ons
Di os
Par ad
bat ejar
sub orn
ion ari
Val oració
pens ades
utilitz ava
govern amentals
ev iten
gen uï
tri ada
ce gues
comple ten
lament able
apro x
explic ada
pul mons
èr cits
mor í
Man hat
uper a
AR D
ograf ía
Pa y
Mont ilivi
assist eixen
exist eixi
dom inació
son ors
garant eixin
Ja y
bal ança
explica ven
Ben ic
Ben ito
Cap many
formar an
Ch al
Ch ris
go ga
avan ços
negoci ant
LL EN
moder ació
sur tin
categ oría
ío de
AC CIÓ
guar n
Pas cal
Bo de
Lu z
estigu essin
has h
comb inada
fra cció
entren at
instru ctor
imp li
identi fic
dut es
fit xar
pint ada
Br un
enlla çar
On da
RI L
Segu í
Sa ura
Sen z
tron g
rí t
ali ens
Hist òrica
Són ar
requer iment
experiment als
fres cor
diver tir
inaug urarà
Gra upera
Nat ure
supos ats
autom o
mag nesi
hospital ària
esment a
acad èmia
Ven us
circum s
insist ència
Mill o
Cir urgia
llic enciada
abast ament
Agr ícola
enor m
triom far
iny à
consolid ant
Territori als
hàb ils
Fo undat
prestigi osa
Rob les
comiss ària
nutr icionals
Agu irre
retr ats
aspir ar
privades a
consult ora
UNI CEF
preten dre
Lib ro
tamb e
imperi al
enamor ats
Den unci
Incl us
Fun ció
incent ius
Monts ant
índex s
arrosseg a
ampl itud
Fol k
Sig nes
vola t
cedi des
alleu jar
apassion ant
recre ació
visit arà
Artes a
alberg s
amist ós
lleug ers
assess ors
Tract at
Jord à
demo gràfic
Grat uïta
exten sions
Jac ques
Sindic al
trof eu
còn ju
mosa ic
Assum pta
Colum na
corrup tes
juni o
sr c
PARTI CI
Certi ficat
Pà mies
Constant í
colom bi
alien es
acamp ada
SERVE IS
Equi ps
deixeb les
Pais atge
Lux emb
Ini esta
entrany able
Coinci dint
intelig ents
òrb ita
Albi ol
prevar icació
MATER IAL
Prò xim
Asoci ación
dimon is
Clà udia
Uncateg orized
Pedral bes
3 10
? ),
B LA
B olí
C àm
D é
E le
E ver
F RE
G usta
I DA
L ine
L iga
M ura
M iran
R ect
S ton
W at
W in
W EB
Z hong
b eu
b acteri
c ells
f s
p ànic
r ins
s cript
s pam
t t
t et
t ho
w al
de ma
en re
en gres
en greix
ar ques
al tru
la ia
el lets
on és
re mem
re habil
re tret
re tina
in eta
in suficients
un gles
it à
per donar
per toca
pr int
est ira
di ar
em passar
con cur
con signes
ur ó
com pos
com plica
com prova
ta quilla
par en
par ròquies
si empre
des concert
ex ce
ex pon
vi urà
pos tu
for es
me cen
ens or
ll urs
du et
pre dir
su prim
hi e
hi on
ades a
te òriques
En trades
na h
esc ul
dis para
ge ot
comp acte
ti ons
Es de
Es car
cl en
cre mall
co un
der mat
ana ir
inter vé
inter actuar
19 12
ju guem
cor bes
can o
Mar zà
Bar ca
present adora
igu eu
Qu aresma
actu aran
pi zza
Est ocol
mal alta
gener ós
pren c
gar ro
ple bis
ba jo
18 84
pas tilles
proc urar
lle va
davant era
cla var
Cons ider
ap ps
tal les
to va
organitz atives
Pr ado
govern ança
Sal z
LA BO
àct ics
tir ada
fil mar
Gu itar
sigui ente
voc ar
22 8
ava s
Vi etnam
pes os
!! !!!
bus ques
Ser an
mon etària
AL TRES
bu taques
iter ació
ecció n
not ificacions
Gir alt
lleg eixo
fran cis
fran ctir
document ar
òs fera
aten en
recor rent
Mo re
Mo vistar
tren cada
son ores
aconsegu irem
hor ri
MA IG
Mi ki
LL ES
Gran de
dub to
consum s
premi ada
gra cies
Lli bert
enta ina
alter n
Ca ín
Prim o
vari en
Llu ita
sens ors
Cat òlica
constitu cionals
efect uat
On dara
presenta ven
ert os
introdu int
Im migració
Alg èria
sob ren
Bat et
caràct ers
assol eix
cit ada
correct or
mac ulada
este lades
urban ístics
Cada qués
Me j
magatz ema
Hu guet
flu xos
agu lles
avis os
silenci s
fo od
eleg ants
caigu i
desig nar
extraordin aris
Bu ch
Luis a
naveg adors
amag ats
epis copal
Tres or
banc àries
bran ding
empr a
Bell puig
enri quid
compat ib
Alex and
barra ca
acomi ada
67 9
Mel bourne
expect ativa
NI CA
decideix i
metr ò
John ny
facilit i
Sil va
enge ga
pun k
ballar ins
Oliver es
Blan quer
Investig acions
consult oria
afor es
regula dor
corri ols
marx ant
Bol et
metropolit à
Sus ana
Sus queda
OB JEC
Andr é
atmos f
Poc h
assegu ts
ignor ar
Arquit ectes
lan desa
Det in
rama ders
Bet lem
Resta uració
Ret orn
manual itats
Conser vació
Bern ard
Sara h
mallor quina
pastis sos
TAN T
equiv ocat
ingress ats
construct iva
exerc eixen
Cli queu
Pant alla
assess ora
negat ivament
perdu des
JOR NA
Tècn ics
Coc entaina
plà tan
lustr ador
sect orial
recur rents
tovall oles
reve lat
Carre tera
Rel ig
cardio vasculars
climat ització
desafi ament
desafi aments
CRI P
Fron tera
exclo ure
pess ic
Capit à
Nav às
Estru ctura
REU TERS
aband ó
aband ona
estacion ament
Cris i
JOS EP
sosp ites
nostàl gia
TALL ER
anòn ima
Establ ir
Só ller
antib i
Brook lyn
Nà pols
golej ador
micrò fon
interrup cions
embal atge
alev í
rodal ies
LLEI DA
Mercant il
Claus tre
LLEG IR
SGA E
Algemes í
difun ts
Mí riam
Manhat tan
Miran da
Estocol m
4 20
5 50
9 N
B ord
B og
C es
C is
C ana
C edi
C ron
C ELL
C unit
E la
E laboració
F AR
G iner
I f
K am
K le
L OS
M OS
N il
N ight
Q ü
R ent
R it
R ut
R ena
R enda
S ap
S TE
T ed
T od
T ast
V M
W olf
a z
g hee
k ara
o ca
s ica
s ell
u li
x is
à mic
en dol
al m
al pí
re metre
in dar
in justa
un ifam
que des
per judica
ic orn
is la
est ival
ad jac
del iciós
di gués
em plen
im ponent
ha vies
des equilibri
gr on
da ys
li bre
ex alcalde
ex ting
ex cessos
res ia
ab i
pos e
pos sessions
ser às
ver edicte
for quilla
ra y
ici al
ll ú
car pa
ma ó
ma de
su curs
su pòsit
mar cs
tin drien
entre pà
tem ples
van es
ill y
pe dr
inter val
inter rupció
19 10
ran cs
ho o
uny er
ju an
cal c
ro w
pu esta
men jat
Bar re
Com par
àn ol
present à
esp asa
ola b
prof eta
estr enes
sa id
mal tractaments
Re present
ban o
Des près
project arà
contin ents
lo re
18 85
trans accions
fi deus
jor di
sor tien
ap adr
tal ib
to x
to par
Di òcesi
organitz em
organitz adora
passat ger
sim bi
Amb dues
cri br
ub ica
pens ats
lect ivament
tu li
tor r
CI F
gl ori
propos o
Gu al
gen èric
RA S
Pro grés
post ures
resta urat
Em ple
mil les
RE LA
desenvolup ades
vist os
anim ada
aconseguir à
Pre us
afeg iu
exist ien
las tres
Po us
Tar dor
jug ades
compr ant
aconsegu its
Mat í
Mu jeres
Mas que
Ter ol
Gr os
premi ar
cost ura
fact ible
comentari o
Ca pu
Ver sió
enc ers
consist it
estigu is
Br y
quar ter
recla mant
Segu iment
SI ON
Art uro
tron cs
fonament a
registr ades
Cam inada
dispos ades
perill oses
civ ilitz
elabor ades
fres ques
................ ........
dibuix at
plen itud
prior itàries
LI TAT
ud its
Oli var
itaris me
mera velles
Fern àndez
Fel ix
GU I
CC MA
CN L
exclus ives
magn ífiques
DO I
process ar
Pet ita
cast any
Deix eu
Xar xes
naveg ant
AD OR
pertany ents
frag ilitat
TOR I
Tri o
descri uen
pedag ògiques
Tele comunicacions
Lab orals
Met ge
noct urnes
DU I
Nu eva
fug int
recon ec
alluny ats
apren em
estu pe
descobr iments
fia bles
anci ans
retr ospectiva
Bàs icament
Dar rer
motiva cions
Sus anna
Mà xim
didàct iques
Incl usió
Det all
legítim a
inno var
descen dència
ofen siu
arrosseg ar
Flor ència
grava cions
Sín drome
emiss ores
burges a
costar à
aa aa
econom ies
matric ulats
CL UB
tax is
Gri f
Fit xa
Peri òdic
Amor ós
pist ola
Creat ive
abo ca
tag ged
passad issos
dren atge
Enten em
event ual
Christ op
xamp inyons
Negoci s
associa cionisme
Sagr era
bric ants
nà ixer
multitudin ària
false dat
Dou g
señ or
emin entment
renaix ent
patrocin adors
lligam s
Jef f
Tard à
increï bles
Olim pí
Xirin acs
prescin dir
genoci di
Prè viament
aragon ès
CLAS SE
mamí fers
Proven ça
Xique ts
CATALA NA
Almass ora
! ),
9 h
: "
A pro
A fr
A ire
A llen
A mig
B un
B eca
B alada
C rea
D ub
E H
E Z
E MA
F Ò
F EN
F IS
M ena
M uro
M od
N eb
N BA
N ike
O ro
P ica
R ol
R iva
R TVE
S ona
S UB
T ic
T alla
V ot
W atch
a prim
a post
c els
c ès
d C
e ño
g ador
i j
j ara
o prim
o caus
s tr
t ans
t onal
t hem
u y
u ci
v ing
v às
v èr
x à
z et
À gora
è cil
é tico
ò via
es poli
es planada
de gener
de vo
en et
en cal
en oturisme
an glosa
qu ín
ci rer
re format
re passa
re pensar
re plantejar
re transmissió
re inserció
or ir
in ject
in crus
it in
it art
se da
em as
con següent
ur ador
im itar
gr as
aqu ari
li u
oc ults
El isa
ri o
vi vi
aquest os
ser en
eix am
ver at
ver ificar
for çat
ac ces
pa us
po gueren
ec lub
pre gar
pre dec
man ualment
ten deixen
su ite
tre uen
rec lut
ess ori
mar rons
um b
Es cen
Per fil
tem s
co ok
cap vespre
cap girar
cel les
int u
cos ti
mes quita
pot a
Mar istes
Com ment
don és
soci osan
pla te
No ct
ed s
ed ita
ès el
cu ita
cu ines
ing esta
dos sier
pi e
tan caments
sent enciar
sal tant
ne da
ben jamí
De portiu
cin tura
millor arà
ple guen
18 8
trans la
Car denal
ren ou
cla t
inici em
lar an
Cas tor
Par ra
.... ...
mos ques
reb ien
EN CI
mot oci
tor rades
13 4
Jos ef
arribar ia
RA R
Ma j
represent atius
apro pia
vent a
bo jos
Ser vera
mon te
Ll otja
termin ologia
Ex terior
medi o
cam illa
bu f
bu id
far ma
far sa
IN T
cis sió
Or gull
Pal om
ret òrica
vic es
deixar ia
Mo ya
cot es
dirig ia
Su ite
ok o
paper eres
carreg ades
mas sives
Te j
crip tor
plat ó
pal eta
San itari
accep tant
correspon dre
anunci ada
sens orials
Inici atives
Lu ci
Pat rick
Ver mell
enc eta
confi en
confi dencial
interpre tant
45 h
extre t
vehic ular
envi ats
Pen sion
sex ualment
individu alment
conseqü ent
mínim ament
ach s
Ob rer
Aut ors
parla ven
obser vatori
imag inat
mul tip
Art adi
Sen egal
adap ti
fis c
fis s
NO TÍ
avalu acions
visitar em
gal lec
gal eries
are ig
migr acions
ip è
experiment ant
Ped rera
Gra cia
ingü isme
influ eix
influ eixen
Os tres
ME T
possibil ita
flu vial
Mag s
justi ficada
Dig itals
DO MENYS
rendi ble
mens tru
Tom eu
règim s
vaix elles
Contin guts
Dom icili
àb ria
Fil moteca
Er mita
arren dament
ph y
Agr ària
plani ficat
Als ina
funciona va
camb res
Ins cripció
Th ree
màs ters
ANT ONI
succe int
Alex is
NI F
afavor int
Sin ga
catalan istes
ascen sió
obtin gudes
responsab ilitza
Pan ell
Garri do
coc ció
Escal des
Din am
dedica va
seqü ències
Paul o
escult or
cerves es
Cooper atiu
Foment ar
MEN TS
disting eix
Trad icion
Cad is
Bet is
cèn tric
promot ora
inno cència
miner al
MER CA
mono poli
AU DI
Fol ch
afavoreix en
visit eu
amet lles
explí cita
enz im
Lit oral
ned ar
valu ós
Pràct ica
abaix ar
Llic enciat
restring it
espant ar
acúst ic
motx illes
Materi als
distribu eix
atorg ada
publici tari
homosex ualitat
Cro àcia
Llí via
calaix os
Comple x
preval ença
suscepti ble
elog is
mister is
may or
MN AC
imb ècil
Jane iro
Zel anda
Sà hara
Guer rero
arist ocrà
Suc cessió
hec ho
impress ora
PLAN TES
índol e
odon t
Deport ivo
polog ies
compas sió
Tò quio
REDA CCIÓ
atm òsfera
unàn ime
automo ció
enorm ement
Foundat ion
Luxemb urg
Cedi da
CELL ERS
anglosa x
+ ,
, "
4 K
A bu
A FP
A igü
B eck
D ó
D RI
E volució
F alta
G ad
G ER
H H
I DE
J am
K h
K uk
K iko
L IB
N iu
N ag
O u
S als
S ho
S eca
S MS
S unyer
T w
T í
b egut
b ústia
d t
d istes
g y
j ana
l ist
o da
p é
r ú
s ky
t d
t è
u ós
u ard
w itz
w orth
| |
À R
ò dia
de jar
de guda
de funcions
de essa
en cas
en cab
an alitzen
la dors
ci to
re fr
re trans
re distribució
re prèn
or ització
que d
per dis
per judicial
per judicials
om one
pr in
pr osp
est ins
est ius
se d
tr ots
di ab
di able
di èsel
va in
con ill
con tracta
con signa
com tat
com itès
no ve
par as
par atges
si o
ut ers
des ga
des connexió
des plegat
gr á
ter na
res sus
ab ric
ser é
ser es
ra j
ra cia
ac à
ve della
ell otge
pa pel
ens es
pl in
pl ora
ec cionat
ll og
ll eny
pre f
man uel
den sa
mol ls
te ula
En camp
aix e
Es quer
pe dià
dia grama
cas à
cos indic
inter min
19 16
19 03
id ó
ho u
In glés
cor ret
cor tines
men jant
Bar n
Com petit
Com unitats
àn imes
mo des
leg o
An ella
pen dre
). [
cu ida
val gut
plic ada
Re lat
sab ata
gener ats
ban quets
pren dran
art h
edi ficacions
Con greso
lu cr
lu bricants
hom ilia
18 98
fi eld
ren ce
12 1
vin e
vin dria
ap titu
organitz ativa
às sim
àr rec
lí rica
realitz in
14 9
CA DA
CO LL
esper eu
utilitz aven
govern en
16 h
13 8
public ant
As h
As tron
pes ada
Ser vi
Ser ies
ost ent
tur cs
cont esta
bu ena
far cits
fam ilies
posit or
const itut
IN FORMACIÓ
Va ja
espanyol istes
preg unten
inar es
gua ge
poble t
regu st
enten iment
quant a
27 5
vul guem
28 0
redu irà
trib una
IS I
Ad met
fre des
febrer o
Mat hemat
Ben vinguda
hor as
oport unes
Ter min
Camp ions
viol on
viol entes
impul sen
nu eva
àm ics
Le arning
Actu ació
expl ota
Ca pacitat
pal p
sens a
Pel e
oris mes
cab ana
allar ga
Pen sem
dra p
Part its
Educació n
satis feta
amar g
adre çats
Pe pa
Ba h
GA S
rot ació
implic ada
separ en
psic òlegs
repet eixen
lluny ans
US U
Trib unals
provoc arà
escolar ització
line als
Bal do
Ge org
hospital ari
embar assades
còmo dament
reivindic ativa
cí trics
expli ques
Minis terio
assenyal ava
Bla i
Trob em
servi cis
pron uncia
xique ta
ator re
arren d
UM EN
pertany ia
Pers ona
multi plicar
Fre ezer
Ferr ari
Ag bar
Seny ora
converteix i
Rob arts
dinam isme
contras tar
mostr aran
Oliver as
curios ament
consult or
regula dores
là mic
llanç aments
gaudi m
ajust ada
enamor ar
Sort im
Europe es
Quart et
xicot et
atem ps
absten ir
Fall eres
Pra ct
progress istes
Feder ico
Ross ell
farmacèut ic
autòct ona
gor ra
Hostal eria
coca ïna
FIN AL
Vel ocitat
sacerdot s
anticip ada
Org anyà
encapç ala
Volunt aris
conces sions
cany ella
impl ants
Fron teres
exhaus tiu
intoler ància
Dist ància
Zo om
algor isme
israeli à
soterr ament
precis ar
Mult imèdia
[+ ]
contrar estar
Dro p
delici osa
polic í
Wiki pedia
Bibli o
Có mo
escoc ès
ajunt ar
Sak ura
Gorg os
agos ar
embass ament
RTV V
Bow ie
fertilitz ants
correspons al
medicin als
Difer ents
indí genes
Nutr ició
comens als
Benig ànim
TEAT RE
GLUT 1
Guim erà
soter rani
Carà cter
PROGRA MA
Ansel m
Benic àssim
Qü est
Singa pur
' ',
) "
1 19
1 200
A men
A ràbia
A plicació
B ali
B LES
B rigada
C SA
E ri
E BA
F IC
G and
H OS
K er
K night
L ac
L iv
L isa
L odge
M id
M ull
M oments
N º
O le
O cupa
P eix
P ES
P unta
P ocs
R SS
R PH
S F
S pot
S atur
S oto
S now
V ed
X er
X ocola
Z w
a pr
b ós
b anyes
c eny
d op
e vangeli
g ing
l és
n el
n ans
p òst
r és
r ost
t ona
v ara
w en
x aran
è mies
ò bils
er g
er ar
er tas
ar le
ci d
ci cat
el io
on col
re ad
re mol
in arà
in ing
in revés
am is
per ime
pr é
is ma
est ants
est èr
est ado
tr ac
tr àn
ant icisme
con not
con fron
com tes
as hi
im posen
ca ix
et im
ut re
des cripcions
des astres
ter ços
ex actes
ri z
pos és
pres encia
ment ir
ect er
st ad
me dis
ig ació
pa guem
part im
po us
car ecter
man go
ten dra
vol ent
vol ts
ins òl
port ats
entre mig
bre ak
ti pologies
Per al
ga is
nos a
nos otros
cos ir
af ro
Al c
Al ma
Al man
Al mo
Al dea
cal am
qui et
bar ana
cor rer
can onades
men ut
men gem
Bar rera
Com issions
fet us
og ació
lli ber
ín tima
Ar ms
estr ictes
tract em
sa grat
ne guen
pat ernitat
lab orem
Con tract
De gut
br as
br uts
hist orial
trans gèn
Car den
Car rera
atre vit
12 4
to us
Di e
Par lant
bat edora
sim a
Val ero
camp anes
reb ots
14 7
EN CA
mot ll
seny era
cent ro
econ ó
11 6
ch es
of eg
ient os
Fran ch
Gu itart
tri ples
As có
egu era
Cal endari
Cal onge
lament ablement
apro varà
pes at
bas tir
treballa da
Seg adors
Ll à
Ll om
ind ustria
professi ons
centr ades
ordin aris
san guin
Ju gar
autor itza
obrir an
regu da
assist ències
pon g
cle tes
tren quen
dol entes
prepar atius
Cor pus
trib uts
cen dres
Gar cés
Ra in
Mat eo
Sol ar
Ch ic
aprof item
LL O
Tarrag onès
real istes
Mer ino
Av all
fl oració
promo guda
natural ista
explicar é
pal estí
Prim e
guar di
Cr uïlla
TE U
Valenci anes
mec àniques
Res iden
estigu en
reser vada
espec ula
atra pat
titu lacions
carre us
oli vera
segueix in
necessit arà
Se at
Se gui
Cl inton
excep cionalment
dí as
preci oses
registr en
Pe ñ
Pe ople
atac ant
dispos i
antic atal
zar et
th ro
equ ació
diver sificació
ern al
apareix ia
QU EL
Cada fal
influ ents
Juli án
vit r
LI M
LI O
Vil à
aport arà
destaca va
necessita ven
avent ur
particular itats
ck s
Dem òcrata
emp ats
NA CIONAL
feu dal
neu tral
flu or
Tec la
complement aris
complement ària
fo guera
reivindic ant
eleg its
pract iquen
Coll boni
Minis tres
abs tracte
informar à
apos tes
Trob a
fac eta
amena çat
invent at
aus trí
breu ment
Torn ar
reflect it
Adri an
Adri ana
ann y
Cel oni
guitar res
aclar it
vacun ats
Sil ver
Yo ga
ascen dència
Orient ació
aspir ant
embl emàtica
Arque ològic
rigor ós
Llar ga
fantas ma
His p
Jan é
gestion ada
ecos oci
moltíssim s
Clas ses
partid istes
Eur os
tèr mic
acceler ació
espiritu als
inv ents
escèn ic
Viu re
aler ten
report atges
oce ans
Fra ga
naz isme
curi osos
VIS TA
adon o
pent inats
construct iu
bomb etes
Lor ena
observ adors
Ide al
ss ss
PRES EN
Mach ado
Burg hoff
Orden ació
Electr ònic
Sindic atura
clos ca
TN C
simp licitat
dedu ir
Caf è
pad rí
apoder ament
Consult ors
interro gat
interlocut òria
cerc adors
Llagos ta
Gib ert
lèr gies
quirúr gica
Escu ela
Independent ista
Institu cionals
Energ ètica
Guiller mo
hep atitis
embot its
crom os
microb i
escrut at
[...]
