{"<s>":0,"</s>":1,"<unk>":2,"<pad>":3,"<im_start>":4,"<im_end>":5,"<fim_prefix>":6,"<fim_middle>":7,"<fim_suffix>":8,"<mask>":9,"!":10,"\"":11,"#":12,"$":13,"%":14,"&":15,"'":16,"(":17,")":18,"*":19,"+":20,",":21,"-":22,".":23,"/":24,"0":25,"1":26,"2":27,"3":28,"4":29,"5":30,"6":31,"7":32,"8":33,"9":34,":":35,";":36,"<":37,"=":38,">":39,"?":40,"@":41,"A":42,"B":43,"C":44,"D":45,"E":46,"F":47,"G":48,"H":49,"I":50,"J":51,"K":52,"L":53,"M":54,"N":55,"O":56,"P":57,"Q":58,"R":59,"S":60,"T":61,"U":62,"V":63,"W":64,"X":65,"Y":66,"Z":67,"[":68,"\\":69,"]":70,"^":71,"_":72,"`":73,"a":74,"b":75,"c":76,"d":77,"e":78,"f":79,"g":80,"h":81,"i":82,"j":83,"k":84,"l":85,"m":86,"n":87,"o":88,"p":89,"q":90,"r":91,"s":92,"t":93,"u":94,"v":95,"w":96,"x":97,"y":98,"z":99,"{":100,"|":101,"}":102,"~":103,"":104,"¡":105,"¢":106,"£":107,"¤":108,"¥":109,"§":110,"¨":111,"©":112,"ª":113,"«":114,"¬":115,"­":116,"®":117,"°":118,"±":119,"²":120,"³":121,"´":122,"µ":123,"·":124,"¸":125,"¹":126,"º":127,"»":128,"¼":129,"½":130,"¾":131,"¿":132,"À":133,"Á":134,"Â":135,"Ã":136,"Ä":137,"Å":138,"Æ":139,"Ç":140,"È":141,"É":142,"Ê":143,"Ë":144,"Ì":145,"Í":146,"Î":147,"Ï":148,"Ñ":149,"Ò":150,"Ó":151,"Ô":152,"Ö":153,"×":154,"Ø":155,"Ú":156,"Û":157,"Ü":158,"Þ":159,"ß":160,"à":161,"á":162,"â":163,"ã":164,"ä":165,"å":166,"æ":167,"ç":168,"è":169,"é":170,"ê":171,"ë":172,"ì":173,"í":174,"î":175,"ï":176,"ð":177,"ñ":178,"ò":179,"ó":180,"ô":181,"õ":182,"ö":183,"ø":184,"ù":185,"ú":186,"û":187,"ü":188,"ý":189,"ÿ":190,"Ā":191,"ā":192,"Ă":193,"ă":194,"Ć":195,"ć":196,"Č":197,"č":198,"Ď":199,"ē":200,"ĕ":201,"ė":202,"ę":203,"Ě":204,"ě":205,"Ğ":206,"ğ":207,"Ĩ":208,"ĩ":209,"ī":210,"ĭ":211,"İ":212,"ı":213,"Ĺ":214,"ĺ":215,"ļ":216,"ľ":217,"ŀ":218,"Ł":219,"ł":220,"ń":221,"ņ":222,"ň":223,"Ō":224,"ō":225,"ő":226,"Œ":227,"œ":228,"ŕ":229,"ř":230,"Ś":231,"ś":232,"Ŝ":233,"ş":234,"Š":235,"š":236,"ũ":237,"Ū":238,"ū":239,"ŭ":240,"ů":241,"Ź":242,"ź":243,"Ż":244,"ż":245,"Ž":246,"ž":247,"ƒ":248,"Ɵ":249,"ơ":250,"ư":251,"ƾ":252,"ǎ":253,"ț":254,"ɑ":255,"ɔ":256,"ə":257,"ɛ":258,"ɨ":259,"ɪ":260,"ɾ":261,"ʁ":262,"ʃ":263,"ʰ":264,"ʻ":265,"ʿ":266,"ˈ":267,"ˌ":268,"˚":269,"̀":270,"́":271,"̃":272,"̊":273,"̥":274,"̩":275,"͘":276,"Έ":277,"Β":278,"Γ":279,"Δ":280,"Ε":281,"Ι":282,"Κ":283,"Λ":284,"Μ":285,"Ν":286,"Ο":287,"Π":288,"Σ":289,"Τ":290,"Φ":291,"Χ":292,"ά":293,"έ":294,"ή":295,"ί":296,"α":297,"β":298,"γ":299,"δ":300,"ε":301,"η":302,"θ":303,"ι":304,"κ":305,"λ":306,"μ":307,"ν":308,"ο":309,"π":310,"ρ":311,"ς":312,"σ":313,"τ":314,"υ":315,"φ":316,"χ":317,"ω":318,"ϊ":319,"ό":320,"ύ":321,"ώ":322,"ϯ":323,"ϳ":324,"Ͼ":325,"А":326,"Б":327,"В":328,"Г":329,"Е":330,"З":331,"И":332,"К":333,"М":334,"Н":335,"О":336,"П":337,"Р":338,"С":339,"Т":340,"У":341,"Ф":342,"Х":343,"Ч":344,"Ы":345,"Э":346,"Ю":347,"Я":348,"а":349,"б":350,"в":351,"г":352,"д":353,"е":354,"ж":355,"з":356,"и":357,"й":358,"к":359,"л":360,"м":361,"н":362,"о":363,"п":364,"р":365,"с":366,"т":367,"у":368,"х":369,"ч":370,"ш":371,"щ":372,"ы":373,"ь":374,"э":375,"ю":376,"я":377,"є":378,"і":379,"ї":380,"Ի":381,"Մ":382,"ա":383,"բ":384,"դ":385,"ե":386,"ի":387,"հ":388,"տ":389,"ր":390,"ց":391,"ְ":392,"ֲ":393,"ִ":394,"ַ":395,"ָ":396,"ֹ":397,"ֻ":398,"ּ":399,"א":400,"ב":401,"ג":402,"ד":403,"ה":404,"ו":405,"ח":406,"ט":407,"י":408,"ל":409,"ם":410,"מ":411,"ן":412,"נ":413,"ס":414,"ע":415,"פ":416,"ק":417,"ר":418,"ש":419,"ת":420,"أ":421,"ا":422,"ب":423,"ة":424,"ج":425,"ح":426,"د":427,"ر":428,"ز":429,"س":430,"ع":431,"غ":432,"ف":433,"ك":434,"ل":435,"م":436,"ن":437,"و":438,"ي":439,"ڨ":440,"گ":441,"ग":442,"ङ":443,"न":444,"र":445,"ा":446,"्":447,"ณ":448,"ร":449,"ა":450,"დ":451,"ე":452,"თ":453,"ი":454,"მ":455,"რ":456,"ტ":457,"ᐅ":458,"ᑕ":459,"ᒪ":460,"ᗩ":461,"ḥ":462,"ḫ":463,"ṁ":464,"ṅ":465,"ṇ":466,"ṛ":467,"ṣ":468,"ả":469,"ấ":470,"ẹ":471,"ễ":472,"ị":473,"ụ":474,"ἀ":475,"ἄ":476,"Ἅ":477,"ἐ":478,"Ἐ":479,"ἤ":480,"Ἥ":481,"ἱ":482,"ἳ":483,"Ἰ":484,"Ἴ":485,"Ὀ":486,"ὐ":487,"ὑ":488,"ὗ":489,"ὰ":490,"ὲ":491,"ὴ":492,"ὶ":493,"ὸ":494,"ὼ":495,"ῆ":496,"ῖ":497,"ῦ":498,"ῶ":499,"​":500,"‌":501,"‍":502,"‎":503,"‏":504,"‐":505,"‑":506,"‒":507,"–":508,"—":509,"―":510,"†":511,"•":512,"‣":513,"…":514,"‪":515,"‫":516,"‬":517,"‰":518,"′":519,"″":520,"‹":521,"›":522,"‼":523,"⁄":524,"⁠":525,"₂":526,"€":527,"₯":528,"⃣":529,"℃":530,"№":531,"™":532,"ℹ":533,"⅓":534,"←":535,"↑":536,"→":537,"↓":538,"↘":539,"↩":540,"⇐":541,"⇒":542,"∎":543,"−":544,"∙":545,"√":546,"∼":547,"≡":548,"≤":549,"⊢":550,"⋅":551,"⋆":552,"⎯":553,"⏩":554,"⏯":555,"⏱":556,"⏲":557,"─":558,"╤":559,"╦":560,"▌":561,"■":562,"□":563,"▢":564,"▪":565,"▭":566,"▲":567,"▴":568,"▶":569,"▷":570,"▸":571,"►":572,"▼":573,"◀":574,"◂":575,"○":576,"●":577,"◠":578,"☂":579,"★":580,"☎":581,"☔":582,"☕":583,"☘":584,"☝":585,"☢":586,"☰":587,"☹":588,"☺":589,"♠":590,"♣":591,"♥":592,"♦":593,"♪":594,"⚠":595,"⚡":596,"⚪":597,"⚫":598,"⚽":599,"⛅":600,"⛈":601,"⛺":602,"✅":603,"✊":604,"✍":605,"✓":606,"✔":607,"✡":608,"✭":609,"✿":610,"❄":611,"❇":612,"❏":613,"❗":614,"❤":615,"➡":616,"➢":617,"➨":618,"➻":619,"⠀":620,"⧼":621,"⧽":622,"⬇":623,"⬛":624,"⬜":625,"⭐":626,"、":627,"。":628,"【":629,"】":630,"い":631,"う":632,"え":633,"お":634,"か":635,"が":636,"き":637,"く":638,"こ":639,"さ":640,"し":641,"す":642,"た":643,"ち":644,"っ":645,"て":646,"で":647,"と":648,"な":649,"に":650,"の":651,"は":652,"ま":653,"め":654,"も":655,"や":656,"よ":657,"ら":658,"り":659,"る":660,"れ":661,"を":662,"ァ":663,"ア":664,"ィ":665,"イ":666,"エ":667,"カ":668,"ガ":669,"キ":670,"ク":671,"グ":672,"コ":673,"サ":674,"ザ":675,"シ":676,"ジ":677,"ス":678,"タ":679,"ダ":680,"ッ":681,"デ":682,"ト":683,"ド":684,"ナ":685,"ニ":686,"ノ":687,"ハ":688,"バ":689,"ビ":690,"フ":691,"ブ":692,"プ":693,"ベ":694,"ボ":695,"ミ":696,"メ":697,"モ":698,"ャ":699,"ョ":700,"ラ":701,"ル":702,"レ":703,"ロ":704,"ン":705,"ヴ":706,"・":707,"ー":708,"㎡":709,"一":710,"三":711,"下":712,"为":713,"乡":714,"事":715,"二":716,"京":717,"体":718,"你":719,"価":720,"侨":721,"促":722,"保":723,"健":724,"光":725,"全":726,"分":727,"刊":728,"初":729,"加":730,"効":731,"半":732,"华":733,"南":734,"各":735,"咨":736,"回":737,"園":738,"土":739,"地":740,"址":741,"坛":742,"執":743,"場":744,"壊":745,"夏":746,"大":747,"天":748,"好":749,"姐":750,"嫂":751,"学":752,"完":753,"宣":754,"小":755,"居":756,"崩":757,"市":758,"師":759,"年":760,"度":761,"康":762,"弾":763,"律":764,"怒":765,"悪":766,"愛":767,"成":768,"抑":769,"拳":770,"换":771,"揮":772,"改":773,"教":774,"散":775,"新":776,"早":777,"时":778,"春":779,"更":780,"替":781,"月":782,"朱":783,"格":784,"標":785,"檢":786,"每":787,"氏":788,"民":789,"汗":790,"沟":791,"法":792,"湿":793,"無":794,"熱":795,"牙":796,"狗":797,"独":798,"狼":799,"猫":800,"率":801,"由":802,"申":803,"留":804,"疾":805,"病":806,"発":807,"百":808,"的":809,"目":810,"真":811,"示":812,"秘":813,"立":814,"等":815,"筋":816,"答":817,"类":818,"翠":819,"肉":820,"良":821,"节":822,"茉":823,"茶":824,"莉":825,"萍":826,"藤":827,"表":828,"西":829,"解":830,"話":831,"论":832,"证":833,"询":834,"请":835,"贸":836,"超":837,"跡":838,"軽":839,"载":840,"通":841,"進":842,"達":843,"郑":844,"量":845,"鉄":846,"録":847,"闪":848,"音":849,"飽":850,"香":851,"駄":852,"高":853,"魔":854,"黒":855,"黙":856,"금":857,"납":858,"다":859,"드":860,"로":861,"운":862,"장":863,"출":864,"현":865,"":866,"":867,"":868,"":869,"":870,"":871,"":872,"":873,"":874,"":875,"":876,"":877,"":878,"":879,"":880,"":881,"":882,"️":883,"︻":884,"�":885,"🃏":886,"🆕":887,"🇦":888,"🇩":889,"🇪":890,"🇮":891,"🇱":892,"🇷":893,"🇸":894,"🇺":895,"🌂":896,"🌃":897,"🌈":898,"🌊":899,"🌏":900,"🌘":901,"🌞":902,"🌳":903,"🌹":904,"🌿":905,"🍊":906,"🍿":907,"🎀":908,"🎄":909,"🎉":910,"🎖":911,"🎗":912,"🎙":913,"🎚":914,"🎛":915,"🎞":916,"🎤":917,"🎥":918,"🎨":919,"🎵":920,"🎶":921,"🏀":922,"🏅":923,"🏆":924,"🏙":925,"🏚":926,"🏳":927,"🏴":928,"🏻":929,"🏼":930,"🏽":931,"🏾":932,"🐈":933,"🐌":934,"🐓":935,"🐚":936,"🐟":937,"🐭":938,"🐮":939,"🐰":940,"🐴":941,"🐵":942,"🐷":943,"🐿":944,"👀":945,"👁":946,"👆":947,"👇":948,"👉":949,"👊":950,"👋":951,"👌":952,"👏":953,"👮":954,"👿":955,"💉":956,"💊":957,"💋":958,"💛":959,"💡":960,"💥":961,"💧":962,"💨":963,"💪":964,"💬":965,"💯":966,"💻":967,"📅":968,"📆":969,"📇":970,"📊":971,"📋":972,"📌":973,"📍":974,"📑":975,"📕":976,"📖":977,"📗":978,"📘":979,"📚":980,"📝":981,"📢":982,"📣":983,"📱":984,"📲":985,"📸":986,"📹":987,"📻":988,"🔈":989,"🔊":990,"🔍":991,"🔖":992,"🔜":993,"🔥":994,"🔪":995,"🔱":996,"🔲":997,"🔴":998,"🔵":999,"🔻":1000,"🕙":1001,"🕵":1002,"🖱":1003,"🖼":1004,"🗓":1005,"🗣":1006,"🗳":1007,"😀":1008,"😂":1009,"😃":1010,"😉":1011,"😊":1012,"😋":1013,"😌":1014,"😍":1015,"😎":1016,"😏":1017,"😘":1018,"😛":1019,"😢":1020,"😦":1021,"😪":1022,"😯":1023,"😱":1024,"😷":1025,"😻":1026,"🙁":1027,"🙂":1028,"🙌":1029,"🙏":1030,"🚀":1031,"🚉":1032,"🚑":1033,"🚗":1034,"🚧":1035,"🚨":1036,"🛂":1037,"🛡":1038,"🟠":1039,"🟢":1040,"🟣":1041,"🤍":1042,"🤐":1043,"🤑":1044,"🤔":1045,"🤖":1046,"🤩":1047,"🥇":1048,"🥈":1049,"🥰":1050,"🥳":1051,"🥺":1052,"🦁":1053,"🦆":1054,"🦠":1055,"🪄":1056,"🪳":1057,"es":1058,"de":1059,"en":1060,"er":1061,"ar":1062,"al":1063,"an":1064,"la":1065,"qu":1066,"ci":1067,"el":1068,"at":1069,"on":1070,"re":1071,"or":1072,"in":1073,"un":1074,"ent":1075,"it":1076,"que":1077,"am":1078,"per":1079,"os":1080,"om":1081,"pr":1082,"ic":1083,"is":1084,"est":1085,"ol":1086,"se":1087,"ad":1088,"del":1089,"ció":1090,"tr":1091,"és":1092,"les":1093,"di":1094,"ant":1095,"em":1096,"va":1097,"ot":1098,"ct":1099,"con":1100,"ur":1101,"com":1102,"ia":1103,"amb":1104,"as":1105,"im":1106,"ix":1107,"gu":1108,"ir":1109,"ha":1110,"els":1111,"ació":1112,"una":1113,"il":1114,"ob":1115,"le":1116,"ta":1117,"no":1118,"us":1119,"ons":1120,"par":1121,"si":1122,"pro":1123,"ca":1124,"et":1125,"itat":1126,"ut":1127,"ada":1128,"des":1129,"gr":1130,"als":1131,"aqu":1132,"da":1133,"ament":1134,"li":1135,"oc":1136,"ica":1137,"any":1138,"El":1139,"ter":1140,"ex":1141,"ri":1142,"res":1143,"ul":1144,"vi":1145,"fer":1146,"aquest":1147,"més":1148,"ab":1149,"pos":1150,"ser":1151,"20":1152,"por":1153,"eix":1154,"ver":1155,"tot":1156,"cia":1157,"for":1158,"ra":1159,"dels":1160,"ist":1161,"ac":1162,"ici":1163,"pres":1164,"ve":1165,"èn":1166,"ment":1167,"act":1168,"ect":1169,"st":1170,"cions":1171,"me":1172,"ona":1173,"ig":1174,"ell":1175,"pa":1176,"itz":1177,"ens":1178,"part":1179,"ats":1180,"pl":1181,"La":1182,"po":1183,"ec":1184,"ll":1185,"du":1186,"ass":1187,"pre":1188,"car":1189,"..":1190,"ts":1191,"era":1192,"ma":1193,"man":1194,"all":1195,"ten":1196,"tra":1197,"su":1198,"tre":1199,"iv":1200,"den":1201,"hi":1202,"ans":1203,"ors":1204,"tres":1205,"vol":1206,"ins":1207,"ari":1208,"ència":1209,"mol":1210,"ades":1211,"te":1212,"ents":1213,"mat":1214,"rec":1215,"port":1216,"unt":1217,"ja":1218,"En":1219,"aix":1220,"ria":1221,"na":1222,"esc":1223,"iu":1224,"201":1225,"dis":1226,"ess":1227,"oci":1228,"seu":1229,"ge":1230,"mar":1231,"atal":1232,"bl":1233,"tin":1234,"ura":1235,"han":1236,"entre":1237,"ques":1238,"ón":1239,"um":1240,"eg":1241,"bre":1242,"comp":1243,"fa":1244,"ti":1245,"ven":1246,"cion":1247,"Es":1248,"Per":1249,"molt":1250,"què":1251,"cl":1252,"ambé":1253,"pers":1254,"tem":1255,"cre":1256,"ure":1257,"ina":1258,"vis":1259,"seg":1260,"dre":1261,"00":1262,"tat":1263,"ga":1264,"co":1265,"van":1266,"obre":1267,"ill":1268,"nos":1269,"pe":1270,"seva":1271,"cap":1272,"ió":1273,"cel":1274,"der":1275,"tes":1276,"esta":1277,"ics":1278,"int":1279,"dia":1280,"però":1281,"cas":1282,"ones":1283,"sen":1284,"ni":1285,"ana":1286,"aquesta":1287,"itu":1288,"cos":1289,"inter":1290,"sobre":1291,"també":1292,"19":1293,"ran":1294,"af":1295,"prim":1296,"ora":1297,"ps":1298,"Al":1299,"alitz":1300,"mes":1301,"ib":1302,"id":1303,"ho":1304,"tar":1305,"ants":1306,"uny":1307,"itats":1308,"segu":1309,"ener":1310,"eb":1311,"ju":1312,"anys":1313,"fin":1314,"ject":1315,"cal":1316,"ro":1317,"nom":1318,"pot":1319,"qui":1320,"ves":1321,"In":1322,"bar":1323,"ça":1324,"cor":1325,"cons":1326,"col":1327,"min":1328,"pass":1329,"pu":1330,"vers":1331,"au":1332,"pol":1333,"pel":1334,"altres":1335,"ers":1336,"sió":1337,"fic":1338,"ord":1339,"can":1340,"cies":1341,"orn":1342,"men":1343,"alitat":1344,"Mar":1345,"up":1346,"Bar":1347,"Com":1348,"arà":1349,"alment":1350,"dir":1351,"don":1352,"Els":1353,"àn":1354,"són":1355,"ult":1356,"soci":1357,"present":1358,"Catal":1359,"ep":1360,"ís":1361,"iva":1362,"form":1363,"gut":1364,"eu":1365,"its":1366,"mo":1367,"cer":1368,"sol":1369,"treb":1370,"ag":1371,"mb":1372,"esp":1373,"ista":1374,"fins":1375,"icip":1376,"uns":1377,"fet":1378,"cat":1379,"ador":1380,"alg":1381,"igu":1382,"pla":1383,"leg":1384,"rà":1385,"rer":1386,"Aqu":1387,"av":1388,"dur":1389,"estat":1390,"No":1391,"og":1392,"tant":1393,"tic":1394,"ed":1395,"prés":1396,"perquè":1397,"lli":1398,"trob":1399,"ori":1400,"reg":1401,"ara":1402,"cr":1403,"qual":1404,"ès":1405,"mateix":1406,"amp":1407,"atge":1408,"jo":1409,"dem":1410,"dent":1411,"An":1412,"\".":1413,"ita":1414,"Qu":1415,"entr":1416,"urs":1417,"via":1418,"unya":1419,"dar":1420,"Un":1421,"iment":1422,"...":1423,"junt":1424,"ús":1425,"pen":1426,"ciut":1427,"Catalunya":1428,"),":1429,"aris":1430,"Sant":1431,"ola":1432,"resp":1433,"blic":1434,"ort":1435,").":1436,"arri":1437,"mill":1438,"cu":1439,"està":1440,"té":1441,"Barcel":1442,"val":1443,"ES":1444,"aut":1445,"tica":1446,"deix":1447,"he":1448,"tots":1449,"gan":1450,"gui":1451,"fici":1452,"això":1453,"prof":1454,"Barcelona":1455,"persones":1456,"op":1457,"istes":1458,"ín":1459,"dic":1460,"ició":1461,"gran":1462,"mi":1463,"ior":1464,"difer":1465,"quan":1466,"actu":1467,"ing":1468,"ges":1469,"dos":1470,"enci":1471,"ella":1472,"produ":1473,"\",":1474,"Ar":1475,"estr":1476,"tract":1477,"Les":1478,"pi":1479,"sa":1480,"seus":1481,"treball":1482,"Est":1483,"òria":1484,"rect":1485,"met":1486,"anya":1487,"cada":1488,"plic":1489,"cara":1490,"sense":1491,"tan":1492,"ement":1493,"inci":1494,"ària":1495,"forma":1496,"ius":1497,"cional":1498,"lloc":1499,"vern":1500,"isme":1501,"mal":1502,"formació":1503,"Re":1504,"sent":1505,"ont":1506,"cció":1507,"ble":1508,"10":1509,"sab":1510,"gener":1511,"sal":1512,"lació":1513,"després":1514,"ne":1515,"ecess":1516,"ells":1517,"mit":1518,"alla":1519,"ars":1520,"Jo":1521,"pat":1522,"catal":1523,"necess":1524,"ban":1525,"pú":1526,"nat":1527,"Des":1528,"lab":1529,"lla":1530,"durant":1531,"activ":1532,"ofer":1533,"ema":1534,"gram":1535,"pren":1536,"ilitat":1537,"fe":1538,"ures":1539,"bé":1540,"art":1541,"project":1542,"juntament":1543,"sem":1544,"ies":1545,"contin":1546,"edi":1547,"serve":1548,"Con":1549,"overn":1550,"amí":1551,"ben":1552,"vant":1553,"De":1554,"onal":1555,"hab":1556,"lo":1557,"empres":1558,"tenir":1559,"polí":1560,"gar":1561,"200":1562,"manera":1563,"només":1564,"tru":1565,"itar":1566,"mun":1567,"fr":1568,"cin":1569,"millor":1570,"set":1571,"ili":1572,"lu":1573,"inst":1574,"ber":1575,"primer":1576,"br":1577,"ena":1578,"veg":1579,"mà":1580,"hom":1581,"agr":1582,"ER":1583,"ple":1584,"mer":1585,"ou":1586,"ba":1587,"ces":1588,"fun":1589,"inf":1590,"sos":1591,"temps":1592,"adors":1593,"pet":1594,"ilitz":1595,"hem":1596,"cil":1597,"18":1598,"eixen":1599,"curs":1600,"torn":1601,"pas":1602,"hist":1603,"ores":1604,"loc":1605,"labor":1606,"able":1607,"comen":1608,"ències":1609,"unes":1610,"trans":1611,"ida":1612,"proc":1613,"Car":1614,"vida":1615,"organ":1616,"Aquest":1617,"aca":1618,"and":1619,"possi":1620,"pob":1621,"sin":1622,"equi":1623,"situ":1624,"jar":1625,"tim":1626,"fi":1627,"comun":1628,"gent":1629,"acions":1630,"poder":1631,"lle":1632,"mana":1633,"veure":1634,"ren":1635,"atre":1636,"contra":1637,"davant":1638,"nou":1639,"15":1640,"vos":1641,"acc":1642,"encara":1643,"així":1644,"oment":1645,"import":1646,"contr":1647,"uro":1648,"havia":1649,"cla":1650,"És":1651,"direct":1652,"ital":1653,"ries":1654,"ciutat":1655,"embre":1656,"peci":1657,"30":1658,"12":1659,"diferents":1660,"inici":1661,"oni":1662,"udi":1663,"var":1664,"dit":1665,"dat":1666,"Cons":1667,"ular":1668,"prot":1669,"pod":1670,"xa":1671,"jor":1672,"mica":1673,"21":1674,"íst":1675,"lar":1676,"sor":1677,"vin":1678,"ap":1679,"ui":1680,"tal":1681,"rit":1682,"gi":1683,"Si":1684,"to":1685,"Di":1686,"Tot":1687,"program":1688,"organitz":1689,"DE":1690,"aquests":1691,"Cas":1692,"peri":1693,"prom":1694,"totes":1695,"elec":1696,"essi":1697,"ire":1698,"ural":1699,"Par":1700,"às":1701,"lat":1702,"oll":1703,"divers":1704,"Pr":1705,"espa":1706,"haur":1707,"osa":1708,"ctu":1709,"especi":1710,"ines":1711,"municip":1712,"ives":1713,"mitj":1714,"princi":1715,"àr":1716,"primera":1717,"canvi":1718,"bat":1719,"dest":1720,"estar":1721,"mant":1722,"ull":1723,"object":1724,"Pu":1725,"òn":1726,"çar":1727,"sub":1728,"poden":1729,"posar":1730,"cs":1731,"etat":1732,"ys":1733,"....":1734,"lí":1735,"apar":1736,"envol":1737,"ota":1738,"passat":1739,"eta":1740,"mos":1741,"Aix":1742,"ober":1743,"porta":1744,"món":1745,"Una":1746,"ef":1747,"sim":1748,"seves":1749,"realitz":1750,"erra":1751,"nes":1752,"ixer":1753,"ion":1754,"plant":1755,"sempre":1756,"nova":1757,"donar":1758,"èc":1759,"partir":1760,"dies":1761,"Ajuntament":1762,"úl":1763,"dues":1764,"nov":1765,"ien":1766,"xim":1767,"17":1768,"seguir":1769,"Amb":1770,"Val":1771,"moment":1772,"camp":1773,"altra":1774,"deci":1775,"cri":1776,"vir":1777,"presi":1778,"particip":1779,"reb":1780,"if":1781,"cult":1782,"ub":1783,"do":1784,"mis":1785,"projecte":1786,"posició":1787,"acon":1788,"err":1789,"anar":1790,"14":1791,"CA":1792,"equip":1793,"EN":1794,"elles":1795,"olog":1796,"CO":1797,"coneix":1798,"continu":1799,"mot":1800,"tí":1801,"cant":1802,"000":1803,"prob":1804,"seny":1805,"informació":1806,"esper":1807,"pens":1808,"cent":1809,"atges":1810,"trav":1811,"econ":1812,"qü":1813,"Gener":1814,"utilitz":1815,"11":1816,"od":1817,"govern":1818,"ch":1819,"tenen":1820,"Sal":1821,"super":1822,"lect":1823,"tu":1824,"los":1825,"grà":1826,"tor":1827,"social":1828,"vest":1829,"ions":1830,"depen":1831,"reu":1832,"CI":1833,"llar":1834,"hores":1835,"of":1836,"aquestes":1837,"ecte":1838,"ució":1839,"espany":1840,"LA":1841,"Però":1842,"avi":1843,"cosa":1844,"ocu":1845,"estan":1846,"din":1847,"gl":1848,"incl":1849,"nostre":1850,"aju":1851,"fot":1852,"casa":1853,"princip":1854,"gat":1855,"edu":1856,"16":1857,"ric":1858,"istr":1859,"nostra":1860,"dor":1861,"guany":1862,"Esp":1863,"13":1864,"punt":1865,"propos":1866,"àct":1867,"rela":1868,"eny":1869,"major":1870,"ide":1871,"tir":1872,"Jos":1873,"ger":1874,"ient":1875,"clar":1876,"lia":1877,"aran":1878,"TA":1879,"aments":1880,"bres":1881,"grup":1882,"obr":1883,"sig":1884,"assa":1885,"Fran":1886,"alt":1887,"ev":1888,"product":1889,"fil":1890,"pels":1891,"guin":1892,"través":1893,"celeb":1894,"gest":1895,"sist":1896,"abans":1897,"Gu":1898,"eri":1899,"dades":1900,"veu":1901,"últim":1902,"company":1903,"tell":1904,"ún":1905,"hora":1906,"neg":1907,"sigui":1908,"voc":1909,"nacional":1910,"fon":1911,"desenvol":1912,"fica":1913,"paci":1914,"gen":1915,"arribar":1916,"deu":1917,"22":1918,"tel":1919,"altre":1920,"uts":1921,"poc":1922,"famí":1923,"permet":1924,"graf":1925,"estudi":1926,"tri":1927,"dins":1928,"coment":1929,"sevol":1930,"ància":1931,"escol":1932,"grat":1933,"public":1934,"RA":1935,"final":1936,"ava":1937,"Vi":1938,"vaig":1939,"òg":1940,"plica":1941,"banda":1942,"anç":1943,"mir":1944,"tota":1945,"constru":1946,"ctor":1947,"Ma":1948,"ós":1949,"segur":1950,"alum":1951,"ce":1952,"web":1953,"eur":1954,"represent":1955,"xar":1956,"und":1957,"nostres":1958,"baix":1959,"Pro":1960,"ww":1961,"conf":1962,"haver":1963,"As":1964,"egu":1965,"partit":1966,"Cal":1967,"comple":1968,"probl":1969,"25":1970,"lament":1971,"tip":1972,"apro":1973,"serà":1974,"qualsevol":1975,"post":1976,"Co":1977,"També":1978,"serveis":1979,"resta":1980,"vent":1981,"def":1982,"menys":1983,"so":1984,"pes":1985,"refer":1986,"mic":1987,"deman":1988,"tiques":1989,"acte":1990,"ols":1991,"asc":1992,"blica":1993,"explic":1994,"semb":1995,"segons":1996,"tall":1997,"unts":1998,"obli":1999,"Aquesta":2000,"erci":2001,"Joan":2002,"cep":2003,"diu":2004,"!!":2005,"jus":2006,"trobar":2007,"tics":2008,"instal":2009,"exem":2010,"onals":2011,"Uni":2012,"fut":2013,"euros":2014,"bus":2015,"pul":2016,"bon":2017,"molts":2018,"sions":2019,"èr":2020,"bona":2021,"activitats":2022,"mor":2023,"bo":2024,"rat":2025,"servei":2026,"tempor":2027,"història":2028,"format":2029,"cop":2030,"públic":2031,"Euro":2032,"escri":2033,"Ser":2034,"igua":2035,"president":2036,"aquí":2037,"consi":2038,"anes":2039,"èixer":2040,"Em":2041,"ril":2042,"setmana":2043,"mem":2044,"bas":2045,"put":2046,"nor":2047,"II":2048,"desc":2049,"mon":2050,"Inter":2051,"ost":2052,"iques":2053,"hot":2054,"dona":2055,"uï":2056,"alguns":2057,"treballa":2058,"ns":2059,"ses":2060,"Seg":2061,"Ll":2062,"emes":2063,"possible":2064,"cur":2065,"prò":2066,"ologia":2067,"ind":2068,"vegada":2069,"respons":2070,"espai":2071,"net":2072,"Ci":2073,"ext":2074,"ira":2075,"termin":2076,"iments":2077,"acord":2078,"Ex":2079,"fan":2080,"econò":2081,"abl":2082,"ativa":2083,"tur":2084,"professi":2085,"àries":2086,"país":2087,"ref":2088,"ví":2089,"AL":2090,"vista":2091,"ula":2092,"rag":2093,"illa":2094,"important":2095,"tipus":2096,"alta":2097,"centr":2098,"oria":2099,"centre":2100,"trad":2101,"posa":2102,"cació":2103,"aigua":2104,"úsica":2105,"Man":2106,"unci":2107,"cul":2108,"avui":2109,"EL":2110,"Espanya":2111,"sort":2112,"niv":2113,"eres":2114,"propi":2115,"uper":2116,"medi":2117,"ciutad":2118,"clas":2119,"Can":2120,"ht":2121,"cam":2122,"llen":2123,"cont":2124,"ru":2125,"suport":2126,"bu":2127,"far":2128,"iter":2129,"2019":2130,"fam":2131,"AR":2132,"bi":2133,"grans":2134,"ecció":2135,"ocument":2136,"OR":2137,"ctubre":2138,"acció":2139,"fà":2140,"objectiu":2141,"oper":2142,"empresa":2143,"dres":2144,"eria":2145,"mil":2146,"sinó":2147,"not":2148,"ordin":2149,"Lle":2150,"rig":2151,"alització":2152,"cert":2153,"AN":2154,"indepen":2155,"ON":2156,"sí":2157,"situació":2158,"san":2159,"conver":2160,"Així":2161,"Gir":2162,"programa":2163,"Pla":2164,"tro":2165,"ograf":2166,"posit":2167,"obra":2168,"manten":2169,"visió":2170,"50":2171,"const":2172,"llibre":2173,"català":2174,"24":2175,"ofereix":2176,"interess":2177,"vot":2178,"ris":2179,"carrer":2180,"comunic":2181,"hu":2182,"procés":2183,"IN":2184,"pt":2185,"sistema":2186,"Ju":2187,"coses":2188,"ard":2189,"lleg":2190,"dones":2191,"án":2192,"ual":2193,"ficació":2194,"Generalitat":2195,"fran":2196,"condi":2197,"Ro":2198,"autor":2199,"23":2200,"tèc":2201,"isi":2202,"RE":2203,"Univers":2204,"passar":2205,"dència":2206,"òr":2207,"defens":2208,"Pol":2209,"prendre":2210,"ía":2211,"mans":2212,"bles":2213,"lici":2214,"quals":2215,"ima":2216,"gau":2217,"drà":2218,"bol":2219,"desenvolup":2220,"Tr":2221,"cli":2222,"2018":2223,"general":2224,"vestig":2225,"uni":2226,"moltes":2227,"obert":2228,"compet":2229,"valor":2230,"dig":2231,"començar":2232,"Va":2233,"Col":2234,"Josep":2235,"quen":2236,"vist":2237,"activitat":2238,"retat":2239,"artic":2240,"política":2241,"document":2242,"ible":2243,"Pa":2244,"zona":2245,"defin":2246,"ordi":2247,"prop":2248,"gia":2249,"ològ":2250,"2020":2251,"ine":2252,"caus":2253,"lacions":2254,"cis":2255,"som":2256,"Or":2257,"ano":2258,"PS":2259,"afect":2260,"espanyol":2261,"meu":2262,"vam":2263,"experi":2264,"Mont":2265,"usu":2266,"2017":2267,"vor":2268,"àg":2269,"quer":2270,"fem":2271,"ites":2272,"Tor":2273,"octubre":2274,"unta":2275,"preg":2276,"càr":2277,"Pal":2278,"estru":2279,"terme":2280,"ero":2281,"quatre":2282,"obrir":2283,"orig":2284,"ug":2285,"mesos":2286,"mai":2287,"inar":2288,"conèixer":2289,"adora":2290,"mentre":2291,"empreses":2292,"arr":2293,"ret":2294,"osp":2295,"exemple":2296,"òs":2297,"respon":2298,"espect":2299,"Soci":2300,"anim":2301,"ani":2302,"aten":2303,"record":2304,"ministr":2305,"llarg":2306,"Després":2307,"lex":2308,"ança":2309,"person":2310,"celebr":2311,"pràct":2312,"xes":2313,"Consell":2314,"alcal":2315,"personal":2316,"Hi":2317,"fàcil":2318,"Govern":2319,"compl":2320,"dors":2321,"març":2322,"persona":2323,"tracta":2324,"Estat":2325,"ofici":2326,"aconseguir":2327,"gua":2328,"Pre":2329,"poble":2330,"mateixa":2331,"TI":2332,"capaci":2333,"fí":2334,"reun":2335,"ala":2336,"Girona":2337,"cret":2338,"Jordi":2339,"unitat":2340,"urant":2341,"cula":2342,"ritori":2343,"vic":2344,"compte":2345,"socials":2346,"bilitat":2347,"conta":2348,"regu":2349,"aplic":2350,"sentit":2351,"joc":2352,"esport":2353,"cir":2354,"assist":2355,"maig":2356,"tembre":2357,"cad":2358,"afeg":2359,"setembre":2360,"pon":2361,"resul":2362,"exist":2363,"cle":2364,"enten":2365,"2015":2366,"ectes":2367,"investig":2368,"recor":2369,"qualitat":2370,"nivell":2371,"tec":2372,"dret":2373,"rom":2374,"edició":2375,"//":2376,"hotel":2377,"eca":2378,"posta":2379,"ils":2380,"gru":2381,"llu":2382,"quant":2383,"accés":2384,"escola":2385,"las":2386,"ements":2387,"tenim":2388,"deixar":2389,"27":2390,"música":2391,"mig":2392,"tingut":2393,"juny":2394,"rid":2395,"veï":2396,"alguna":2397,"fent":2398,"família":2399,"dom":2400,"irà":2401,"Mo":2402,"podem":2403,"obres":2404,"Quan":2405,"àmb":2406,"Fer":2407,"jorn":2408,"vul":2409,"dents":2410,"ama":2411,"fest":2412,"Vall":2413,"ez":2414,"feb":2415,"omia":2416,"proper":2417,"tren":2418,"28":2419,"sembla":2420,"26":2421,"mus":2422,"ultats":2423,"munt":2424,"manif":2425,"alumnes":2426,"àl":2427,"total":2428,"ables":2429,"liol":2430,"portar":2431,"relació":2432,"gin":2433,"redu":2434,"oses":2435,"abril":2436,"materi":2437,"tornar":2438,"mili":2439,"Po":2440,"ado":2441,"punts":2442,"ització":2443,"pia":2444,"assegur":2445,"nosaltres":2446,"tas":2447,"dol":2448,"Mol":2449,"nit":2450,"2016":2451,"osos":2452,"her":2453,"tegr":2454,"partici":2455,"gaire":2456,"diversos":2457,"ficar":2458,"son":2459,"sat":2460,"força":2461,"199":2462,"seguretat":2463,"establ":2464,"fons":2465,"lín":2466,"quil":2467,"essor":2468,"prepar":2469,"ale":2470,"aug":2471,"ocup":2472,"gestió":2473,"garant":2474,"acabar":2475,"mob":2476,"segona":2477,"estruct":2478,"Cor":2479,"trib":2480,"IS":2481,"milions":2482,"esde":2483,"terior":2484,"htt":2485,"societat":2486,"IA":2487,"://":2488,"èx":2489,"laboració":2490,"ival":2491,"parau":2492,"algunes":2493,"ços":2494,"vo":2495,"Tar":2496,"vat":2497,"iga":2498,"fill":2499,"Ara":2500,"intent":2501,"2021":2502,"noves":2503,"diverses":2504,"cen":2505,"segü":2506,"Mun":2507,"tit":2508,"corpor":2509,"sector":2510,"cot":2511,"jug":2512,"ata":2513,"mort":2514,"feina":2515,"augment":2516,"rera":2517,"Ja":2518,"dirig":2519,"alitzar":2520,"........":2521,"sabte":2522,"recuper":2523,"lies":2524,"Ad":2525,"tècn":2526,"40":2527,"ambient":2528,"rel":2529,"drets":2530,"Ant":2531,"quin":2532,"consider":2533,"Universitat":2534,"càrrec":2535,"rem":2536,"nú":2537,"vint":2538,"omen":2539,"igual":2540,"aria":2541,"nous":2542,"usió":2543,"gaudir":2544,"gues":2545,"tenia":2546,"funcion":2547,"fre":2548,"indic":2549,"Mad":2550,"Su":2551,"compr":2552,"inació":2553,"màxim":2554,"volunt":2555,"ficat":2556,"novembre":2557,"tras":2558,"ibli":2559,"camí":2560,"actual":2561,"29":2562,"segle":2563,"Public":2564,"rim":2565,"estim":2566,"ds":2567,"aconsegu":2568,"metres":2569,"joves":2570,"bal":2571,"disseny":2572,"efici":2573,"especial":2574,"vegades":2575,"destac":2576,"seua":2577,"ets":2578,"Gar":2579,"Ra":2580,"sota":2581,"juliol":2582,"Cult":2583,"Rec":2584,"eren":2585,"febrer":2586,"icia":2587,"Maria":2588,"vien":2589,"segon":2590,"teu":2591,"local":2592,"acompany":2593,"recurs":2594,"».":2595,"Mat":2596,"àst":2597,"territori":2598,"favor":2599,"Centre":2600,"anc":2601,"ística":2602,"umen":2603,"explica":2604,"coneixement":2605,"esa":2606,"sum":2607,"productes":2608,"PA":2609,"expres":2610,"projectes":2611,"itació":2612,"majoria":2613,"fos":2614,"gràcies":2615,"experiència":2616,"asp":2617,"divi":2618,"etc":2619,"dera":2620,"dio":2621,"Sol":2622,"Ben":2623,"itut":2624,"viat":2625,"saber":2626,"Cap":2627,"formar":2628,"For":2629,"rers":2630,"abilitat":2631,"cola":2632,"Ch":2633,"ok":2634,"2014":2635,"passa":2636,"capacitat":2637,"Això":2638,"entorn":2639,"erca":2640,"venció":2641,"qüest":2642,"adal":2643,"exper":2644,"darrer":2645,"io":2646,"estava":2647,"euro":2648,"futur":2649,"dedic":2650,"go":2651,"paper":2652,"mesures":2653,"ospital":2654,"hor":2655,"peu":2656,"temporada":2657,"carreg":2658,"esqu":2659,"cinc":2660,"tol":2661,"meva":2662,"institu":2663,"Vic":2664,"pàg":2665,"univers":2666,"MA":2667,"costat":2668,"dist":2669,"ya":2670,"educat":2671,"uit":2672,"ron":2673,"Vila":2674,"grups":2675,"ze":2676,"priv":2677,"integr":2678,"recció":2679,"regid":2680,"Europa":2681,"tida":2682,"mas":2683,"àtica":2684,"espectac":2685,"conven":2686,"2012":2687,"consell":2688,"PP":2689,"home":2690,"rep":2691,"urals":2692,"viure":2693,"entitats":2694,"edifici":2695,"aprof":2696,"cionals":2697,"bil":2698,"director":2699,"famili":2700,"Castell":2701,"atura":2702,"posat":2703,"sobretot":2704,"gas":2705,"icions":2706,"realitat":2707,"VI":2708,"avan":2709,"èm":2710,"text":2711,"catalana":2712,"Edu":2713,"Inst":2714,"Mon":2715,"òl":2716,"ïsos":2717,"acter":2718,"icament":2719,"algun":2720,"Mu":2721,"facil":2722,"íem":2723,"servir":2724,"Ciut":2725,"desembre":2726,"contract":2727,"www":2728,"ments":2729,"negoci":2730,"cultura":2731,"entrada":2732,"municipal":2733,"Mas":2734,"Mi":2735,"Pres":2736,"dr":2737,"Ber":2738,"ografia":2739,"ançant":2740,"oport":2741,"Te":2742,"tecn":2743,"hir":2744,"salut":2745,"agon":2746,"comprom":2747,"afir":2748,"Ha":2749,"ade":2750,"llum":2751,"contact":2752,"poca":2753,"línia":2754,"rea":2755,"ibliot":2756,"UN":2757,"anter":2758,"control":2759,"atiu":2760,"2013":2761,"allò":2762,"nens":2763,"determin":2764,"Madrid":2765,"pis":2766,"Ter":2767,"pública":2768,"çat":2769,"Gr":2770,"treballar":2771,"Na":2772,"demos":2773,"',":2774,"fora":2775,"Ve":2776,"Camp":2777,"València":2778,"Reg":2779,"viol":2780,"partits":2781,"participar":2782,"ït":2783,"2011":2784,"desenvolupament":2785,"etes":2786,"hauria":2787,"versió":2788,"egut":2789,"agrada":2790,"jat":2791,"udis":2792,"mu":2793,"LL":2794,"impul":2795,"marc":2796,"independent":2797,"àtic":2798,"oma":2799,"nu":2800,"Segons":2801,"gència":2802,"conjunt":2803,"dissabte":2804,"plaça":2805,"Tarrag":2806,"ania":2807,"problemes":2808,"bot":2809,"terra":2810,"població":2811,"hum":2812,"ner":2813,"vell":2814,"CE":2815,"uen":2816,"respecte":2817,"estiu":2818,"diumen":2819,"àm":2820,"partament":2821,"guts":2822,"electr":2823,"professionals":2824,"Gran":2825,"parlar":2826,"dub":2827,"haurà":2828,"anterior":2829,"diven":2830,"educació":2831,"DA":2832,"matí":2833,"crear":2834,"divendres":2835,"casos":2836,"atenció":2837,"ocrà":2838,"ical":2839,"consum":2840,"lliure":2841,"participació":2842,"presentar":2843,"gués":2844,"bert":2845,"campanya":2846,"minuts":2847,"The":2848,"cò":2849,"iden":2850,"atives":2851,"Dis":2852,"creix":2853,"hagi":2854,"mov":2855,"lim":2856,"fort":2857,"rob":2858,"comar":2859,"valenci":2860,"model":2861,"be":2862,"trar":2863,"let":2864,"mitjançant":2865,"Santa":2866,"essos":2867,"ivament":2868,"havien":2869,"conse":2870,"crip":2871,"Tarragona":2872,"Mos":2873,"tema":2874,"àmbit":2875,"judi":2876,"adament":2877,"vocat":2878,"massa":2879,"premi":2880,"vació":2881,"Fin":2882,"cost":2883,"ístiques":2884,"comunicació":2885,"protagon":2886,"relacion":2887,"real":2888,"exerci":2889,"infant":2890,"gra":2891,"rimoni":2892,"cient":2893,"Lli":2894,"2010":2895,"deo":2896,"article":2897,"Mer":2898,"UP":2899,"perf":2900,"podria":2901,"signi":2902,"aquell":2903,"castell":2904,"100":2905,"Fund":2906,"conn":2907,"tera":2908,"resol":2909,"OS":2910,"centres":2911,"60":2912,"enta":2913,"Més":2914,"base":2915,"mostra":2916,"associ":2917,"nen":2918,"doncs":2919,"jous":2920,"gir":2921,"ides":2922,"Le":2923,"pag":2924,"prem":2925,"espais":2926,"diumenge":2927,"Actu":2928,"evitar":2929,"atur":2930,"itari":2931,"guer":2932,"tothom":2933,"cial":2934,"troba":2935,"Av":2936,"fl":2937,"det":2938,"promo":2939,"comerci":2940,"causa":2941,"Antoni":2942,"dó":2943,"front":2944,"llei":2945,"consul":2946,"sortir":2947,"sis":2948,"trat":2949,"niques":2950,"natural":2951,"dell":2952,"conegu":2953,"serv":2954,"quel":2955,"recom":2956,"problema":2957,"expl":2958,"Publicat":2959,"fact":2960,"estrat":2961,"condicions":2962,"foc":2963,"millorar":2964,"ccions":2965,"oral":2966,"administr":2967,"Serve":2968,"sè":2969,"mantenir":2970,"31":2971,"Durant":2972,"gn":2973,"tran":2974,"plat":2975,"aga":2976,"fant":2977,"jornada":2978,"Fundació":2979,"Puig":2980,"esdeven":2981,"pop":2982,"podrà":2983,"principal":2984,"eli":2985,"queda":2986,"»,":2987,"anomen":2988,"uració":2989,"recursos":2990,"alcalde":2991,"teri":2992,"formes":2993,"ros":2994,"tele":2995,"famílies":2996,"80":2997,"estem":2998,"aquells":2999,"comentari":3000,"explicar":3001,"sar":3002,"mitjans":3003,"llengua":3004,"jut":3005,"caracter":3006,"Am":3007,"za":3008,"alter":3009,"aliment":3010,"tram":3011,"Ca":3012,"vid":3013,"arrib":3014,"realitzar":3015,"--":3016,"eleccions":3017,"ícies":3018,"Pere":3019,"inat":3020,"Entre":3021,"pal":3022,"molta":3023,"èmia":3024,"ètica":3025,"llocs":3026,"Que":3027,"moder":3028,"producció":3029,"glés":3030,"xe":3031,"èg":3032,"Cer":3033,"Escola":3034,"especialment":3035,"edit":3036,"lida":3037,"llibres":3038,"vors":3039,"incorpor":3040,"proposta":3041,"construcció":3042,"09":3043,"imatge":3044,"amor":3045,"rie":3046,"ocas":3047,"prenent":3048,"farà":3049,"Pl":3050,"organització":3051,"dial":3052,"mercat":3053,"Ram":3054,"gairebé":3055,"ere":3056,"llà":3057,"San":3058,"Lleida":3059,"Prim":3060,"liter":3061,"just":3062,"ning":3063,"vari":3064,"Sab":3065,"sur":3066,"ítica":3067,"categ":3068,"xarxa":3069,"sion":3070,"anat":3071,"accions":3072,"tria":3073,"ío":3074,"escen":3075,"quad":3076,"exec":3077,"vera":3078,"clients":3079,"aval":3080,"condu":3081,"resultats":3082,"podeu":3083,"països":3084,"toc":3085,"quina":3086,"númer":3087,"dot":3088,"ique":3089,"seria":3090,"agost":3091,"AC":3092,"MI":3093,"petit":3094,"tenció":3095,"motiu":3096,"accep":3097,"gust":3098,"festa":3099,"issió":3100,"guar":3101,"utilitzar":3102,"resultat":3103,"Institut":3104,"Ur":3105,"cut":3106,"rib":3107,"gers":3108,"crisi":3109,"cultural":3110,"correspon":3111,"anunci":3112,"Cr":3113,"selec":3114,"Llu":3115,"preu":3116,"creació":3117,"sens":3118,"bla":3119,"Cu":3120,"pan":3121,"éu":3122,"mín":3123,"estació":3124,"essin":3125,"ònica":3126,"RO":3127,"én":3128,"supost":3129,"nombre":3130,"ajudar":3131,"Inici":3132,"TS":3133,"elect":3134,"exposició":3135,"36":3136,"TE":3137,"ERC":3138,"Pas":3139,"pregunt":3140,"Bo":3141,"Lu":3142,"quedar":3143,"ivitat":3144,"icte":3145,"dill":3146,"idea":3147,"candi":3148,"estre":3149,"manes":3150,"millors":3151,"Cat":3152,"Bl":3153,"Valenci":3154,"fal":3155,"Pat":3156,"Ver":3157,"ahir":3158,"èria":3159,"enc":3160,"mec":3161,"itud":3162,"consist":3163,"paraules":3164,"Res":3165,"Not":3166,"fou":3167,"fícil":3168,"01":3169,"quit":3170,"Dia":3171,"estigu":3172,"arriba":3173,"Port":3174,"donat":3175,"comentaris":3176,"TV":3177,"DI":3178,"uals":3179,"ports":3180,"bertat":3181,"UE":3182,"ales":3183,"07":3184,"MP":3185,"mè":3186,"mò":3187,"indivi":3188,"gratuï":3189,"difícil":3190,"recerca":3191,"democrà":3192,"gel":3193,"has":3194,"pir":3195,"fig":3196,"tindrà":3197,"conegut":3198,"Pel":3199,"presa":3200,"teva":3201,"usuaris":3202,"sols":3203,"CIÓ":3204,"prou":3205,"municipi":3206,"marca":3207,"avant":3208,"benefici":3209,"òries":3210,"comb":3211,"hic":3212,"incre":3213,"estes":3214,"creu":3215,"vostra":3216,"dilluns":3217,"confi":3218,"actes":3219,"rebut":3220,"Parlament":3221,"polític":3222,"origin":3223,"potser":3224,"habitat":3225,"principals":3226,"itària":3227,"SA":3228,"che":3229,"fra":3230,"primers":3231,"cament":3232,"internacional":3233,"entren":3234,"Ri":3235,"instru":3236,"catalans":3237,"constitu":3238,"pit":3239,"èl":3240,"alitzat":3241,"mare":3242,"següent":3243,"asi":3244,"interpre":3245,"respect":3246,"sèrie":3247,"aire":3248,"ór":3249,"etats":3250,"edat":3251,"jament":3252,"pic":3253,"the":3254,"reser":3255,"pugui":3256,"modi":3257,"necessitat":3258,"parl":3259,"Associ":3260,"ajuda":3261,"classe":3262,"itants":3263,"45":3264,"198":3265,"pressió":3266,"volució":3267,"fets":3268,"habitu":3269,"bos":3270,"ònic":3271,"defensa":3272,"adequ":3273,"espec":3274,"membres":3275,"vall":3276,"itzar":3277,"solu":3278,"polítics":3279,"imp":3280,"rent":3281,"itacions":3282,"locals":3283,"Nacional":3284,"compta":3285,"presentació":3286,"sus":3287,"Fa":3288,"pressupost":3289,"polítiques":3290,"sortida":3291,"dijous":3292,"plante":3293,"barri":3294,"subst":3295,"inclou":3296,"falta":3297,"fron":3298,"iblioteca":3299,"03":3300,"EU":3301,"capa":3302,"èxit":3303,"gèn":3304,"decidir":3305,"terr":3306,"resposta":3307,"glésia":3308,"nord":3309,"org":3310,"Del":3311,"exig":3312,"tarda":3313,"05":3314,"entitat":3315,"presència":3316,"sessió":3317,"Jau":3318,"club":3319,"Fe":3320,"declar":3321,"ik":3322,"para":3323,"allot":3324,"elements":3325,"forç":3326,"Jaume":3327,"imatges":3328,"ilar":3329,"Ab":3330,"Avui":3331,"orca":3332,"197":3333,"diferent":3334,"atra":3335,"grés":3336,"reflex":3337,"trà":3338,"fís":3339,"bàs":3340,"extre":3341,"ollir":3342,"istre":3343,"identi":3344,"08":3345,"jur":3346,"arem":3347,"blics":3348,"vehic":3349,"titu":3350,"interior":3351,"feia":3352,"dut":3353,"material":3354,"pant":3355,"minis":3356,"pare":3357,"enseny":3358,"oris":3359,"voltant":3360,"popular":3361,"06":3362,"envi":3363,"cab":3364,"marxa":3365,"Tots":3366,"diners":3367,"necessitats":3368,"trodu":3369,"fit":3370,"encial":3371,"pint":3372,"eric":3373,"ast":3374,"vel":3375,"Br":3376,"carre":3377,"General":3378,"idi":3379,"Nom":3380,"enlla":3381,"bli":3382,"propostes":3383,"direcció":3384,"propor":3385,"agrad":3386,"treballadors":3387,"definit":3388,"Vol":3389,"teix":3390,"Cultura":3391,"éixer":3392,"allar":3393,"lub":3394,"agra":3395,"funció":3396,"ls":3397,"http":3398,"comunitat":3399,"Pen":3400,"taforma":3401,"homes":3402,"infants":3403,"35":3404,"nar":3405,"ibilitat":3406,"color":3407,"mesura":3408,"explicat":3409,"nies":3410,"Social":3411,"Hospital":3412,"Sí":3413,"tractament":3414,"únic":3415,"quet":3416,"interès":3417,"tradici":3418,"quar":3419,"ini":3420,"estudis":3421,"canç":3422,"llibertat":3423,"efect":3424,"professional":3425,"Tur":3426,"èdia":3427,"ciona":3428,"crit":3429,"ampli":3430,"visita":3431,"oble":3432,"Pot":3433,"tard":3434,"pid":3435,"guda":3436,"possibilitat":3437,"públics":3438,"recep":3439,"Municip":3440,"ningú":3441,"tació":3442,"perío":3443,"Associació":3444,"XI":3445,"iran":3446,"taula":3447,"pròpia":3448,"responsable":3449,"Ne":3450,"oli":3451,"contacte":3452,"On":3453,"pec":3454,"viv":3455,"Ens":3456,"dica":3457,"ciutadans":3458,"veïns":3459,"Don":3460,"entrar":3461,"participants":3462,"desenvolu":3463,"evi":3464,"lada":3465,"intel":3466,"petits":3467,"equips":3468,"obtenir":3469,"presenta":3470,"sembl":3471,"cera":3472,"diput":3473,"pogut":3474,"vuit":3475,"ixa":3476,"ampoc":3477,"Mal":3478,"gol":3479,"pares":3480,"guerra":3481,"íssim":3482,"ístic":3483,"RI":3484,"pensar":3485,"ibles":3486,"lus":3487,"canvis":3488,"itant":3489,"plement":3490,"puguin":3491,"ert":3492,"recla":3493,"Què":3494,"Franc":3495,"amics":3496,"sex":3497,"risc":3498,"Espa":3499,"individu":3500,"asseny":3501,"cionar":3502,"debat":3503,"concep":3504,"època":3505,"número":3506,"Miquel":3507,"vem":3508,"referència":3509,"Grà":3510,"Ten":3511,"conseqü":3512,"Cos":3513,"prova":3514,"recol":3515,"jove":3516,"metre":3517,"econòmica":3518,"Pau":3519,"pect":3520,"volem":3521,"capital":3522,"Go":3523,"ident":3524,"tats":3525,"circ":3526,"iem":3527,"canviar":3528,"oberta":3529,"dra":3530,"menjar":3531,"virus":3532,"mínim":3533,"dific":3534,"sala":3535,"Xavi":3536,"endavant":3537,"guen":3538,"comença":3539,"iniciativa":3540,"Club":3541,"forme":3542,"ach":3543,"lícula":3544,"04":3545,"candidat":3546,"seran":3547,"segueix":3548,"adores":3549,"SE":3550,"Sem":3551,"cina":3552,"pea":3553,"rebre":3554,"ino":3555,"urg":3556,"consci":3557,"Pos":3558,"excl":3559,"miques":3560,"'.":3561,"única":3562,"hon":3563,"França":3564,"Ho":3565,"professor":3566,"demanar":3567,"mena":3568,"cus":3569,"viatge":3570,"clara":3571,"entendre":3572,"moviment":3573,"Segu":3574,"icació":3575,"riu":3576,"ícia":3577,"OL":3578,"Ob":3579,"quis":3580,"foto":3581,"pleg":3582,"omb":3583,"hib":3584,"importants":3585,"Aut":3586,"Men":3587,"temes":3588,"actuació":3589,"Salut":3590,"Part":3591,"necessit":3592,"econòmic":3593,"convertir":3594,"Educació":3595,"llavors":3596,"municipals":3597,"pròxim":3598,"ocupació":3599,"Rib":3600,"José":3601,"familiar":3602,"violència":3603,"Se":3604,"Sa":3605,"americ":3606,"edir":3607,"enda":3608,"idar":3609,"ífic":3610,"parla":3611,"fills":3612,"gre":3613,"senz":3614,"pli":3615,"introdu":3616,"oments":3617,"ània":3618,"Im":3619,"ferència":3620,"aplicació":3621,"satis":3622,"Cl":3623,"pil":3624,"dispon":3625,"Alg":3626,"lluita":3627,"guanyar":3628,"Veure":3629,"til":3630,"companyia":3631,"AM":3632,"SI":3633,"amar":3634,"pàgina":3635,"enllà":3636,"dimec":3637,"dimecres":3638,"sob":3639,"obser":3640,"Catalana":3641,"Bat":3642,"imag":3643,"viu":3644,"dreta":3645,"dal":3646,"amunt":3647,"resid":3648,"dóna":3649,"urar":3650,"assum":3651,"oferir":3652,"mul":3653,"llista":3654,"algú":3655,"protecció":3656,"Cre":3657,"Mor":3658,"ües":3659,"quir":3660,"clau":3661,"fotos":3662,"02":3663,"veritat":3664,"millora":3665,"compar":3666,"caràct":3667,"superior":3668,"lles":3669,"Art":3670,"novel":3671,"Sen":3672,"adap":3673,"pots":3674,"opció":3675,"mació":3676,"coordin":3677,"2008":3678,"pràctica":3679,"erç":3680,"ates":3681,"legis":3682,"ajuntament":3683,"bloc":3684,"confir":3685,"pert":3686,"sec":3687,"Ros":3688,"Museu":3689,"acaba":3690,"període":3691,"malalt":3692,"proteg":3693,"Set":3694,"assol":3695,"Andor":3696,"Diput":3697,"adi":3698,"distrib":3699,"marts":3700,"sosten":3701,"espanyola":3702,"xarxes":3703,"dimarts":3704,"tercer":3705,"excep":3706,"partic":3707,"by":3708,"tron":3709,"anta":3710,"ològic":3711,"vet":3712,"conser":3713,"tícia":3714,"moments":3715,"venir":3716,"inada":3717,"concert":3718,"fonament":3719,"cie":3720,"uda":3721,"33":3722,"siguin":3723,"origen":3724,"cadasc":3725,"DES":3726,"imes":3727,"concurs":3728,"Internacional":3729,"Déu":3730,"dí":3731,"pin":3732,"acus":3733,"malgrat":3734,"cripció":3735,"Pi":3736,"inclo":3737,"rí":3738,"adre":3739,"dà":3740,"impres":3741,"ustri":3742,"creat":3743,"plia":3744,"cinema":3745,"òric":3746,"quantitat":3747,"traslla":3748,"cit":3749,"EC":3750,"fis":3751,"àleg":3752,"aquella":3753,"signat":3754,"ali":3755,"97":3756,"gos":3757,"increment":3758,"començ":3759,"últims":3760,"digital":3761,"esquerra":3762,"finalment":3763,"baixa":3764,"llegir":3765,"jada":3766,"uel":3767,"caràcter":3768,"bà":3769,"Diari":3770,"miss":3771,"ciutadania":3772,"demana":3773,"desit":3774,"pand":3775,"transport":3776,"extra":3777,"orial":3778,"2009":3779,"çada":3780,"Carles":3781,"allà":3782,"contrib":3783,"volen":3784,"hagut":3785,"resa":3786,"vostre":3787,"PSC":3788,"plan":3789,"preci":3790,"setmanes":3791,"títol":3792,"Francesc":3793,".\"":3794,"glob":3795,"registr":3796,"ionar":3797,"Pe":3798,"interna":3799,"sentir":3800,"crec":3801,"roc":3802,"ots":3803,"usuari":3804,"necessari":3805,"oportunitat":3806,"Andorra":3807,"diari":3808,"2007":3809,"complet":3810,"chez":3811,"Hist":3812,"Rà":3813,"zones":3814,"alitzada":3815,"cuina":3816,"vistes":3817,"NO":3818,"TES":3819,"estil":3820,"Cam":3821,"ública":3822,"elim":3823,"finals":3824,"decisió":3825,"central":3826,"gènere":3827,"futbol":3828,"Ori":3829,"importància":3830,"podran":3831,"auto":3832,"sovint":3833,"Teatre":3834,"Baix":3835,"Lla":3836,"igi":3837,"habil":3838,"convocat":3839,"escrit":3840,"economia":3841,"termini":3842,"sé":3843,"ome":3844,"objectius":3845,"Premi":3846,"sap":3847,"voluntat":3848,"avalu":3849,"secret":3850,"relacions":3851,"Hem":3852,"atac":3853,"dispos":3854,"correct":3855,"jugar":3856,"adell":3857,"deri":3858,"guem":3859,"rien":3860,"aban":3861,"actualment":3862,"cident":3863,"intens":3864,"Unió":3865,"Departament":3866,".[":3867,"aprenent":3868,"ang":3869,"carrers":3870,"BA":3871,"crim":3872,"fics":3873,"ífica":3874,"perdre":3875,"Davi":3876,"Fest":3877,"considera":3878,"Fins":3879,"enguany":3880,"estra":3881,"àrea":3882,"antic":3883,"Tel":3884,"90":3885,"vídeo":3886,"regut":3887,"torna":3888,"Ba":3889,"Nadal":3890,"ònom":3891,"correu":3892,"bliques":3893,"ordre":3894,"estres":3895,"Por":3896,"data":3897,"tinc":3898,"He":3899,"reno":3900,"planta":3901,"mac":3902,"visitar":3903,"àncies":3904,"celebrar":3905,"UR":3906,"perill":3907,"obst":3908,"suc":3909,"escriure":3910,"detall":3911,"concl":3912,"segura":3913,"oblig":3914,"IC":3915,"laboral":3916,"última":3917,"Municipal":3918,"pandèmia":3919,"contingut":3920,"aviat":3921,"estructura":3922,"relle":3923,"producte":3924,"Ciutad":3925,"deració":3926,"mateixos":3927,"VA":3928,"doc":3929,"gal":3930,"teatre":3931,"PER":3932,"ke":3933,"civ":3934,"llo":3935,"III":3936,"Fot":3937,"Són":3938,"cio":3939,"mapa":3940,"Mart":3941,"igues":3942,"connect":3943,"televisió":3944,"zar":3945,"ctors":3946,"directament":3947,"enca":3948,"iss":3949,"infantil":3950,"categoria":3951,"tampoc":3952,"energia":3953,"buscar":3954,"execut":3955,"valors":3956,"espectacle":3957,"ial":3958,"omes":3959,"wit":3960,"Diputació":3961,"trobem":3962,"continguts":3963,"qüestió":3964,"Be":3965,"realment":3966,"elabor":3967,"comod":3968,"espera":3969,"garantir":3970,"vé":3971,"unitats":3972,"estal":3973,"are":3974,"trobada":3975,"IB":3976,"ètic":3977,"alada":3978,"tasca":3979,"fab":3980,"ires":3981,"dreu":3982,"DEL":3983,"th":3984,"ràpid":3985,"migr":3986,"David":3987,"anyes":3988,"àss":3989,"animals":3990,"34":3991,"sil":3992,"patrimoni":3993,"independència":3994,"orient":3995,"arribat":3996,"investigació":3997,"vict":3998,"lectura":3999,"alar":4000,"compartir":4001,"deixen":4002,"ònia":4003,"itals":4004,"grau":4005,"musical":4006,"https":4007,"Treb":4008,"petita":4009,"essions":4010,"infer":4011,"opin":4012,"arquit":4013,"requer":4014,"podia":4015,"comptar":4016,"continuar":4017,"Finalment":4018,"ismes":4019,"desta":4020,"arx":4021,"Bale":4022,"Només":4023,"orden":4024,"escript":4025,"institucions":4026,"mics":4027,"odis":4028,"Casa":4029,"víct":4030,"encia":4031,"arreu":4032,"descobrir":4033,"[…":4034,"idors":4035,"ablement":4036,"peus":4037,"isti":4038,"ip":4039,"Act":4040,"dibu":4041,"Eti":4042,"Juan":4043,"ton":4044,"onar":4045,"oficial":4046,"experiment":4047,"equ":4048,"rup":4049,"informat":4050,"sigut":4051,"GA":4052,"compart":4053,"lectiu":4054,"rot":4055,"pagar":4056,"construir":4057,"cats":4058,"este":4059,"implic":4060,"venda":4061,"Nova":4062,"directe":4063,"ològica":4064,"fres":4065,"elèc":4066,"diver":4067,"urban":4068,"oferta":4069,"ulls":4070,"[…]":4071,"Igu":4072,"................":4073,"desenvolupar":4074,"fus":4075,"passe":4076,"positiu":4077,"Ol":4078,"lit":4079,"anda":4080,"estudiants":4081,"39":4082,"alhora":4083,"glès":4084,"reiv":4085,"Estats":4086,"escoles":4087,"Min":4088,"ories":4089,"principi":4090,"aquelles":4091,"energ":4092,"Mir":4093,"blog":4094,"deixa":4095,"reunió":4096,"continua":4097,"responsabilitat":4098,"37":4099,"Albert":4100,"cessi":4101,"500":4102,"vas":4103,"cooper":4104,"malaltia":4105,"posterior":4106,"196":4107,"habitacions":4108,"ern":4109,"premis":4110,"apareix":4111,"creixement":4112,"dè":4113,"concret":4114,"plu":4115,"fase":4116,"presentat":4117,"km":4118,"excel":4119,"eixi":4120,"ançament":4121,".-":4122,"volta":4123,"Mall":4124,"Ped":4125,"enar":4126,"inform":4127,"inaug":4128,"obstant":4129,"memòria":4130,"aspectes":4131,"Lluís":4132,"pell":4133,"encant":4134,"actuacions":4135,"Aquests":4136,"premsa":4137,"alternat":4138,"Civ":4139,"entment":4140,"efectes":4141,"ral":4142,"pais":4143,"líder":4144,"Ramon":4145,"darrers":4146,"volu":4147,"unal":4148,"accedir":4149,"semble":4150,"recordar":4151,"habitació":4152,"norm":4153,"Sán":4154,"prè":4155,"ulars":4156,"ka":4157,"retir":4158,"Sabadell":4159,"48":4160,"aprendre":4161,"fix":4162,"prefer":4163,"Aquestes":4164,"àtiques":4165,"anem":4166,"quia":4167,"concentr":4168,"sud":4169,"matèria":4170,"Gra":4171,"Reus":4172,"estic":4173,"Nat":4174,"So":4175,"ás":4176,"plataforma":4177,"ENT":4178,"Ac":4179,"Terr":4180,"amen":4181,"separ":4182,"posicions":4183,"confl":4184,"classi":4185,"Sánchez":4186,"mad":4187,"!!!":4188,"gens":4189,"riques":4190,"ultat":4191,"treballs":4192,"Hot":4193,"apart":4194,"vols":4195,"coinci":4196,"psic":4197,"viatgers":4198,"ras":4199,"encarreg":4200,"treure":4201,"Parc":4202,"ork":4203,"Jus":4204,"cà":4205,"fel":4206,"ogrà":4207,"telè":4208,"pocs":4209,"QU":4210,"previst":4211,"rere":4212,"Cada":4213,"repet":4214,"nombr":4215,"darrera":4216,"sindic":4217,"presiden":4218,"Ràdio":4219,"Me":4220,"cicle":4221,"Bor":4222,"personals":4223,"Barça":4224,"agents":4225,"Tan":4226,"ocia":4227,"icacions":4228,"resist":4229,"auton":4230,"ingü":4231,"Ebre":4232,"OE":4233,"RES":4234,"fu":4235,"supos":4236,"patr":4237,"dro":4238,"cionat":4239,"cules":4240,"aconseguit":4241,"jos":4242,"inver":4243,"quetes":4244,"dubte":4245,"lluny":4246,"Jes":4247,"troben":4248,"influ":4249,"funcionament":4250,"argu":4251,"comarca":4252,"dibuix":4253,"aplica":4254,"icar":4255,"treballant":4256,"fund":4257,"emoci":4258,"estable":4259,"raó":4260,"municipis":4261,"escenari":4262,"acos":4263,"seguit":4264,"Units":4265,"materials":4266,"comprar":4267,"70":4268,"sola":4269,"novació":4270,"taller":4271,"industri":4272,"Festival":4273,"ional":4274,"pista":4275,"dria":4276,"deb":4277,"solució":4278,"principis":4279,"àlisi":4280,"compromís":4281,"Ger":4282,"Mari":4283,"profess":4284,"judici":4285,"lent":4286,"Bon":4287,"yo":4288,"àri":4289,"acab":4290,"CUP":4291,"Rep":4292,"US":4293,"dez":4294,"clàss":4295,"xif":4296,"policia":4297,"fiques":4298,"Loc":4299,"proves":4300,"liber":4301,"situat":4302,"esforç":4303,"iner":4304,"FE":4305,"informe":4306,"concre":4307,"TO":4308,"Us":4309,"quí":4310,"Grup":4311,"Medi":4312,"eines":4313,"relat":4314,"pies":4315,"idees":4316,"Martín":4317,"end":4318,"públiques":4319,"empresari":4320,"celebra":4321,"Palau":4322,"confiança":4323,"foment":4324,"totalment":4325,"ografies":4326,"Juli":4327,"Lo":4328,"sufici":4329,"demà":4330,"àtics":4331,"plen":4332,"habitatge":4333,"38":4334,"personatges":4335,"perme":4336,"vig":4337,"missió":4338,"enllaç":4339,"comú":4340,"ganes":4341,"LE":4342,"suposa":4343,"tancar":4344,"recorregut":4345,"Li":4346,"formen":4347,"portes":4348,"publicat":4349,"Trib":4350,"vit":4351,"prior":4352,"certs":4353,"jocs":4354,"ingr":4355,"Tra":4356,"CON":4357,"Llei":4358,"32":4359,"programes":4360,"Valenciana":4361,"LI":4362,"sant":4363,"recuperar":4364,"Xavier":4365,"àstic":4366,"ud":4367,"ciutats":4368,"Vil":4369,"provoc":4370,"ack":4371,"escolar":4372,"Ciutat":4373,"fas":4374,"jant":4375,"efecte":4376,"Servei":4377,"Oli":4378,"mostrar":4379,"festival":4380,"Os":4381,"acabat":4382,"Sala":4383,"Rom":4384,"ià":4385,"sit":4386,"desa":4387,"malal":4388,"costa":4389,"55":4390,"aport":4391,"ws":4392,"àlia":4393,"temper":4394,"fru":4395,"electrònic":4396,"impe":4397,"despes":4398,"context":4399,"bit":4400,"denunci":4401,"obertura":4402,"ministra":4403,"Balears":4404,"ela":4405,"itaris":4406,"2022":4407,"cotxe":4408,"Bi":4409,"ms":4410,"vac":4411,"):":4412,"Font":4413,"carta":4414,"jugadors":4415,"ïda":4416,"Notícies":4417,"XX":4418,"rega":4419,"giques":4420,"ionat":4421,"line":4422,"següents":4423,"cau":4424,"utes":4425,"mitjà":4426,"Econ":4427,"ich":4428,"legi":4429,"artistes":4430,"ologies":4431,"propiet":4432,"humans":4433,"Super":4434,"pèr":4435,"provar":4436,"faci":4437,"Martí":4438,"espè":4439,"festes":4440,"regidor":4441,"parts":4442,"autom":4443,"Mallorca":4444,"ña":4445,"anglès":4446,"disposició":4447,"diuen":4448,"nete":4449,"cursos":4450,"Internet":4451,"destaca":4452,"__":4453,"dacció":4454,"detect":4455,"intervenció":4456,"mitjana":4457,"Pir":4458,"và":4459,"culturals":4460,"estada":4461,"parc":4462,"parella":4463,"feta":4464,"quem":4465,"primeres":4466,"vila":4467,"òrica":4468,"associació":4469,"càn":4470,"tercera":4471,"normat":4472,"exercici":4473,"característiques":4474,"figura":4475,"Civil":4476,"Fl":4477,"plena":4478,"disc":4479,"necessita":4480,"órrer":4481,"aven":4482,"Comun":4483,"quines":4484,"terren":4485,"alumnat":4486,"dif":4487,"porten":4488,"ong":4489,"puc":4490,"crí":4491,"emer":4492,"consol":4493,"avent":4494,"tom":4495,"gatz":4496,"ful":4497,"tecnologia":4498,"nis":4499,"secció":4500,"Sim":4501,"greu":4502,"blanc":4503,"manifest":4504,"particular":4505,"òleg":4506,"iniciar":4507,"Van":4508,"heu":4509,"possibles":4510,"Hotel":4511,"OC":4512,"bis":4513,"prov":4514,"Gal":4515,"ki":4516,"sia":4517,"sta":4518,"anca":4519,"paraula":4520,"original":4521,"deleg":4522,"ocupa":4523,"conveni":4524,"Camb":4525,"dran":4526,"hagués":4527,"meitat":4528,"mera":4529,"magatz":4530,"bia":4531,"tècnic":4532,"classes":4533,"contribu":4534,"Bal":4535,"ensa":4536,"Nou":4537,"Música":4538,"substitu":4539,"Fira":4540,"atius":4541,"giny":4542,"emb":4543,"óc":4544,"presó":4545,"habitual":4546,"aprenentatge":4547,"corre":4548,"diferència":4549,"Is":4550,"pregunta":4551,"freqü":4552,"estratèg":4553,"elèctr":4554,"colors":4555,"47":4556,"Perquè":4557,"sensi":4558,"Aquí":4559,"etapa":4560,"tallers":4561,"conseller":4562,"Fi":4563,"zz":4564,"illes":4565,"verm":4566,"Serveis":4567,"gell":4568,"aula":4569,"Marc":4570,"Ru":4571,"hotels":4572,"administració":4573,"Jesús":4574,"It":4575,"idor":4576,"continuació":4577,"46":4578,"membre":4579,"cita":4580,"rez":4581,"Anna":4582,"familiars":4583,"bici":4584,"església":4585,"hagin":4586,"mag":4587,"peces":4588,"versari":4589,"Comar":4590,"At":4591,"parlament":4592,"deixat":4593,"produir":4594,"infra":4595,"intentar":4596,"igualtat":4597,"Encara":4598,"periodis":4599,"àrdia":4600,"muntanya":4601,"tècnica":4602,"allotjament":4603,"Ciutadans":4604,"LES":4605,"visual":4606,"semblea":4607,"presidenta":4608,"inc":4609,"regular":4610,"fes":4611,"gres":4612,"donen":4613,"polici":4614,"èrica":4615,"adquir":4616,"exterior":4617,"funcions":4618,"mel":4619,"perman":4620,"vies":4621,"arribada":4622,"immedi":4623,"despla":4624,"Guerra":4625,"escrip":4626,"Fern":4627,"Gràcies":4628,"voca":4629,"coneguda":4630,"circu":4631,"Lleg":4632,"diversitat":4633,"Fel":4634,"enç":4635,"vehicles":4636,"itzat":4637,"trobat":4638,"llarga":4639,"tens":4640,"drem":4641,"Europea":4642,"witter":4643,"ck":4644,"ox":4645,"ances":4646,"franc":4647,"cía":4648,"teniu":4649,"tradu":4650,"PSOE":4651,"victòria":4652,");":4653,"aliments":4654,"recull":4655,"País":4656,"Dem":4657,"ictes":4658,"celebració":4659,"GU":4660,"rad":4661,"fonts":4662,"telèfon":4663,"afirma":4664,"fen":4665,"reix":4666,"assegurar":4667,"gué":4668,"popul":4669,"ting":4670,"portaveu":4671,"femen":4672,"ociacions":4673,"49":4674,"CC":4675,"atori":4676,"ocs":4677,"aproxim":4678,"icult":4679,"destacar":4680,"pràctiques":4681,"ay":4682,"gueu":4683,"passant":4684,"Mossos":4685,"tenien":4686,"Vallès":4687,"magatzem":4688,"bra":4689,"corona":4690,"turisme":4691,"Costa":4692,"aixa":4693,"Esport":4694,"lecció":4695,"tret":4696,"pez":4697,"estacions":4698,"realitzat":4699,"Major":4700,"aplicar":4701,"reduir":4702,"Cab":4703,"places":4704,"65":4705,"dats":4706,"mús":4707,"emp":4708,"iller":4709,"històric":4710,"convocatòria":4711,"Som":4712,"urat":4713,"genera":4714,"Biblioteca":4715,"Ofer":4716,"To":4717,"quedat":4718,"icitat":4719,"ruta":4720,"selecció":4721,"República":4722,"Festa":4723,"bones":4724,"estran":4725,"siques":4726,"Comissió":4727,"CN":4728,"reconeixement":4729,"ésser":4730,"serrat":4731,"Program":4732,"preguntes":4733,"quart":4734,"àriament":4735,"tén":4736,"obligat":4737,"articles":4738,"alcaldes":4739,"facilitar":4740,"có":4741,"ME":4742,"legal":4743,"plantes":4744,"alem":4745,"rees":4746,"evident":4747,"Terrassa":4748,"NA":4749,"ando":4750,"possibil":4751,"línies":4752,"Trans":4753,"pantalla":4754,"tradicional":4755,"Fac":4756,"masc":4757,"desapar":4758,"traject":4759,"volia":4760,"promoció":4761,"Mit":4762,"modern":4763,"rei":4764,"convers":4765,"pau":4766,"preveu":4767,"arien":4768,"ústria":4769,"enciar":4770,"impacte":4771,"Jorn":4772,"passada":4773,"fotografia":4774,"CD":4775,"FC":4776,"Vis":4777,"comptes":4778,"Comunitat":4779,"licitat":4780,"carretera":4781,"doble":4782,"sessions":4783,"volgut":4784,"clim":4785,"inacions":4786,"obregat":4787,"vostres":4788,"tècniques":4789,"perfect":4790,"Federació":4791,"usos":4792,"recorda":4793,"nenes":4794,"nació":4795,"deia":4796,"coneixements":4797,"sistemes":4798,"representants":4799,"Treball":4800,"Mus":4801,"antiga":4802,"ogle":4803,"permetre":4804,"Hu":4805,"aporta":4806,"anàlisi":4807,"CAT":4808,"escoltar":4809,"pagament":4810,".,":4811,"Ge":4812,"bons":4813,"tenint":4814,"iós":4815,"organitzat":4816,"hospital":4817,"convi":4818,"coll":4819,"gratuït":4820,"Div":4821,"polit":4822,"cles":4823,"ansa":4824,"quilib":4825,"Local":4826,"feu":4827,"font":4828,"ença":4829,"empren":4830,"urament":4831,"activa":4832,"carrera":4833,"afegir":4834,"estructures":4835,"Au":4836,"FA":4837,"lider":4838,"icion":4839,"interessant":4840,"vivència":4841,"comoditats":4842,"sot":4843,"castellà":4844,"exclus":4845,"dient":4846,"maj":4847,"Alt":4848,"començat":4849,"agafar":4850,"Llobregat":4851,"distància":4852,"Sobre":4853,"prest":4854,"acum":4855,"morir":4856,"eina":4857,"faran":4858,"neu":4859,"pujar":4860,"finalitat":4861,"profund":4862,"frances":4863,"establir":4864,"alles":4865,"pero":4866,"Qui":4867,"2006":4868,"Sense":4869,"300":4870,"ègia":4871,"esment":4872,"volum":4873,"ànica":4874,"Constitu":4875,"manté":4876,"adop":4877,"solid":4878,"Espany":4879,"justícia":4880,"constant":4881,"ègim":4882,"''":4883,"hivern":4884,"situacions":4885,"Montserrat":4886,"capaç":4887,"damunt":4888,"xi":4889,"autònom":4890,"valencià":4891,"comercial":4892,"equilib":4893,"ias":4894,"acad":4895,"publicar":4896,"companys":4897,"Castelló":4898,"flu":4899,"processos":4900,"pobles":4901,"lleu":4902,"manteniment":4903,"interessos":4904,"recuperació":4905,"màxima":4906,"electoral":4907,"bor":4908,"condem":4909,"compra":4910,"Son":4911,"pretén":4912,"Comp":4913,"licitu":4914,"responsables":4915,"tradició":4916,"apunt":4917,"destacat":4918,"fiscal":4919,"FI":4920,"TU":4921,"fície":4922,"ocasió":4923,"AB":4924,"cura":4925,"hn":4926,"magn":4927,"Artic":4928,"vots":4929,"Illes":4930,"COMP":4931,"mòbil":4932,"Mag":4933,"òp":4934,"assegura":4935,"actualitat":4936,"tingui":4937,"Oc":4938,"eig":4939,"amic":4940,"aniversari":4941,"mobilitat":4942,"orar":4943,"meus":4944,"tiva":4945,"avar":4946,"justi":4947,"TER":4948,"estaven":4949,"Prot":4950,"ios":4951,"compon":4952,"publica":4953,"virtu":4954,"missatge":4955,"junts":4956,"mirar":4957,"fabric":4958,"erta":4959,"quins":4960,"ity":4961,"artista":4962,"cisament":4963,"Dig":4964,"perm":4965,"embar":4966,"alls":4967,"còmo":4968,"connex":4969,"consulta":4970,"Nú":4971,"prohib":4972,"agu":4973,"element":4974,"estir":4975,"ofereixen":4976,"revista":4977,"comerç":4978,"Rod":4979,"Tec":4980,"tants":4981,"coh":4982,"Mundial":4983,"impuls":4984,"avis":4985,"itza":4986,"poques":4987,"mida":4988,"literatura":4989,"Cin":4990,"cans":4991,"òst":4992,"destin":4993,"propietat":4994,"vice":4995,"arquitect":4996,"75":4997,"adol":4998,"cances":4999,"silenci":5000,"uncia":5001,"ico":5002,"diàleg":5003,"dua":5004,"Alem":5005,"DO":5006,"gon":5007,"reci":5008,"siva":5009,"pacients":5010,"Manresa":5011,"significat":5012,"Dim":5013,"Ven":5014,"arts":5015,"preus":5016,"entrevista":5017,"visites":5018,"noms":5019,"ceb":5020,"informa":5021,"noia":5022,"vulner":5023,"àrees":5024,"escr":5025,"visitants":5026,"motius":5027,"García":5028,"zo":5029,"perfil":5030,"dimen":5031,"Direct":5032,"vull":5033,"inversió":5034,"Actualment":5035,"Gl":5036,"bur":5037,"lats":5038,"caure":5039,"mental":5040,"igües":5041,"rendi":5042,"hauran":5043,"representació":5044,"opinió":5045,"près":5046,"abra":5047,"cotxes":5048,"física":5049,"àvem":5050,"icat":5051,"ulta":5052,"superar":5053,"esdeveniment":5054,"etique":5055,"donant":5056,"process":5057,"circum":5058,"elev":5059,"Català":5060,"programació":5061,"titular":5062,"44":5063,"ore":5064,"xerr":5065,"ego":5066,"vencions":5067,"pub":5068,"mens":5069,"manca":5070,"homen":5071,"complement":5072,"platja":5073,"afegit":5074,"civil":5075,"Du":5076,"oles":5077,"complic":5078,"perspect":5079,"personatge":5080,"blau":5081,"global":5082,"fo":5083,"ults":5084,"ties":5085,"menor":5086,"quali":5087,"opcions":5088,"assegurat":5089,"Cultural":5090,"educatiu":5091,"Tribunal":5092,"ògiques":5093,"Marta":5094,"sabem":5095,"ompl":5096,"absol":5097,"veus":5098,"Política":5099,"protagonista":5100,"Tom":5101,"forces":5102,"dum":5103,"insist":5104,"Enric":5105,"organitzar":5106,"aprofitar":5107,"identitat":5108,"posada":5109,"vespre":5110,"publicació":5111,"GT":5112,"decor":5113,"urada":5114,"viva":5115,"socis":5116,"estric":5117,"ilització":5118,"nivells":5119,"llengu":5120,"populars":5121,"otes":5122,"complex":5123,"refu":5124,"democràcia":5125,"dificultats":5126,"Itàlia":5127,"Ta":5128,"citat":5129,"adapt":5130,"ESO":5131,"mala":5132,"darrere":5133,"reivindic":5134,"xoc":5135,"innovació":5136,"iten":5137,"anteri":5138,"actuar":5139,"Congrés":5140,"intenció":5141,"inscripció":5142,"participat":5143,"humà":5144,"adolesc":5145,"anteriors":5146,"43":5147,"sac":5148,"eleg":5149,"finançament":5150,"localització":5151,"42":5152,"voler":5153,"menors":5154,"ònim":5155,"sectors":5156,"cases":5157,"Societat":5158,"cançons":5159,"Do":5160,"Rosa":5161,"Rub":5162,"àmica":5163,"tensió":5164,"curt":5165,"ORS":5166,"Policia":5167,"aleshores":5168,"definitiva":5169,"Pet":5170,"reforma":5171,"ogia":5172,"catalanes":5173,"ístics":5174,"fotografies":5175,"Foto":5176,"comport":5177,"mantin":5178,"compleix":5179,"Ala":5180,"Dec":5181,"perdut":5182,"exter":5183,"certi":5184,"Centr":5185,"pract":5186,"escal":5187,"varia":5188,"client":5189,"concepte":5190,"fir":5191,"arran":5192,"caigu":5193,"varen":5194,"vingut":5195,"Salv":5196,"Pop":5197,"evolució":5198,"Empor":5199,"Crist":5200,"fitx":5201,"Ló":5202,"Tant":5203,"XV":5204,"biblioteca":5205,"ossa":5206,"desig":5207,"seues":5208,"ega":5209,"alitza":5210,"Manuel":5211,"positius":5212,"Dani":5213,"complir":5214,"tranquil":5215,"Doncs":5216,"conseqüència":5217,"Hor":5218,"oposició":5219,"ua":5220,"past":5221,"ritme":5222,"filla":5223,"compliment":5224,"López":5225,"-,":5226,"Famí":5227,"Serra":5228,"estarà":5229,"negre":5230,"ández":5231,"estratègia":5232,"Etiquetes":5233,"Bas":5234,"PRO":5235,"cast":5236,"config":5237,"odi":5238,"decisions":5239,"Malgrat":5240,"Google":5241,"EM":5242,"Mill":5243,"cí":5244,"esia":5245,"tractar":5246,"human":5247,"estigui":5248,"solucions":5249,"aposta":5250,"mult":5251,"retorn":5252,"disput":5253,"ideal":5254,"pàgines":5255,"roba":5256,"Urgell":5257,"56":5258,"ànic":5259,"Arx":5260,"Espai":5261,"individual":5262,"dad":5263,"èst":5264,"inari":5265,"forta":5266,"aller":5267,"normativa":5268,"partida":5269,"2005":5270,"podrien":5271,"experiències":5272,"aero":5273,"enes":5274,"prevenció":5275,"nau":5276,"petites":5277,"procedi":5278,"Cir":5279,"bany":5280,"incen":5281,"tasques":5282,"expressió":5283,"refugi":5284,"Ap":5285,"onz":5286,"discurs":5287,"esperar":5288,"argument":5289,"Med":5290,"aró":5291,"mèto":5292,"expli":5293,"ollit":5294,"decidit":5295,"edificis":5296,"ente":5297,"confin":5298,"anava":5299,"len":5300,"tut":5301,"pena":5302,"Turisme":5303,"recollida":5304,"Coll":5305,"amplia":5306,"disposa":5307,"Covid":5308,"PI":5309,"sóc":5310,"republic":5311,"tada":5312,"minut":5313,"cindi":5314,"extraordin":5315,"ífics":5316,"ño":5317,"indi":5318,"icals":5319,"siu":5320,"assass":5321,"barre":5322,"anova":5323,"àmbits":5324,"Minis":5325,"règim":5326,"llic":5327,"TAT":5328,"referèn":5329,"víctimes":5330,"gla":5331,"je":5332,"ciència":5333,"pera":5334,"parar":5335,"assistir":5336,"Podem":5337,"tocar":5338,"estableix":5339,"Los":5340,"rò":5341,"quasi":5342,"actuals":5343,"produeix":5344,"aparcament":5345,"utilitza":5346,"Martínez":5347,"francès":5348,"Empordà":5349,"Ni":5350,"emo":5351,"inspir":5352,"certa":5353,"directora":5354,"representa":5355,"ocasions":5356,"possibilitats":5357,"eng":5358,"barcel":5359,"Vaig":5360,"jurí":5361,"coronavirus":5362,"Bus":5363,"Caixa":5364,"jol":5365,"onès":5366,"vaix":5367,"ànsit":5368,"mundial":5369,"claus":5370,"aprovar":5371,"documents":5372,"Arag":5373,"log":5374,"ov":5375,"declara":5376,"marcat":5377,"haurien":5378,"restaurant":5379,"Potser":5380,"assenyal":5381,"internacionals":5382,"Nos":5383,"wn":5384,"arm":5385,"reta":5386,"crítica":5387,"inicial":5388,"fred":5389,"VID":5390,"esdeveniments":5391,"Deix":5392,"faç":5393,"ventut":5394,"Ofici":5395,"Sec":5396,"ante":5397,"emàtica":5398,"cançó":5399,"bana":5400,"ples":5401,"tros":5402,"indica":5403,"defensar":5404,"tanta":5405,"Contin":5406,"contrari":5407,"Guàrdia":5408,"convertit":5409,"oportunitats":5410,"Web":5411,"néixer":5412,"abs":5413,"actitud":5414,"organitzacions":5415,"òsit":5416,"Home":5417,"informar":5418,"itàries":5419,"parell":5420,"marcar":5421,"vincula":5422,"toca":5423,"reserva":5424,"Bla":5425,"one":5426,"resi":5427,"Dom":5428,"almenys":5429,"later":5430,"autors":5431,"naturals":5432,"resolució":5433,"Antonio":5434,"idaritat":5435,"essió":5436,"cipl":5437,"issions":5438,"habitants":5439,"espanyols":5440,"indústria":5441,"rar":5442,"sò":5443,"sel":5444,"Àn":5445,"certes":5446,"mitja":5447,"llet":5448,"Totes":5449,"irem":5450,"notícies":5451,"Història":5452,"periodista":5453,"41":5454,"Dr":5455,"busca":5456,"explot":5457,"LO":5458,"àb":5459,"Podeu":5460,"resoldre":5461,"apos":5462,"menj":5463,"comunitats":5464,"augmentar":5465,"Xar":5466,"cés":5467,"queden":5468,"permeten":5469,"propis":5470,"tècnics":5471,"ambiental":5472,"Bra":5473,"ick":5474,"lícules":5475,"estudiar":5476,"completa":5477,"sopar":5478,"ONA":5479,"assistència":5480,"Jun":5481,"rè":5482,"guis":5483,"generació":5484,"qüestions":5485,"Era":5486,"tols":5487,"Trob":5488,"contracte":5489,"Fil":5490,"assessor":5491,"capç":5492,"objectes":5493,"superfície":5494,"Lliga":5495,"Central":5496,"Bu":5497,"ministre":5498,"Project":5499,"secretari":5500,"BI":5501,"teres":5502,"cerca":5503,"Cast":5504,"ològics":5505,"MAR":5506,"progr":5507,"seguint":5508,"necessària":5509,"contam":5510,"eva":5511,"dena":5512,"Luis":5513,"TV3":5514,"enviar":5515,"66":5516,"junta":5517,"lum":5518,"posen":5519,"discipl":5520,"documental":5521,"escriptor":5522,"58":5523,"enrere":5524,"estats":5525,"maneres":5526,"pèrdua":5527,"54":5528,"ted":5529,"descans":5530,"útil":5531,"comissió":5532,"servi":5533,"generar":5534,"veget":5535,"proce":5536,"lím":5537,"CiU":5538,"jugador":5539,"endari":5540,"Comarcal":5541,"52":5542,"esca":5543,"enfront":5544,"repart":5545,"ime":5546,"abast":5547,"presents":5548,"rani":5549,"Palma":5550,"manifestació":5551,"reducció":5552,"Primer":5553,"referèndum":5554,"dències":5555,"deos":5556,"immob":5557,"demont":5558,"pròpies":5559,"aspecte":5560,"Cent":5561,"Er":5562,"Nord":5563,"fac":5564,"enfron":5565,"issa":5566,"proxim":5567,"dag":5568,"vosaltres":5569,"París":5570,"humana":5571,"experts":5572,"PC":5573,"testim":5574,"viuen":5575,"naveg":5576,"sentència":5577,"operació":5578,"Administr":5579,"recomana":5580,"sensació":5581,"imprescindi":5582,"57":5583,"Af":5584,"ebo":5585,"cristi":5586,"distribució":5587,"conflicte":5588,"ministracions":5589,"Alemanya":5590,"llenguatge":5591,"dits":5592,"lectu":5593,"essa":5594,"blo":5595,"natura":5596,"tornat":5597,"Mataró":5598,"residus":5599,"%.":5600,"Badal":5601,"ineu":5602,"milers":5603,"suficient":5604,"neteja":5605,"dant":5606,"inten":5607,"tava":5608,"criter":5609,"patir":5610,"avaluació":5611,"amena":5612,"vacances":5613,"Església":5614,"internet":5615,"demanat":5616,"estalvi":5617,"Dol":5618,"pron":5619,"etre":5620,"cavall":5621,"asses":5622,"consultar":5623,"criteris":5624,"lingü":5625,"associacions":5626,"pedra":5627,"entrades":5628,"fruit":5629,"Article":5630,"Cla":5631,"licitar":5632,"repte":5633,"anomenat":5634,"diputat":5635,"consciència":5636,"Ed":5637,"jats":5638,"vada":5639,"úr":5640,"inant":5641,"concerts":5642,"comptat":5643,"privat":5644,"Digital":5645,"AD":5646,"esquer":5647,"contem":5648,"urà":5649,"sang":5650,"surt":5651,"industrial":5652,"Her":5653,"ite":5654,"immigr":5655,"codi":5656,"reptes":5657,"Puigdemont":5658,"sexual":5659,"malalties":5660,"99":5661,"ler":5662,"escena":5663,"càncer":5664,"Salvador":5665,"Mic":5666,"acre":5667,"ump":5668,"tesi":5669,"domici":5670,"Molt":5671,"significa":5672,"recoman":5673,"veloci":5674,"Roc":5675,"inal":5676,"finan":5677,"Carlos":5678,"viament":5679,"jardí":5680,"elecció":5681,"Pened":5682,"Fon":5683,"Tem":5684,"xique":5685,"ÍN":5686,"mecan":5687,"organitza":5688,"crida":5689,"propera":5690,"modifica":5691,"maqu":5692,"amag":5693,"eixo":5694,"horari":5695,"sostenible":5696,"emprened":5697,"ator":5698,"grad":5699,"idència":5700,"notícia":5701,"MILL":5702,"Penedès":5703,"Munt":5704,"UB":5705,"relacionats":5706,"Gest":5707,"Junta":5708,"estona":5709,"ològiques":5710,"guessin":5711,"clo":5712,"peça":5713,"Oriol":5714,"Creu":5715,"lusió":5716,"queta":5717,"compren":5718,"jornades":5719,"lloguer":5720,"absolut":5721,"400":5722,"Ví":5723,"dalt":5724,"ous":5725,"arren":5726,"vost":5727,"promoure":5728,"assolir":5729,"SS":5730,"invent":5731,"propers":5732,"gria":5733,"dirigit":5734,"aeroport":5735,"mur":5736,"ph":5737,"quets":5738,"contempor":5739,"escala":5740,"durada":5741,"motor":5742,"militar":5743,"avançar":5744,"apartat":5745,"Agr":5746,"IV":5747,"Punt":5748,"Toni":5749,"nota":5750,"guia":5751,"Esqu":5752,"seguiment":5753,"mateixes":5754,"Estudis":5755,"cursa":5756,"proposa":5757,"quilò":5758,"adreça":5759,"circumst":5760,"Tal":5761,"aus":5762,"ie":5763,"plani":5764,"ajuntaments":5765,"UM":5766,"ball":5767,"obreix":5768,"Alta":5769,"quip":5770,"COVID":5771,"comarques":5772,"88":5773,"ïtat":5774,"convoc":5775,"portat":5776,"tint":5777,"Infant":5778,"Comprom":5779,"Wi":5780,"bes":5781,"deut":5782,"alliber":5783,"trànsit":5784,"calor":5785,"senyor":5786,"bastant":5787,"normal":5788,"treballat":5789,"camps":5790,"Cugat":5791,"reflexió":5792,"anal":5793,"implement":5794,"protoc":5795,"competició":5796,"Programa":5797,"ito":5798,"postes":5799,"ècn":5800,"sanitària":5801,"comunicat":5802,"Abans":5803,"connexió":5804,"Gonz":5805,"dora":5806,"encials":5807,"Roca":5808,"dedicat":5809,"fusta":5810,"concentració":5811,"Terra":5812,"onada":5813,"ile":5814,"tina":5815,"directa":5816,"educatius":5817,"judicial":5818,"senzill":5819,"pertany":5820,"Hab":5821,"hos":5822,"centen":5823,"demanda":5824,"Organ":5825,"Badalona":5826,"Seu":5827,"erà":5828,"afron":5829,"Redacció":5830,"Valencià":5831,"Audi":5832,"St":5833,"adver":5834,"empat":5835,"impost":5836,"plans":5837,"treballen":5838,"doctor":5839,"existeix":5840,"gastron":5841,"Esquerra":5842,"feli":5843,"ulació":5844,"resum":5845,"Mare":5846,"Andreu":5847,"històries":5848,"transpar":5849,"competències":5850,"terreny":5851,"dura":5852,"comi":5853,"voleu":5854,"bases":5855,"York":5856,"aco":5857,"accessi":5858,"mani":5859,"teus":5860,"Escol":5861,"plegat":5862,"trajectòria":5863,"reda":5864,"cessió":5865,"històrica":5866,"econòmics":5867,"conseqüències":5868,"prèvia":5869,"QUE":5870,"fat":5871,"rell":5872,"reconeix":5873,"fera":5874,"ferro":5875,"alcaldessa":5876,"59":5877,"Curs":5878,"blement":5879,"Princi":5880,"Sergi":5881,"completament":5882,"homenatge":5883,"AT":5884,"Fem":5885,"naix":5886,"eno":5887,"quants":5888,"Als":5889,"alitzats":5890,"autèn":5891,"enya":5892,"franqu":5893,"Garcia":5894,"beneficis":5895,"Partit":5896,"acadè":5897,"Popular":5898,"Ale":5899,"fla":5900,"orals":5901,"itable":5902,"precisament":5903,"funciona":5904,"lectius":5905,"suspen":5906,"atract":5907,"icultura":5908,"eques":5909,"pur":5910,"revis":5911,"guera":5912,"Carme":5913,"gestionar":5914,"pitjor":5915,"dint":5916,"tecnologies":5917,"moviments":5918,"ingressos":5919,"contes":5920,"provis":5921,"ters":5922,"Esper":5923,"saluda":5924,"iniciatives":5925,"TIC":5926,"educativa":5927,"declaració":5928,"detalls":5929,"professors":5930,"Mitj":5931,"GRA":5932,"estant":5933,"tració":5934,"como":5935,"recollir":5936,"registre":5937,"uït":5938,"resulta":5939,"considerar":5940,"Pob":5941,"gica":5942,"implica":5943,"termes":5944,"escla":5945,"regal":5946,"permanent":5947,"53":5948,"Té":5949,"aj":5950,"dul":5951,"poesia":5952,"autoritats":5953,"Diu":5954,"rets":5955,"ados":5956,"primària":5957,"habitatges":5958,"IX":5959,"enor":5960,"sug":5961,"denún":5962,"transformació":5963,"assistents":5964,"Nor":5965,"càm":5966,"ley":5967,"medit":5968,"passen":5969,"presenten":5970,"controla":5971,"regidora":5972,"majors":5973,"lòg":5974,"òmica":5975,"departament":5976,"video":5977,"2000":5978,"carn":5979,"vehicle":5980,"bicicle":5981,"but":5982,"gam":5983,"podi":5984,"fonamental":5985,"epis":5986,"crè":5987,"dict":5988,"okies":5989,"extrem":5990,"Ofertes":5991,"proximitat":5992,"ebook":5993,"Mil":5994,"bum":5995,"vess":5996,"onia":5997,"canal":5998,"perspectiva":5999,"mestres":6000,"peix":6001,"reconèixer":6002,"geg":6003,"venil":6004,"150":6005,"triom":6006,"mirada":6007,"morts":6008,"MO":6009,"ff":6010,"implant":6011,"models":6012,"esperit":6013,"Ferran":6014,"paisatge":6015,"ífiques":6016,"paral":6017,"ium":6018,"dismin":6019,"judic":6020,"calendari":6021,"principalment":6022,"aplicacions":6023,"Compromís":6024,"pica":6025,"iny":6026,"commem":6027,"aixec":6028,"blan":6029,"tinguin":6030,"especials":6031,"triar":6032,"documentació":6033,"femin":6034,"existència":6035,"Valls":6036,"corresponent":6037,"SO":6038,"camb":6039,"frag":6040,"enginy":6041,"onat":6042,"ascens":6043,"boca":6044,"Plaça":6045,"pràcticament":6046,"Regne":6047,"temperatura":6048,"Far":6049,"aï":6050,"ham":6051,"enqu":6052,"addi":6053,"guez":6054,"actors":6055,"mail":6056,"aparell":6057,"obliga":6058,"Hospitalet":6059,"permetrà":6060,"Ministeri":6061,"Junts":6062,"administracions":6063,"urbà":6064,"eixin":6065,"dinar":6066,"dolor":6067,"terror":6068,"ficats":6069,"brill":6070,"subject":6071,"obertes":6072,"Torre":6073,"perfecte":6074,"alimentació":6075,"Han":6076,"pacte":6077,"isa":6078,"expe":6079,"Francis":6080,"reunions":6081,"privada":6082,"coneguts":6083,"Seguretat":6084,"xifra":6085,"LÍN":6086,"lades":6087,"entes":6088,"metro":6089,"breu":6090,"Ins":6091,"audio":6092,"lliures":6093,"utilització":6094,"Pedro":6095,"difusió":6096,"TRA":6097,"istat":6098,"Prof":6099,"micro":6100,"migdia":6101,"Alguns":6102,"legislat":6103,"xic":6104,"artes":6105,"tindran":6106,"últimes":6107,"òrum":6108,"competit":6109,"provín":6110,"51":6111,"Figu":6112,"dob":6113,"quid":6114,"acol":6115,"DESCOMP":6116,"Vilanova":6117,"MILLORS":6118,"got":6119,"ítim":6120,"joy":6121,"necessaris":6122,"restaur":6123,"Dos":6124,"cades":6125,"jecció":6126,"assignat":6127,"votar":6128,"afectats":6129,"carregar":6130,"protagonistes":6131,"disponible":6132,"Ban":6133,"Migu":6134,"uran":6135,"gular":6136,"ación":6137,"necessàries":6138,"destinacions":6139,"Ambient":6140,"vídeos":6141,"recordat":6142,"sugger":6143,"òmic":6144,"rupció":6145,"DESCOMPTES":6146,"Tres":6147,"cens":6148,"geta":6149,"simplement":6150,"Sempre":6151,"Setmana":6152,"domicili":6153,"flex":6154,"quot":6155,"vinent":6156,"nucli":6157,"seleccion":6158,"Gab":6159,"ixes":6160,"riure":6161,"Rafa":6162,"XIX":6163,"LÍNIA":6164,"Sos":6165,"ctes":6166,"accident":6167,"Esports":6168,"preparar":6169,"piscina":6170,"Miguel":6171,"Feli":6172,"conferència":6173,"Informació":6174,"Este":6175,"celebrat":6176,"confinament":6177,"Xina":6178,"innov":6179,"tau":6180,"Ind":6181,"tancat":6182,"objecte":6183,"jutge":6184,"Abr":6185,"iz":6186,"dex":6187,"emàtiques":6188,"prima":6189,"IP":6190,"Pé":6191,"Th":6192,"ÉS":6193,"requis":6194,"omo":6195,"Comerç":6196,"pensament":6197,"CIA":6198,"tirar":6199,"respondre":6200,"afegeix":6201,"parlant":6202,"adaptar":6203,"boni":6204,"ink":6205,"capí":6206,"Alz":6207,"regió":6208,"banc":6209,"benestar":6210,"màs":6211,"consistori":6212,"protegir":6213,"darà":6214,"ml":6215,"sof":6216,"gull":6217,"forn":6218,"teat":6219,"portal":6220,"Pers":6221,"sorg":6222,"novetats":6223,"ocupar":6224,"restauració":6225,"comercials":6226,"cussió":6227,"quotidi":6228,"Bé":6229,"ko":6230,"excur":6231,"velocitat":6232,"%,":6233,"Hol":6234,"feix":6235,"referent":6236,"varietat":6237,"TOR":6238,"anual":6239,"independentista":6240,"Bos":6241,"Tri":6242,"cell":6243,"dany":6244,"suma":6245,"tides":6246,"Direcció":6247,"Assemblea":6248,"impulsar":6249,"ensenyament":6250,"brer":6251,"cers":6252,"posant":6253,"preses":6254,"actiu":6255,"nomen":6256,"moció":6257,"2004":6258,"escolars":6259,"acceptar":6260,"Feliu":6261,"façana":6262,"descri":6263,"discrim":6264,"generals":6265,"gràfic":6266,"botiga":6267,"consisteix":6268,"identificar":6269,"Bel":6270,"Bis":6271,"dores":6272,"fira":6273,"nas":6274,"esten":6275,"religi":6276,"Mentre":6277,"Sor":6278,"desper":6279,"Nov":6280,"pida":6281,"domini":6282,"Rajoy":6283,"Edi":6284,"Sar":6285,"Twitter":6286,"aigües":6287,"fum":6288,"mons":6289,"idad":6290,"calia":6291,"tancament":6292,"Joaqu":6293,"berg":6294,"Prat":6295,"ubicació":6296,"ordinador":6297,"diputats":6298,"Núria":6299,"IR":6300,"bom":6301,"respir":6302,"normes":6303,"multi":6304,"empresarial":6305,"vostè":6306,"Resp":6307,"arc":6308,"posem":6309,"teves":6310,"pols":6311,"honor":6312,"Tanmateix":6313,"Sub":6314,"mestre":6315,"unda":6316,"conte":6317,"matar":6318,"conscient":6319,"relig":6320,"Economia":6321,"Comunicació":6322,"ànim":6323,"Unit":6324,"cantant":6325,"relacionades":6326,"Mercat":6327,"agradaria":6328,"Olot":6329,"despeses":6330,"quilòmetres":6331,"Pérez":6332,"PO":6333,"fol":6334,"ècia":6335,"esfor":6336,"estima":6337,"ferències":6338,"pedag":6339,"Reial":6340,"feien":6341,"Pujol":6342,"simple":6343,"COM":6344,"textos":6345,"----":6346,"Alacant":6347,"Fre":6348,"xat":6349,"atures":6350,"atalla":6351,"venen":6352,"créixer":6353,"ilitzar":6354,"àstica":6355,"Tele":6356,"licitud":6357,"fè":6358,"iana":6359,"vaga":6360,"grav":6361,"facin":6362,"upament":6363,"arriben":6364,"humor":6365,"anunciat":6366,"necessiten":6367,"pluja":6368,"emergència":6369,"Ple":6370,"della":6371,"impossible":6372,"ulari":6373,"Està":6374,"vinguda":6375,"gratuïta":6376,"immediat":6377,".)":6378,"ualment":6379,"haure":6380,"sició":6381,"2003":6382,"Moltes":6383,"dedicar":6384,"serveix":6385,"interpretació":6386,"??":6387,"Da":6388,"Gord":6389,"Javi":6390,"Pic":6391,"Torn":6392,"gles":6393,"encs":6394,"alçada":6395,"cicl":6396,"onze":6397,"ester":6398,"previs":6399,"tindre":6400,"Especi":6401,"ofia":6402,"teriors":6403,"ombers":6404,"Gau":6405,"Lab":6406,"PD":6407,"fals":6408,"itiner":6409,"lez":6410,"cops":6411,"tracte":6412,"lluitar":6413,"acompanyat":6414,"institució":6415,"virtual":6416,"Agència":6417,"Pep":6418,"Via":6419,"cular":6420,"har":6421,"iona":6422,"rus":6423,"gro":6424,"podr":6425,"oficina":6426,"preparat":6427,"Xarxa":6428,"Administració":6429,"Ferr":6430,"Lon":6431,"reconegut":6432,"acu":6433,"dubtes":6434,"vins":6435,"secre":6436,"veiem":6437,"realitza":6438,"cripcions":6439,"quadra":6440,"consolid":6441,"Llo":6442,"xo":6443,"dep":6444,"proveï":6445,"consells":6446,"estrena":6447,"malament":6448,"Segona":6449,"Formació":6450,"Altres":6451,"ages":6452,"Desenvol":6453,"probablement":6454,"reflect":6455,"càrrecs":6456,"espectacles":6457,"Ag":6458,"tacions":6459,"poeta":6460,"autob":6461,"laborals":6462,"econòmiques":6463,"ANT":6464,"Territori":6465,"fomentar":6466,"online":6467,"plo":6468,"Laura":6469,"Mares":6470,"María":6471,"accès":6472,"estudiant":6473,"aprovat":6474,"participa":6475,"Adri":6476,"obligades":6477,"Met":6478,"sou":6479,"histori":6480,"Mai":6481,"museu":6482,"Aten":6483,"Et":6484,"inats":6485,"marxar":6486,"Alco":6487,"tardor":6488,"moda":6489,"30h":6490,"ONS":6491,"àmplia":6492,"orci":6493,"adults":6494,"anti":6495,"verd":6496,"actor":6497,"Catalans":6498,"terrassa":6499,"disponibles":6500,"observar":6501,"bran":6502,"arque":6503,"plantilla":6504,"èrcit":6505,"farem":6506,"reunir":6507,"execució":6508,"84":6509,"Apart":6510,"Vir":6511,"convivència":6512,"ocar":6513,"presos":6514,"avall":6515,"monu":6516,"tradicionals":6517,"estranger":6518,"PE":6519,"mm":6520,"mercats":6521,"afecta":6522,"proporcion":6523,"inferior":6524,"Imat":6525,"Sit":6526,"alcoh":6527,"ane":6528,"eter":6529,"Quin":6530,"europeu":6531,"Navar":6532,"hàb":6533,"diques":6534,"terres":6535,"ector":6536,"Carrer":6537,"ajudes":6538,"esportiva":6539,"aproximadament":6540,"múl":6541,"xiller":6542,"did":6543,"empr":6544,"urt":6545,"comprovar":6546,"hip":6547,"marge":6548,"cog":6549,"caps":6550,"definir":6551,"independentistes":6552,"Ana":6553,"Cic":6554,"].":6555,"Copa":6556,"ciutadana":6557,"àlbum":6558,"avanç":6559,"plantejar":6560,"cadascun":6561,"Superior":6562,"pont":6563,"olí":6564,"ilitats":6565,"TAL":6566,"alumne":6567,"competència":6568,"afirmat":6569,"succe":6570,"passeig":6571,"600":6572,"IT":6573,"analitzar":6574,"ames":6575,"comuns":6576,"noct":6577,"mares":6578,"Alber":6579,"idal":6580,"brat":6581,"guanyat":6582,"Ciències":6583,"aportar":6584,"cho":6585,"disposar":6586,"capit":6587,"procla":6588,"realització":6589,"dedicada":6590,"pintura":6591,"Pirineu":6592,"Bell":6593,"DU":6594,"Fo":6595,"fib":6596,"enri":6597,"ciones":6598,"Conselleria":6599,"1r":6600,"ate":6601,"juga":6602,"Quina":6603,"localitat":6604,"efacció":6605,"Empresa":6606,"Socials":6607,"eliminar":6608,"Igualada":6609,"Fernández":6610,"Gordon":6611,"Gas":6612,"restes":6613,"emmagatzem":6614,"viscut":6615,"aràs":6616,"solidaritat":6617,"optim":6618,"subministr":6619,"declaracions":6620,"Sr":6621,"nad":6622,"film":6623,"Recor":6624,"valencians":6625,"espècies":6626,"Nosaltres":6627,"Francisco":6628,"we":6629,"yn":6630,"dients":6631,"guard":6632,"marques":6633,"cookies":6634,"sortit":6635,"ràpidament":6636,"alternativa":6637,"Justícia":6638,"Tu":6639,"restric":6640,"talla":6641,"encar":6642,"revolució":6643,"itzada":6644,"compat":6645,"segurament":6646,"vella":6647,"urn":6648,"roda":6649,"corrent":6650,"imprescindible":6651,"FO":6652,"Hon":6653,"Pri":6654,"gols":6655,"adas":6656,"iber":6657,"avin":6658,"llat":6659,"centra":6660,"Primera":6661,"estiguin":6662,"físic":6663,"96":6664,"Nu":6665,"conjuntament":6666,"mandat":6667,"Esquadra":6668,"lliurament":6669,"situada":6670,"Guill":6671,"atendre":6672,"alegria":6673,"universitat":6674,"factors":6675,"ACN":6676,"bosc":6677,"teixit":6678,"resistència":6679,"GE":6680,"fug":6681,"ky":6682,"wa":6683,"ann":6684,"tena":6685,"ders":6686,"consens":6687,"Marina":6688,"Natural":6689,"mascul":6690,"Alex":6691,"Mac":6692,"abord":6693,"faig":6694,"condició":6695,"demostrar":6696,"provocar":6697,"capçal":6698,"GR":6699,"destru":6700,"illo":6701,"regidors":6702,"ampliar":6703,"85":6704,"Cel":6705,"más":6706,"acollir":6707,"barra":6708,"germans":6709,"ELL":6710,"Gràcia":6711,"dós":6712,"tils":6713,"enfoc":6714,"escollir":6715,"segles":6716,"caldrà":6717,"participen":6718,"franca":6719,"Torra":6720,"dirigir":6721,"europea":6722,"controlar":6723,"inclouen":6724,"reclama":6725,"incloure":6726,"adquirir":6727,"barcelon":6728,"Seny":6729,"Teres":6730,"petició":6731,"tornada":6732,"àrrega":6733,"converteix":6734,"musicals":6735,"professorat":6736,"arxiu":6737,"dècada":6738,"circumstàncies":6739,"jades":6740,"mut":6741,"recon":6742,"acoll":6743,"cord":6744,"passos":6745,"crits":6746,"Estem":6747,"europeus":6748,"posteriorment":6749,"felici":6750,"prestigi":6751,"PU":6752,"ïts":6753,"esmor":6754,"oració":6755,"noies":6756,"deixant":6757,"dependència":6758,"oblidar":6759,"Llor":6760,"content":6761,"òrics":6762,"Present":6763,"demostra":6764,"Amèrica":6765,"secund":6766,"francesa":6767,"rendiment":6768,"Eu":6769,"iors":6770,"asse":6771,"segueixen":6772,"positiva":6773,"gnòst":6774,"pilota":6775,"Rob":6776,"VE":6777,"dansa":6778,"elaboració":6779,"refor":6780,"respostes":6781,"ficada":6782,"ditori":6783,"subs":6784,"gràfica":6785,"yes":6786,"exact":6787,"cartell":6788,"discapacitat":6789,"veuen":6790,"establiments":6791,"Ripol":6792,"traslladar":6793,"bloque":6794,"Dona":6795,"Davant":6796,"Mot":6797,"Pab":6798,"eda":6799,"emple":6800,"descar":6801,"sumar":6802,"teoria":6803,"calefacció":6804,"Rei":6805,"apareixen":6806,"rils":6807,"abandon":6808,"nombroses":6809,"acomi":6810,"oo":6811,"ater":6812,"lec":6813,"clic":6814,"EST":6815,"saben":6816,"labora":6817,"sorpresa":6818,"baixar":6819,"Països":6820,"animal":6821,"Patrimoni":6822,"Protecció":6823,"xocola":6824,"xillerat":6825,"67":6826,"Mel":6827,"cm":6828,"nois":6829,"cable":6830,"cadena":6831,"ariat":6832,"dispositiu":6833,"tius":6834,"period":6835,"esperança":6836,"aconsegueix":6837,"contractació":6838,"Igual":6839,"càmera":6840,"estatal":6841,"admet":6842,"2002":6843,"vira":6844,"territorial":6845,"incorporar":6846,"província":6847,"Sants":6848,"danys":6849,"ificació":6850,"trim":6851,"conté":6852,"asil":6853,"porter":6854,"Any":6855,"camins":6856,"editorial":6857,"pressupostos":6858,"Sitges":6859,"cobr":6860,"òcr":6861,"arbres":6862,"qué":6863,"queu":6864,"expect":6865,"raons":6866,"cartes":6867,"alluny":6868,"frica":6869,"olls":6870,"Europeu":6871,"vulgui":6872,"creixent":6873,"Constitució":6874,"menjador":6875,"TC":6876,"apren":6877,"arra":6878,"guitar":6879,"aquen":6880,"brut":6881,"Produ":6882,"investigadors":6883,"negocis":6884,"Disseny":6885,"AP":6886,"Ball":6887,"Drets":6888,"NI":6889,"Tort":6890,"pte":6891,"rats":6892,"anos":6893,"basat":6894,"somni":6895,"valenciana":6896,"volucion":6897,"vigil":6898,"lectual":6899,"Sosten":6900,"Dones":6901,"Edit":6902,"alitzades":6903,"upació":6904,"fetes":6905,"metge":6906,"límit":6907,"oberts":6908,"error":6909,"germà":6910,"exempl":6911,"indicat":6912,"Soler":6913,"New":6914,"americà":6915,"sostenibilitat":6916,"Pablo":6917,"Ga":6918,"afavor":6919,"eus":6920,"veig":6921,"produït":6922,"lleis":6923,"decideix":6924,"ellesa":6925,"socialistes":6926,"símb":6927,"adequat":6928,"despesa":6929,"espècie":6930,"Maresme":6931,"Gen":6932,"Ren":6933,"cèl":6934,"hel":6935,"uar":6936,"ògraf":6937,"queting":6938,"formada":6939,"Arts":6940,"pati":6941,"pacient":6942,"esportiu":6943,"conversa":6944,"Bro":6945,"dòl":6946,"iar":6947,"adura":6948,"nacionals":6949,"tanca":6950,"dates":6951,"voluntaris":6952,"americana":6953,"introduir":6954,"executiu":6955,"tort":6956,"ences":6957,"llan":6958,"Enguany":6959,"compens":6960,"brit":6961,"CAR":6962,"vatori":6963,"anomenada":6964,"Grau":6965,"deute":6966,"cals":6967,"córrer":6968,"hort":6969,"prèn":6970,"delicte":6971,"metr":6972,"elló":6973,"suposar":6974,"taria":6975,"potencial":6976,"barris":6977,"mira":6978,"trobareu":6979,"consecut":6980,"Setembre":6981,"xifres":6982,"Infantil":6983,"capacitats":6984,"preguntar":6985,"satisfer":6986,"Guillem":6987,"dòlars":6988,"64":6989,"Las":6990,"cè":6991,"tari":6992,"trop":6993,"tendència":6994,"seguida":6995,"formacions":6996,"darreres":6997,"mascl":6998,"Ribera":6999,"residència":7000,"permès":7001,"restaurants":7002,"Vidal":7003,"engan":7004,"creure":7005,"clarament":7006,"AMB":7007,"propietaris":7008,"Acció":7009,"Mob":7010,"ST":7011,"ld":7012,"lel":7013,"dida":7014,"iació":7015,"lig":7016,"viatges":7017,"fers":7018,"Alcal":7019,"mod":7020,"aportació":7021,"caiguda":7022,"afrontar":7023,"93":7024,"Atenció":7025,"Octubre":7026,"bils":7027,"test":7028,"ads":7029,"aba":7030,"podrem":7031,"vendre":7032,"ràdio":7033,"situa":7034,"inclòs":7035,"institucional":7036,"Dissabte":7037,"instrument":7038,"específic":7039,"Menorca":7040,"riquesa":7041,"emocional":7042,"Jornada":7043,"enem":7044,"osofia":7045,"guanya":7046,"denom":7047,"passi":7048,"comunicacions":7049,"ELS":7050,"lleng":7051,"Vilafranca":7052,"avantatges":7053,"capaços":7054,"Sel":7055,"Sin":7056,"oi":7057,"òniques":7058,"ame":7059,"divul":7060,"preser":7061,"recentment":7062,"companya":7063,"donarà":7064,"lliga":7065,"deixem":7066,"continuïtat":7067,"lectiva":7068,"properes":7069,"èxic":7070,"contractes":7071,"pisos":7072,"habituals":7073,"greus":7074,"Batman":7075,"Cha":7076,"cials":7077,"entra":7078,"capdavant":7079,"intercanvi":7080,"pujada":7081,"organitzada":7082,"ube":7083,"buscant":7084,"demostrat":7085,"coordinació":7086,"naixement":7087,"78":7088,"Fut":7089,"eï":7090,"lesa":7091,"conten":7092,"ràpida":7093,"John":7094,"catalan":7095,"laborar":7096,"equipaments":7097,"celebrarà":7098,"vulguin":7099,"planteja":7100,"habilitació":7101,"lleuger":7102,"incendi":7103,"Teresa":7104,"begu":7105,"aclar":7106,"recent":7107,"colla":7108,"apunta":7109,"temporal":7110,"detalla":7111,"missatges":7112,"planeta":7113,"músics":7114,"equilibri":7115,"exili":7116,"Alba":7117,"plats":7118,"legals":7119,"tantes":7120,"Estudi":7121,"institut":7122,"Plataforma":7123,"universitats":7124,"facilit":7125,"aturar":7126,"quarta":7127,"llengües":7128,"Crec":7129,"radi":7130,"inària":7131,"equipament":7132,"aprovació":7133,"valoració":7134,"trencar":7135,"integració":7136,"convenç":7137,"energètica":7138,"vacun":7139,"emocions":7140,"95":7141,"Hos":7142,"SER":7143,"hosp":7144,"questra":7145,"itè":7146,"percent":7147,"comporta":7148,"gudes":7149,"exposicions":7150,"acost":7151,"Martin":7152,"sentiment":7153,"artística":7154,"pensa":7155,"dinam":7156,"candidatura":7157,"Jocs":7158,"m2":7159,"comiss":7160,"Consorci":7161,"socialista":7162,"Polí":7163,"declarar":7164,"desplaç":7165,"podien":7166,"Ama":7167,"Món":7168,"Sil":7169,"anunciar":7170,"femení":7171,"68":7172,"Roma":7173,"SL":7174,"itx":7175,"ampla":7176,"verda":7177,"diferències":7178,"rebu":7179,"pensat":7180,"culpa":7181,"cidental":7182,"víctima":7183,"omplir":7184,"Net":7185,"ks":7186,"vora":7187,"ams":7188,"opèdia":7189,"aparició":7190,"errània":7191,"exemples":7192,"acords":7193,"Sud":7194,"Sembla":7195,"Espanyol":7196,"Gestió":7197,"3r":7198,"Aus":7199,"sòl":7200,"vats":7201,"èries":7202,"percep":7203,"conserv":7204,"vigent":7205,"00h":7206,"espectacular":7207,"categories":7208,"Blog":7209,"Posted":7210,"senzilla":7211,"perfectament":7212,"Vam":7213,"VAL":7214,"Yo":7215,"nasc":7216,"Ín":7217,"usa":7218,"vendes":7219,"plaer":7220,"efica":7221,"Plan":7222,"habilitats":7223,"climàtic":7224,"2n":7225,"PAR":7226,"lema":7227,"inen":7228,"eck":7229,"diagnòst":7230,"Torres":7231,"càrrega":7232,"oficials":7233,"giron":7234,"rellev":7235,"procediment":7236,"ampliació":7237,"Dra":7238,"Fis":7239,"Sch":7240,"indis":7241,"Quant":7242,"contras":7243,"entrenador":7244,"Projecte":7245,"Desenvolupament":7246,"Cà":7247,"Pilar":7248,"tercers":7249,"preocup":7250,"subrat":7251,"ivar":7252,"comencen":7253,"frac":7254,"classificació":7255,"inversions":7256,"IM":7257,"Pàg":7258,"dament":7259,"mass":7260,"onis":7261,"leu":7262,"dures":7263,"meres":7264,"mostr":7265,"similar":7266,"fondre":7267,"tiples":7268,"ascen":7269,"digitals":7270,"Suprem":7271,"iblioteques":7272,"Mostra":7273,"aventura":7274,"Facebook":7275,"Banc":7276,"Pons":7277,"fór":7278,"hero":7279,"ález":7280,"visuals":7281,"targeta":7282,"monit":7283,"Orient":7284,"____":7285,"Cinema":7286,"emàtic":7287,"Ell":7288,"Escri":7289,"brica":7290,"recepció":7291,"requereix":7292,"Daniel":7293,"Imatge":7294,"Mur":7295,"tos":7296,"tades":7297,"atri":7298,"isos":7299,"edicions":7300,"mostren":7301,"gràcia":7302,"bio":7303,"comunicar":7304,"científic":7305,"conscients":7306,"incloent":7307,"Llavors":7308,"intensitat":7309,"adaptació":7310,"assessorament":7311,"mula":7312,"ation":7313,"estu":7314,"diri":7315,"solar":7316,"màquina":7317,"canviat":7318,"ècades":7319,"títols":7320,"Canal":7321,"naturalesa":7322,"íssima":7323,"publicitat":7324,"comportament":7325,"All":7326,"JO":7327,"ró":7328,"rol":7329,"recap":7330,"vie":7331,"istema":7332,"entrega":7333,"sanitari":7334,"INA":7335,"Roig":7336,"consellera":7337,"EUA":7338,"conservació":7339,"Gan":7340,"Rog":7341,"gem":7342,"úst":7343,"emat":7344,"ileg":7345,"ligència":7346,"crema":7347,"programari":7348,"mostrat":7349,"Ferrer":7350,"Llibre":7351,"Londres":7352,"Ps":7353,"saf":7354,"amat":7355,"plana":7356,"roman":7357,"establiment":7358,"jurat":7359,"Tecn":7360,"xerrada":7361,"González":7362,"dècades":7363,"endres":7364,"trenta":7365,"cta":7366,"parad":7367,"actr":7368,"distr":7369,"moure":7370,"ònics":7371,"aparèixer":7372,"representant":7373,"Premis":7374,"expressar":7375,"Press":7376,"Tenim":7377,"assumir":7378,"meravell":7379,"Rodrí":7380,"arquitectura":7381,"mètode":7382,"Bot":7383,"Ric":7384,"gis":7385,"plata":7386,"utilitzen":7387,"milit":7388,"llegint":7389,"dirigida":7390,"avançat":7391,"semblant":7392,"Rodríguez":7393,"CH":7394,"Desc":7395,"Har":7396,"dics":7397,"uació":7398,"Àrea":7399,"enge":7400,"obtin":7401,"espir":7402,"plau":7403,"responsab":7404,"balcó":7405,"europe":7406,"determinació":7407,"costos":7408,"dificultat":7409,"orientació":7410,"primavera":7411,"pun":7412,"decret":7413,"unió":7414,"grana":7415,"talent":7416,"acompanyar":7417,"Char":7418,"exercir":7419,"flors":7420,"protocol":7421,"Abril":7422,"Data":7423,"Mem":7424,"Sha":7425,"Ste":7426,"gall":7427,"hui":7428,"lvar":7429,"mpt":7430,"ètiques":7431,"armes":7432,"siga":7433,"superi":7434,"dispositius":7435,"consta":7436,"ample":7437,"Promo":7438,"únicament":7439,"rock":7440,"Divendres":7441,"feliç":7442,"Joaquim":7443,"Seb":7444,"Wh":7445,"èut":7446,"orld":7447,"pensant":7448,"governs":7449,"instruments":7450,"agradat":7451,"adolescents":7452,"múltiples":7453,"BN":7454,"FOR":7455,"gim":7456,"ulat":7457,"yer":7458,"degut":7459,"comand":7460,"comfort":7461,"acull":7462,"actius":7463,"sabia":7464,"nutr":7465,"costum":7466,"................................":7467,"Ahir":7468,"MB":7469,"Pod":7470,"Villa":7471,"ami":7472,"pogués":7473,"visible":7474,"alitzacions":7475,"pendent":7476,"símpt":7477,"definició":7478,"clàssic":7479,"ajuts":7480,"4t":7481,"ballar":7482,"batalla":7483,"rada":7484,"ritoris":7485,"soluta":7486,"fulles":7487,"Arxiu":7488,"Deixa":7489,"Agu":7490,"CB":7491,"CU":7492,"ier":7493,"escap":7494,"ance":7495,"repar":7496,"sucre":7497,"metod":7498,"mereix":7499,"info":7500,"esperem":7501,"descobr":7502,"1999":7503,"integral":7504,"òlica":7505,"excepte":7506,"cadascú":7507,"yent":7508,"asa":7509,"iri":7510,"eccions":7511,"mesa":7512,"polla":7513,"2001":7514,"poblacions":7515,"fiquen":7516,"Rovira":7517,"retalla":7518,"Publicado":7519,"Recerca":7520,"contribuir":7521,"quipèdia":7522,"98":7523,"Pon":7524,"sín":7525,"cine":7526,"ató":7527,"convid":7528,"projecció":7529,"rael":7530,"plàstic":7531,"cionalitat":7532,"baixes":7533,"riscos":7534,"condicionat":7535,"espectadors":7536,"fàcilment":7537,"normalitat":7538,"nombrosos":7539,"denunciar":7540,"esforços":7541,"Pan":7542,"rica":7543,"uta":7544,"geu":7545,"ànima":7546,"moral":7547,"considerat":7548,"recepta":7549,"Cambra":7550,"expliquen":7551,"Esteve":7552,"Festes":7553,"bul":7554,"ene":7555,"ish":7556,"esto":7557,"Coment":7558,"cru":7559,"estàs":7560,"organismes":7561,"Vicent":7562,"Javier":7563,"Fu":7564,"Il":7565,"Plat":7566,"gic":7567,"àcia":7568,"ños":7569,"enregistr":7570,"reals":7571,"trada":7572,"territoris":7573,"absoluta":7574,"marit":7575,"deixi":7576,"ingre":7577,"torns":7578,"esportives":7579,"encarregat":7580,"circulació":7581,"assenyalat":7582,"límits":7583,"62":7584,"Garri":7585,"Mire":7586,"Pú":7587,"coc":7588,"dada":7589,"ïm":7590,"semin":7591,"rival":7592,"icis":7593,"llibrer":7594,"ofertes":7595,"democràtica":7596,"agrair":7597,"cadascuna":7598,"policial":7599,"FER":7600,"drom":7601,"lic":7602,"mall":7603,"rural":7604,"ètics":7605,"perd":7606,"cte":7607,"taxa":7608,"parlat":7609,"riel":7610,"llit":7611,"olau":7612,"simil":7613,"cedir":7614,"Interior":7615,"platges":7616,"bàsics":7617,"gossos":7618,"infraestructures":7619,"requisits":7620,"hí":7621,"ila":7622,"tura":7623,"ualitat":7624,"anom":7625,"adquis":7626,"ambla":7627,"Andre":7628,"publicada":7629,"velló":7630,"autonomia":7631,"aportacions":7632,"triomf":7633,"Mèxic":7634,"Robert":7635,"ajus":7636,"bó":7637,"cim":7638,"orge":7639,"inicia":7640,"asti":7641,"vergon":7642,"visu":7643,"finalitzar":7644,"colum":7645,"aules":7646,"ràs":7647,"millores":7648,"màr":7649,"subvencions":7650,"utilitzant":7651,"descens":7652,"valorar":7653,"distin":7654,"adequada":7655,"Oliver":7656,"lateral":7657,"testimoni":7658,"Gre":7659,"fia":7660,"vades":7661,"haví":7662,"caixa":7663,"crea":7664,"ússia":7665,"ERA":7666,"Proc":7667,"cantar":7668,"utilitzat":7669,"dinàmica":7670,"Llen":7671,"existents":7672,"mascar":7673,"estratègies":7674,"vermell":7675,"complicat":7676,"Je":7677,"Riu":7678,"dita":7679,"àci":7680,"composició":7681,"despleg":7682,"vides":7683,"derr":7684,"cinte":7685,"promoci":7686,"COO":7687,"muntar":7688,"frase":7689,"interpretar":7690,"quarts":7691,"Cant":7692,"ader":7693,"pm":7694,"sexe":7695,"expul":7696,"aries":7697,"podríem":7698,"Ripoll":7699,"Document":7700,"Pública":7701,"lars":7702,"sà":7703,"aces":7704,"tinyent":7705,"Martor":7706,"...)":7707,"penso":7708,"privileg":7709,"Famílies":7710,"Figueres":7711,"Nic":7712,"RU":7713,"cha":7714,"coberta":7715,"vital":7716,"anci":7717,"retr":7718,"proposar":7719,"hipot":7720,"contrad":7721,"iniciat":7722,"250":7723,"desenvolupat":7724,"dign":7725,"compromet":7726,"electrònica":7727,"científica":7728,"Brus":7729,"crític":7730,"explotació":7731,"denúncia":7732,"Dret":7733,"Isab":7734,"Wil":7735,"ea":7736,"inqui":7737,"estàn":7738,"delictes":7739,"Quim":7740,"salvar":7741,"digit":7742,"comptarà":7743,"bisbe":7744,"jaments":7745,"pics":7746,"entén":7747,"isis":7748,"usar":7749,"sula":7750,"Escal":7751,"financ":7752,"acaben":7753,"Consulta":7754,"afirmar":7755,"panor":7756,"Blan":7757,"escrita":7758,"bellesa":7759,"kes":7760,"alerta":7761,"orgull":7762,"amos":7763,"iago":7764,"corrupció":7765,"llig":7766,"consideren":7767,"conceptes":7768,"fruita":7769,"progressi":7770,"'\"":7771,"uari":7772,"situar":7773,"telef":7774,"President":7775,"Ontinyent":7776,"vaixell":7777,"bicicleta":7778,"Pàgina":7779,"Cru":7780,"cobrir":7781,"esports":7782,"anirà":7783,"invest":7784,"rescat":7785,"audi":7786,"Dijous":7787,"Casal":7788,"destaquen":7789,"guanyador":7790,"curios":7791,"pilot":7792,"començarà":7793,"elaborat":7794,"retirar":7795,"xiquets":7796,"brillant":7797,"xocolata":7798,"Clar":7799,"IG":7800,"Mass":7801,"narr":7802,"pact":7803,"samar":7804,"èmica":7805,"antics":7806,"exhib":7807,"Jove":7808,"aspir":7809,"quelcom":7810,"Rivera":7811,"perfecta":7812,"ròquia":7813,"77":7814,"CR":7815,"Din":7816,"Juny":7817,"Vill":7818,"abst":7819,"foren":7820,"Investig":7821,"autora":7822,"Estic":7823,"sales":7824,"organisme":7825,"errors":7826,"carrega":7827,"España":7828,"professora":7829,"cú":7830,"top":7831,"yst":7832,"emissions":7833,"lid":7834,"vela":7835,"stre":7836,"podreu":7837,"solitari":7838,"!!!!":7839,"faltar":7840,"modificació":7841,"cabell":7842,"dimensions":7843,"Rubí":7844,"Àngel":7845,"Rafael":7846,"Bàs":7847,"Bages":7848,"EX":7849,"Jap":7850,"PV":7851,"Poble":7852,"facció":7853,"mina":7854,"orí":7855,"estad":7856,"parà":7857,"exèrcit":7858,"viola":7859,"potenciar":7860,"canals":7861,"transmetre":7862,"lector":7863,"votació":7864,"arros":7865,"Sanitat":7866,"dotze":7867,"elaborar":7868,"ogràfic":7869,"pronunci":7870,"Isabel":7871,"parada":7872,"veritable":7873,"seguim":7874,"reres":7875,"destinat":7876,"negociació":7877,"transició":7878,"relleu":7879,"Llegir":7880,"Cristina":7881,"120":7882,"Usu":7883,"neix":7884,"ence":7885,"noi":7886,"ènia":7887,"ivitats":7888,"matrimoni":7889,"covid":7890,"ituds":7891,"ido":7892,"formulari":7893,"estrella":7894,"funcional":7895,"lletres":7896,"relaxar":7897,"Unides":7898,"facilitat":7899,"independentisme":7900,"ensenyar":7901,"bàsiques":7902,"ICV":7903,"Oficina":7904,"contaminació":7905,"legislatura":7906,"trimestre":7907,"BO":7908,"YA":7909,"reac":7910,"item":7911,"pertin":7912,"adia":7913,"cava":7914,"trets":7915,"lectors":7916,"causes":7917,"Modi":7918,"express":7919,"accepta":7920,"assenyala":7921,"alternatives":7922,"sindicats":7923,"Facultat":7924,"repartiment":7925,"Eix":7926,"Taller":7927,"pac":7928,"tò":7929,"deria":7930,"embl":7931,"acle":7932,"veient":7933,"ectura":7934,"meta":7935,"clín":7936,"Arque":7937,"feder":7938,"Manel":7939,"html":7940,"escriptura":7941,"solament":7942,"Espanyola":7943,"Aragó":7944,"transparència":7945,"havíem":7946,"Eva":7947,"ly":7948,"vament":7949,"arti":7950,"ací":7951,"derrot":7952,"intern":7953,"Joventut":7954,"comentar":7955,"monar":7956,"caminar":7957,"Campus":7958,"Autor":7959,"detectar":7960,"fenomen":7961,"BAR":7962,"Ciu":7963,"jer":7964,"rum":7965,"alisme":7966,"potència":7967,"novetat":7968,"exercicis":7969,"impression":7970,"implicació":7971,"Director":7972,"alcohol":7973,"Gel":7974,"ced":7975,"ii":7976,"ificar":7977,"assemblea":7978,"provoca":7979,"taron":7980,"plas":7981,"renunci":7982,"rigor":7983,"eficiència":7984,"privades":7985,"agradable":7986,"marcador":7987,"ogràfica":7988,"repetir":7989,"Bru":7990,"Ib":7991,"nena":7992,"Álvar":7993,"aren":7994,"rida":7995,"ivo":7996,"negres":7997,"lules":7998,"transmissió":7999,"dormir":8000,"Guar":8001,"RAN":8002,"Colom":8003,"científics":8004,"clubs":8005,"Just":8006,"Ateneu":8007,"Sebasti":8008,"bro":8009,"dan":8010,"full":8011,"rut":8012,"inser":8013,"assos":8014,"recórrer":8015,"fidel":8016,"Molts":8017,"docent":8018,"cooperació":8019,"inauguració":8020,"components":8021,"centenars":8022,"enorme":8023,"92":8024,"Ay":8025,"pistes":8026,"wo":8027,"Àfrica":8028,"dedica":8029,"repressió":8030,"seqü":8031,"expan":8032,"ellà":8033,"Març":8034,"artístic":8035,"Def":8036,"continuen":8037,"turística":8038,"mòbils":8039,"sexuals":8040,"amenaça":8041,"Roger":8042,"Bala":8043,"Sh":8044,"advocat":8045,"raon":8046,"essar":8047,"essencial":8048,"mode":8049,"Santiago":8050,"optar":8051,"interessants":8052,"ISBN":8053,"instruccions":8054,"particulars":8055,"influència":8056,"Víctor":8057,"ècnica":8058,"NE":8059,"XXI":8060,"You":8061,"bell":8062,"nic":8063,"altes":8064,"atoris":8065,"queix":8066,"amba":8067,"plom":8068,"periò":8069,"destí":8070,"esperant":8071,"ronda":8072,"figures":8073,"proporciona":8074,"blocs":8075,"felicitat":8076,"Sols":8077,"UAB":8078,"lú":8079,"land":8080,"reacció":8081,"indo":8082,"lides":8083,"cossos":8084,"dard":8085,"Uns":8086,"Argent":8087,"saps":8088,"pobresa":8089,"aprofun":8090,"enllaços":8091,"òlegs":8092,"solidària":8093,"Horta":8094,"taules":8095,"capítol":8096,"86":8097,"Dades":8098,"Vent":8099,"compartit":8100,"posicion":8101,"sentiments":8102,"signar":8103,"Viquipèdia":8104,"Paul":8105,"oficines":8106,"parlen":8107,"parlem":8108,"Atl":8109,"publicacions":8110,"nia":8111,"ícola":8112,"esbor":8113,"redacció":8114,"inet":8115,"usions":8116,"presidència":8117,"mez":8118,"java":8119,"consult":8120,"estrelles":8121,"llegit":8122,"espanyoles":8123,"Regid":8124,"iki":8125,"atacs":8126,"prèviament":8127,"Jornades":8128,"mecanismes":8129,"impostos":8130,"aïlla":8131,"audiovisual":8132,"Professi":8133,"AS":8134,"Ali":8135,"Corn":8136,"Ir":8137,"Jer":8138,"cob":8139,"lot":8140,"rutes":8141,"twitter":8142,"–,":8143,"eses":8144,"esió":8145,"estos":8146,"tric":8147,"Enseny":8148,"finestra":8149,"vocats":8150,"permeti":8151,"mantenen":8152,"establert":8153,"Record":8154,"Terres":8155,"televis":8156,"números":8157,"corresponents":8158,"docents":8159,"saludable":8160,"Hom":8161,"LS":8162,"MAN":8163,"Ober":8164,"afor":8165,"king":8166,"conferències":8167,"allí":8168,"...]":8169,"cinquant":8170,"guarda":8171,"semblar":8172,"circular":8173,"sobiran":8174,"legislació":8175,"connectar":8176,"propietari":8177,"freqüència":8178,"elèctrica":8179,"Diumen":8180,"Felip":8181,"700":8182,"><":8183,"Vella":8184,"lem":8185,"amo":8186,"parcial":8187,"portada":8188,"potent":8189,"Unitat":8190,"estrany":8191,"saltar":8192,"transformar":8193,"proteï":8194,"sign":8195,"companyies":8196,"regula":8197,"núm":8198,"horitz":8199,"conegudes":8200,"Israel":8201,"elèctric":8202,"avinguda":8203,"esmorzar":8204,"europees":8205,"superiors":8206,"Dill":8207,"cra":8208,"gira":8209,"sèn":8210,"iti":8211,"urbana":8212,"accel":8213,"cari":8214,"ficant":8215,"agenda":8216,"setman":8217,"tima":8218,"torre":8219,"herència":8220,"flor":8221,"quadre":8222,"arxius":8223,"Gerard":8224,"Ocupació":8225,"engany":8226,"Llar":8227,"burg":8228,"cem":8229,"là":8230,"pòsit":8231,"endemà":8232,"itada":8233,"seca":8234,"adonar":8235,"adjudic":8236,"uren":8237,"asset":8238,"denuncia":8239,"core":8240,"béns":8241,"TAR":8242,"surten":8243,"Categ":8244,"entrenament":8245,"respectivament":8246,"esquerres":8247,"similars":8248,"ping":8249,"infin":8250,"presump":8251,"meves":8252,"medic":8253,"Esta":8254,"Pare":8255,"demanen":8256,"Serà":8257,"balanç":8258,"Actualitat":8259,"consultes":8260,"fantas":8261,"moderna":8262,"Riera":8263,"màrqueting":8264,"zero":8265,"ases":8266,"importa":8267,"creuen":8268,"juvenil":8269,"canvia":8270,"bandera":8271,"tallar":8272,"1998":8273,"establer":8274,"infantils":8275,"concretament":8276,"impedir":8277,"Família":8278,"assignatura":8279,"depèn":8280,"Diumenge":8281,"Ada":8282,"Bany":8283,"Gru":8284,"His":8285,"bac":8286,"eor":8287,"mí":8288,"esteu":8289,"dieta":8290,"excus":8291,"vian":8292,"preocupa":8293,"matinada":8294,"sorte":8295,"inclosos":8296,"semblava":8297,"individuals":8298,"correcte":8299,"normalment":8300,"percentatge":8301,"derrota":8302,"Bes":8303,"Hern":8304,"Jan":8305,"uir":8306,"ïn":8307,"lava":8308,"quing":8309,"ato":8310,"ago":8311,"tractaments":8312,"patit":8313,"passió":8314,"gestion":8315,"representen":8316,"òlic":8317,"Obser":8318,"renova":8319,"Dimarts":8320,"acollida":8321,"destr":8322,"eval":8323,"pà":8324,"gue":8325,"parets":8326,"prevent":8327,"escult":8328,"cerves":8329,"singular":8330,"destinació":8331,"destacats":8332,"botigues":8333,"incorporació":8334,"Autònom":8335,"debut":8336,"periodistes":8337,"CCOO":8338,"bel":8339,"endins":8340,"unir":8341,"estabilitat":8342,"suau":8343,"Alfons":8344,"cervell":8345,"incidència":8346,"ollers":8347,"basada":8348,"ulada":8349,"Corts":8350,"viatjar":8351,"correcta":8352,"encaix":8353,"equival":8354,"líders":8355,"traducció":8356,"Gabriel":8357,"haurem":8358,"exactament":8359,"Dilluns":8360,"(@":8361,"falla":8362,"eros":8363,"arbre":8364,"revisió":8365,"ambdós":8366,"lets":8367,"letes":8368,"inscripcions":8369,"Enginy":8370,"discussió":8371,"temp":8372,"oferirà":8373,"Montse":8374,"començament":8375,"renovació":8376,"crítiques":8377,"absolutament":8378,"vessant":8379,"Brussel":8380,"Bur":8381,"Rússia":8382,"Sigu":8383,"pd":8384,"detingut":8385,"onant":8386,"inades":8387,"ossos":8388,"imm":8389,"imposar":8390,"obtingut":8391,"eto":8392,"ecos":8393,"moltíssim":8394,"1936":8395,"salv":8396,"patri":8397,"bancs":8398,"May":8399,"Ass":8400,"completar":8401,"faria":8402,"ambientals":8403,"factor":8404,"gegant":8405,"eficaç":8406,"CF":8407,"Dar":8408,"cement":8409,"recinte":8410,"usia":8411,"orials":8412,"preparació":8413,"creativitat":8414,"crèdit":8415,"Presentació":8416,"72":8417,"num":8418,"ry":8419,"posarà":8420,"versos":8421,"sortides":8422,"assaig":8423,"Cooper":8424,"podràs":8425,"escenaris":8426,"receptes":8427,"desenvolupa":8428,"Alzira":8429,"Senyor":8430,"bull":8431,"ctora":8432,"vidre":8433,"corri":8434,"avís":8435,"produeixen":8436,"incial":8437,"salt":8438,"iliari":8439,"soroll":8440,"realitzen":8441,"relax":8442,"defen":8443,"Coloma":8444,"Torrent":8445,"gruix":8446,"acompanyament":8447,"Mercè":8448,"electorals":8449,"temperatures":8450,"generacions":8451,"Martorell":8452,"Leg":8453,"ieu":8454,"vil":8455,"alts":8456,"ele":8457,"oro":8458,"ict":8459,"composit":8460,"escales":8461,"empresaris":8462,"turístic":8463,"INS":8464,"manifestacions":8465,"intenta":8466,"determinat":8467,"Volem":8468,"fonamentals":8469,"conflictes":8470,"barreja":8471,"Dolors":8472,"immediatament":8473,"secundària":8474,"nascut":8475,"ciment":8476,"diaris":8477,"rius":8478,"marx":8479,"rodes":8480,"poli":8481,"cated":8482,"sento":8483,"salari":8484,"federació":8485,"basa":8486,"treballadores":8487,"queras":8488,"Urban":8489,"bàsquet":8490,"residents":8491,"manipu":8492,"Tortosa":8493,"800":8494,"Gol":8495,"Ka":8496,"Tag":8497,"chi":8498,"ket":8499,"blanca":8500,"Artur":8501,"habilitat":8502,"triques":8503,"apropar":8504,"pesse":8505,"ciutadà":8506,"horaris":8507,"confirmar":8508,"acadèmic":8509,"lògica":8510,"cambra":8511,"Especial":8512,"diagnòstic":8513,"símptomes":8514,"Llengua":8515,"Foment":8516,"nal":8517,"pí":8518,"comer":8519,"obs":8520,"versions":8521,"icies":8522,"prevista":8523,"Aren":8524,"estren":8525,"Concurs":8526,"udio":8527,"Diada":8528,"productors":8529,"esquena":8530,"determinar":8531,"combatre":8532,"idioma":8533,"fundació":8534,"permís":8535,"79":8536,"::":8537,"Gó":8538,"HO":8539,"Liter":8540,"Nacions":8541,"Xà":8542,"his":8543,"isió":8544,"semi":8545,"antigues":8546,"irregular":8547,"ilia":8548,"leta":8549,"paret":8550,"societats":8551,"formats":8552,"oferim":8553,"motiva":8554,"Accés":8555,"CS":8556,"afa":8557,"xos":8558,"antena":8559,"ecres":8560,"cinemat":8561,"simb":8562,"campionat":8563,"vestit":8564,"indicacions":8565,"UNI":8566,"graus":8567,"Dimecres":8568,"inquiet":8569,"Bloc":8570,"Gim":8571,"MES":8572,"Raf":8573,"World":8574,"lència":8575,"ram":8576,"ligent":8577,"trobades":8578,"jogu":8579,"anarqu":8580,"LAN":8581,"Coordin":8582,"Empres":8583,"Audiència":8584,"artifici":8585,"CV":8586,"quena":8587,"parelles":8588,"liar":8589,"exer":8590,"veí":8591,"paga":8592,"reglament":8593,"cron":8594,"infect":8595,"estaran":8596,"sanitaris":8597,"existent":8598,"greix":8599,"alemany":8600,"enfrontar":8601,"lingüística":8602,"financer":8603,"Az":8604,"Hil":8605,"MS":8606,"Taula":8607,"gs":8608,"grec":8609,"intr":8610,"immun":8611,"veia":8612,"joventut":8613,"enciat":8614,"andro":8615,"Polit":8616,"propòsit":8617,"contagi":8618,"jutjat":8619,"reclamar":8620,"correctament":8621,"automàtic":8622,"circuit":8623,"recicla":8624,"ingredients":8625,"Cí":8626,"Garr":8627,"Lin":8628,"MEN":8629,"ajut":8630,"cull":8631,"gnos":8632,"pru":8633,"itzats":8634,"poema":8635,"ivat":8636,"aux":8637,"presentarà":8638,"inclusió":8639,"germana":8640,"propietats":8641,"contín":8642,"personalitat":8643,"tribunal":8644,"determinats":8645,"Granollers":8646,"judicis":8647,"Lloret":8648,"hàbits":8649,"Nació":8650,"ÈN":8651,"enmig":8652,"dim":8653,"suposat":8654,"encicl":8655,"Arri":8656,"ONG":8657,"Roja":8658,"Chr":8659,"guardia":8660,"modificar":8661,"proporcionar":8662,"introducció":8663,"excepció":8664,"obligació":8665,"clàssica":8666,"magistr":8667,"TURA":8668,"humanitat":8669,"restriccions":8670,"AV":8671,"Bona":8672,"Clas":8673,"Rambla":8674,"oest":8675,"oner":8676,"trama":8677,"eixos":8678,"Real":8679,"activar":8680,"representar":8681,"eficient":8682,"CET":8683,"mòdul":8684,"difícils":8685,"originals":8686,"criteri":8687,"ombra":8688,"Auditori":8689,"Bol":8690,"Dins":8691,"Pont":8692,"orat":8693,"ositat":8694,"adr":8695,"ign":8696,"aficion":8697,"cancel":8698,"negra":8699,"realitzades":8700,"filosofia":8701,"ficacions":8702,"baixos":8703,"muntatge":8704,"nervi":8705,"dibuixos":8706,"còmode":8707,"Afeg":8708,"Novembre":8709,"Adrià":8710,"Cicle":8711,"Balaguer":8712,"Nit":8713,"Vives":8714,"punta":8715,"zena":8716,"rehabilitació":8717,"pros":8718,"creiem":8719,"meria":8720,"sorprenent":8721,"Cambrils":8722,"acomiad":8723,"Japó":8724,"Camí":8725,"Dal":8726,"Ph":8727,"Sam":8728,"Tir":8729,"lids":8730,"previ":8731,"Ener":8732,"Insta":8733,"trobava":8734,"Coneix":8735,"torneig":8736,"oft":8737,"construït":8738,"Solid":8739,"drell":8740,"Bernat":8741,"abandonar":8742,"alarma":8743,"vàrem":8744,"Temps":8745,"metropolit":8746,"llançar":8747,"Medit":8748,"Sus":8749,"lam":8750,"embol":8751,"uria":8752,"escollit":8753,"roca":8754,"passarà":8755,"ficció":8756,"agent":8757,"edo":8758,"trobo":8759,"Revista":8760,"Tota":8761,"senyal":8762,"dinà":8763,"medicina":8764,"democràtic":8765,"declarat":8766,"efectiva":8767,"Junqueras":8768,"planificació":8769,"Índia":8770,"Mc":8771,"OB":8772,"Pom":8773,"UT":8774,"work":8775,"ïa":8776,"òriques":8777,"atès":8778,"iro":8779,"cart":8780,"mart":8781,"tindrem":8782,"clima":8783,"Andr":8784,"sabeu":8785,"records":8786,"explorar":8787,"literari":8788,"mínima":8789,"específica":8790,"vivim":8791,"acostu":8792,"immediata":8793,"mantingut":8794,"69":8795,"Lloc":8796,"We":8797,"lin":8798,"mari":8799,"vals":8800,"reus":8801,"osament":8802,"cafè":8803,"Ella":8804,"absor":8805,"plens":8806,"jubi":8807,"consent":8808,"professió":8809,"italià":8810,"ajuden":8811,"muntanyes":8812,"augmenta":8813,"àstics":8814,"anteriorment":8815,"Mediter":8816,"89":8817,"Sent":8818,"Serr":8819,"cobertura":8820,"ker":8821,"lvia":8822,"wer":8823,"atmos":8824,"reiter":8825,"urgent":8826,"disfres":8827,"existeixen":8828,"quantes":8829,"frontera":8830,"vicepresident":8831,"certificat":8832,"Acad":8833,"GI":8834,"Ign":8835,"Poc":8836,"xines":8837,"detin":8838,"revolucion":8839,"urnes":8840,"preten":8841,"preocupació":8842,"promou":8843,"mirant":8844,"asseguren":8845,"garantia":8846,"disting":8847,"clàssics":8848,"exclusivament":8849,"Gómez":8850,"gels":8851,"ssa":8852,"ònies":8853,"encert":8854,"reforç":8855,"informes":8856,"ith":8857,"assegu":8858,"descarregar":8859,"ech":8860,"llanç":8861,"mann":8862,"voltes":8863,"històrics":8864,"lletra":8865,"baixada":8866,"Trad":8867,"afectades":8868,"candidats":8869,"avantatge":8870,"Algunes":8871,"comprensió":8872,"modalitat":8873,"Aca":8874,"By":8875,"Gil":8876,"litat":8877,"select":8878,"eries":8879,"gueren":8880,"partid":8881,"prevenir":8882,"temàtica":8883,"gramunt":8884,"poders":8885,"realitzada":8886,"centenar":8887,"norma":8888,"Vicenç":8889,"acostar":8890,"terrenys":8891,"Glob":8892,"fitxer":8893,"certesa":8894,"Alcoi":8895,"Agust":8896,"Neg":8897,"tament":8898,"anuncia":8899,"orr":8900,"otxa":8901,"metges":8902,"tancats":8903,"neur":8904,"sorgir":8905,"Amics":8906,"Primària":8907,"Urbana":8908,"assenyalar":8909,"satisfacció":8910,"conserva":8911,"reforçar":8912,"Modifica":8913,"Ensenyament":8914,"Aprof":8915,"Día":8916,"FP":8917,"forts":8918,"itzen":8919,"gaudi":8920,"hop":8921,"nez":8922,"iliar":8923,"transcen":8924,"Juliol":8925,"condicion":8926,"afecten":8927,"reduït":8928,"mobilitz":8929,"explos":8930,"bossa":8931,"recolz":8932,"Particip":8933,"càmeres":8934,"Llegeix":8935,"adoptar":8936,"assassinat":8937,"procedents":8938,"Llorenç":8939,"rebuig":8940,"actriu":8941,"Fort":8942,"Lib":8943,"Màs":8944,"MENT":8945,"Za":8946,"ajust":8947,"apreci":8948,"ñez":8949,"oterà":8950,"conjunta":8951,"posi":8952,"pavelló":8953,"inscri":8954,"pendents":8955,"cua":8956,"tornarà":8957,"vinguts":8958,"portava":8959,"tua":8960,"teriorment":8961,"Campionat":8962,"combinació":8963,"semblen":8964,"comparació":8965,"Porta":8966,"malalts":8967,"autònoms":8968,"Vendrell":8969,"mètodes":8970,"absència":8971,"anomena":8972,"Cs":8973,"Cort":8974,"Fabra":8975,"Pass":8976,"glu":8977,"cist":8978,"atro":8979,"oneta":8980,"parròquia":8981,"ignor":8982,"insta":8983,"escor":8984,"discut":8985,"Aliment":8986,"idat":8987,"valora":8988,"Arnau":8989,"Republic":8990,"vincu":8991,"operacions":8992,"autoritat":8993,"contactes":8994,"guardar":8995,"extrema":8996,"ministeri":8997,"Activitats":8998,"éssers":8999,"enciclopèdia":9000,"Instagram":9001,"Gi":9002,"Preg":9003,"[...]":9004,"dy":9005,"tamb":9006,"esos":9007,"anuals":9008,"impressió":9009,"ulant":9010,"abet":9011,"plor":9012,"poemes":9013,"puja":9014,"Arquit":9015,"transmet":9016,"inicialment":9017,"protesta":9018,"CIONS":9019,"servit":9020,"esdevenir":9021,"literària":9022,"conduir":9023,"veter":9024,"fundador":9025,"vigor":9026,"emerg":9027,"hospitals":9028,"63":9029,"Allà":9030,"Eur":9031,"Jx":9032,"Mà":9033,"tèr":9034,"indrets":9035,"combat":9036,"llançament":9037,"afric":9038,"potenci":9039,"mini":9040,"ogar":9041,"màgia":9042,"infància":9043,"hauríem":9044,"campanyes":9045,"bonic":9046,"ALS":9047,"àlcul":9048,"fossin":9049,"patroci":9050,"sensib":9051,"rellot":9052,"símbol":9053,"comerços":9054,"Ignasi":9055,"ár":9056,"itzacions":9057,"naval":9058,"menú":9059,"Barri":9060,"Carmen":9061,"explicació":9062,"regulació":9063,"garanteix":9064,"universal":9065,"Blanca":9066,"delegat":9067,"recomanacions":9068,"suspensió":9069,"afavorir":9070,"atribu":9071,"Promoció":9072,"Cur":9073,"GO":9074,"Tru":9075,"Zona":9076,"bord":9077,"mita":9078,"sons":9079,"ye":9080,"dedi":9081,"unten":9082,"adà":9083,"totalitat":9084,"Innovació":9085,"locar":9086,"app":9087,"oblida":9088,"ANC":9089,"dram":9090,"còpia":9091,"elevat":9092,"republicans":9093,"proveïdors":9094,"Gandia":9095,"Amer":9096,"ejar":9097,"pra":9098,"icada":9099,"llistes":9100,"intervencions":9101,"polis":9102,"Barber":9103,"socio":9104,"Antic":9105,"pateixen":9106,"resultar":9107,"limitat":9108,"necessitem":9109,"observa":9110,"acusat":9111,"redact":9112,"Navarro":9113,"acceler":9114,"Ales":9115,"Gav":9116,"JA":9117,"Necess":9118,"Op":9119,"ucions":9120,"priva":9121,"congrés":9122,"imperi":9123,"guió":9124,"descomptat":9125,"edats":9126,"fila":9127,"sanitat":9128,"manifestat":9129,"Passe":9130,"solucionar":9131,"narrat":9132,"imaginació":9133,"retirada":9134,"industrials":9135,"practicar":9136,"episodi":9137,"Selva":9138,"Usuari":9139,"Cad":9140,"Hel":9141,"Mis":9142,"POR":9143,"RT":9144,"Tampoc":9145,"dus":9146,"gama":9147,"lan":9148,"òmiques":9149,"endur":9150,"aques":9151,"solen":9152,"edor":9153,"cual":9154,"bandes":9155,"transvers":9156,"sorra":9157,"guanyadors":9158,"grafia":9159,"regues":9160,"manifestar":9161,"quadrats":9162,"fronteres":9163,"agradar":9164,"dimensió":9165,"màster":9166,"abordar":9167,"expectatives":9168,"masclista":9169,"vianants":9170,"%)":9171,"Distr":9172,"IES":9173,"VER":9174,"mix":9175,"mès":9176,"enva":9177,"enamor":9178,"ituts":9179,"uradament":9180,"tegrat":9181,"pateix":9182,"Conferència":9183,"veurem":9184,"Consum":9185,"Estatut":9186,"domin":9187,"conductor":9188,"Divisió":9189,"informacions":9190,"acred":9191,"atractiu":9192,"mediter":9193,"implantació":9194,"Alberto":9195,"Den":9196,"Fab":9197,"Hola":9198,"nest":9199,"comanda":9200,"imo":9201,"posse":9202,"doni":9203,"andra":9204,"probable":9205,"monestir":9206,"esportius":9207,"divertida":9208,"energètic":9209,"fabricació":9210,"destinades":9211,"fitxers":9212,"luminació":9213,"discriminació":9214,"didàct":9215,"militars":9216,"responsabilitats":9217,"TT":9218,"nits":9219,"zon":9220,"énez":9221,"divisió":9222,"Ent":9223,"pedres":9224,"anaven":9225,"formant":9226,"iguals":9227,"regis":9228,"Desembre":9229,"etapes":9230,"signes":9231,"notes":9232,"cadira":9233,"convenient":9234,"Blanes":9235,"Sílvia":9236,"Osona":9237,"Romeu":9238,"blaugrana":9239,"Psic":9240,"Pens":9241,"drat":9242,"ÍS":9243,"òtic":9244,"argent":9245,"unals":9246,"trist":9247,"parades":9248,"excessi":9249,"aboc":9250,"bars":9251,"catàleg":9252,"arribi":9253,"lleure":9254,"úlia":9255,"CAP":9256,"Excel":9257,"turistes":9258,"interessa":9259,"especialista":9260,"impulsat":9261,"idiomes":9262,"rellevant":9263,"opinions":9264,"XVIII":9265,"Millor":9266,"llicència":9267,"contempla":9268,"Post":9269,"bet":9270,"gans":9271,"ive":9272,"ny":9273,"ïdes":9274,"arro":9275,"anisme":9276,"despat":9277,"vius":9278,"saló":9279,"directes":9280,"sanitàries":9281,"interessats":9282,"afectat":9283,"facilita":9284,"Cristi":9285,"bàsica":9286,"arguments":9287,"Ruta":9288,"femenina":9289,"Decret":9290,"Igualtat":9291,"Jean":9292,"oteràpia":9293,"Agramunt":9294,"àpia":9295,"qués":9296,"difondre":9297,"vivint":9298,"previsió":9299,"Inf":9300,"agall":9301,"entrat":9302,"sabut":9303,"fàbrica":9304,"veïnes":9305,"Grècia":9306,"consumidors":9307,"Mostrar":9308,"disponibilitat":9309,"desplaçar":9310,"aguant":9311,"Principat":9312,"Editorial":9313,"Polítiques":9314,"espiritu":9315,"indows":9316,"Lic":9317,"das":9318,"nadal":9319,"rents":9320,"rever":9321,"inv":9322,"entar":9323,"quedi":9324,"cares":9325,"Incl":9326,"tornen":9327,"Valencia":9328,"esperen":9329,"vocació":9330,"donava":9331,"buit":9332,"quinze":9333,"coordinador":9334,"incrementar":9335,"registrat":9336,"avaluar":9337,"converses":9338,"Garrotxa":9339,"Det":9340,"DIA":9341,"Fal":9342,"Fun":9343,"FES":9344,"Rem":9345,"après":9346,"hol":9347,"pita":9348,"rama":9349,"soc":9350,"enll":9351,"onades":9352,"consu":9353,"ight":9354,"puta":9355,"ofert":9356,"uiz":9357,"especialitzada":9358,"CAN":9359,"Boi":9360,"paisatges":9361,"pdf":9362,"81":9363,"Anoia":9364,"HA":9365,"Mes":9366,"Obr":9367,"Roses":9368,"hig":9369,"adh":9370,"uri":9371,"acci":9372,"teníem":9373,"ivissa":9374,"recoll":9375,"1939":9376,"famós":9377,"somriure":9378,"1996":9379,"dissenyar":9380,"Regió":9381,"focus":9382,"específiques":9383,"americans":9384,"978":9385,"disposen":9386,"licituds":9387,"decoració":9388,"immigrants":9389,"gamma":9390,"fórmula":9391,"orígens":9392,"Agen":9393,"Bet":9394,"Gent":9395,"Resta":9396,"càlcul":9397,"fall":9398,"viment":9399,"òpera":9400,"aniran":9401,"retrat":9402,"enterr":9403,"prestació":9404,"coneixen":9405,"cai":9406,"istia":9407,"llibert":9408,"actualització":9409,"superat":9410,"privats":9411,"constitucional":9412,"pròxims":9413,"drogues":9414,"dictadura":9415,"addicionals":9416,"vigilància":9417,"-.":9418,"Dest":9419,"EB":9420,"EP":9421,"Fà":9422,"Fons":9423,"Mè":9424,"Sta":9425,"ness":9426,"sint":9427,"vèn":9428,"incent":9429,"ung":9430,"direc":9431,"ello":9432,"visitant":9433,"cució":9434,"tancada":9435,"inicis":9436,"misteri":9437,"escriu":9438,"ponent":9439,"dissenyat":9440,"educatives":9441,"aprofitant":9442,"CEL":9443,"Fòrum":9444,"GB":9445,"GC":9446,"Jim":9447,"biblioteques":9448,"vs":9449,"arch":9450,"compost":9451,"teria":9452,"posats":9453,"portarà":9454,"escèn":9455,"itució":9456,"finca":9457,"polèmica":9458,"brot":9459,"laboratori":9460,"inclus":9461,"descobert":9462,"òsits":9463,"Molins":9464,"Riba":9465,"Medicina":9466,"magnífica":9467,"perfils":9468,"configuració":9469,"acollirà":9470,"dignitat":9471,"87":9472,"Ke":9473,"Sort":9474,"acompanya":9475,"quera":9476,"revistes":9477,"perse":9478,"estils":9479,"itzades":9480,"partí":9481,"cionalment":9482,"coles":9483,"minim":9484,"igualment":9485,"Andal":9486,"Qual":9487,"Arrib":9488,"feines":9489,"màquines":9490,"ouse":9491,"Franco":9492,"triat":9493,"Calella":9494,"busti":9495,"òrgan":9496,"esportistes":9497,"UNA":9498,"imaginar":9499,"distribuï":9500,"Organització":9501,"religió":9502,"Platja":9503,"Autònoma":9504,"ET":9505,"Messi":9506,"Pin":9507,"Reb":9508,"pèl":9509,"ue":9510,"seix":9511,"pages":9512,"volien":9513,"Maragall":9514,"Comú":9515,"mou":9516,"ESCO":9517,"profession":9518,"culmin":9519,"gaudeix":9520,"Monts":9521,"concreta":9522,"Fernando":9523,"Constitucional":9524,"aixecar":9525,"Bosch":9526,"celler":9527,"mals":9528,"ñol":9529,"deres":9530,"ise":9531,"sius":9532,"acer":9533,"itzant":9534,"penal":9535,"Europe":9536,"medieval":9537,"jugant":9538,"museus":9539,"relacionada":9540,"efectiu":9541,"comoditat":9542,"blogs":9543,"profunditat":9544,"Habitat":9545,"districte":9546,"Jack":9547,"Ret":9548,"Red":9549,"Ub":9550,"cedit":9551,"dela":9552,"tràm":9553,"compres":9554,"astre":9555,"leccions":9556,"provocat":9557,"poso":9558,"presencial":9559,"papers":9560,"manual":9561,"íncep":9562,"arribarà":9563,"curta":9564,"Actualitzat":9565,"trams":9566,"sensacions":9567,"Portal":9568,"constitució":9569,"conclusió":9570,"prioritat":9571,"lideratge":9572,"privilegi":9573,"vèncer":9574,"tràmits":9575,"?\"":9576,"dé":9577,"cicles":9578,"reproducció":9579,"sender":9580,"primir":9581,"penjar":9582,"valent":9583,"Consul":9584,"realitzarà":9585,"Ciència":9586,"recordo":9587,"dirigents":9588,"dedicació":9589,"fortun":9590,"definitivament":9591,"plenament":9592,"solidari":9593,"refugiats":9594,"digitalització":9595,"Mediterrània":9596,"PRE":9597,"bombers":9598,"fòrum":9599,"kg":9600,"ux":9601,"ïble":9602,"lesions":9603,"combusti":9604,"ambdues":9605,"parcs":9606,"ferm":9607,"portà":9608,"copa":9609,"onesa":9610,"bateria":9611,"autorització":9612,"domèst":9613,"1997":9614,"prepara":9615,"dirigeix":9616,"Eduard":9617,"respectar":9618,"bàsic":9619,"danyola":9620,"monument":9621,"adquisició":9622,"DV":9623,"Fr":9624,"Gem":9625,"Igles":9626,"Mant":9627,"Open":9628,"Viu":9629,"long":9630,"…)":9631,"arma":9632,"aler":9633,"retornar":9634,"amistat":9635,"estí":9636,"ash":9637,"denci":9638,"essència":9639,"alitzant":9640,"préstec":9641,"lliurar":9642,"ingo":9643,"dosi":9644,"esperava":9645,"aprova":9646,"referents":9647,"òrgans":9648,"ineus":9649,"incorpora":9650,"reflexionar":9651,"conclusions":9652,"divertit":9653,"dèfici":9654,"glaterra":9655,"navegador":9656,"accessibilitat":9657,"Regidoria":9658,"Màster":9659,"Colau":9660,"Elec":9661,"Vox":9662,"Windows":9663,"ej":9664,"out":9665,"vina":9666,"amiga":9667,"trin":9668,"progrés":9669,"abund":9670,"posades":9671,"acor":9672,"ivals":9673,"idament":9674,"ordres":9675,"àntic":9676,"senten":9677,"agricultura":9678,"cesa":9679,"productor":9680,"Prov":9681,"convert":9682,"1992":9683,"reservar":9684,"cooperativa":9685,"Metro":9686,"Agricultura":9687,"gastronomia":9688,"teatral":9689,"quotidiana":9690,"excursió":9691,"empleats":9692,"Futbol":9693,"Olím":9694,"RIA":9695,"dec":9696,"report":9697,"amós":9698,"adher":9699,"comprendre":9700,"iria":9701,"vertic":9702,"raf":9703,"ste":9704,"igar":9705,"dens":9706,"hidro":9707,"Quart":9708,"luxe":9709,"transferència":9710,"altura":9711,"referències":9712,"intentant":9713,"reserves":9714,"Comentaris":9715,"taronja":9716,"Sigui":9717,"76":9718,"Mons":9719,"cèn":9720,"pats":9721,"erna":9722,"anul":9723,"trica":9724,"diria":9725,"vagi":9726,"sible":9727,"exposar":9728,"prece":9729,"discre":9730,"creada":9731,"segell":9732,"derroc":9733,"finestres":9734,"agència":9735,"legítim":9736,"Anònim":9737,"índex":9738,"diferenci":9739,"continent":9740,"infecció":9741,"laboradors":9742,"gràfics":9743,"milió":9744,"animació":9745,"Moder":9746,"expert":9747,"UPC":9748,"acceptació":9749,"identificació":9750,"excepcional":9751,"ernitat":9752,"sindicat":9753,"guitarra":9754,"Díaz":9755,"Aran":9756,"Blu":9757,"James":9758,"vés":9759,"òtica":9760,"atemp":9761,"repartir":9762,"reformes":9763,"estab":9764,"estètica":9765,"asta":9766,"oce":9767,"casar":9768,"seguidors":9769,"ànics":9770,"piano":9771,"promot":9772,"coneixem":9773,"continuarà":9774,"determinades":9775,"anomenar":9776,"Cerdanyola":9777,"escriptors":9778,"fases":9779,"Vanguardia":9780,"vulnerables":9781,"Fiscalia":9782,"convidats":9783,"**":9784,"82":9785,"Feb":9786,"Tall":9787,"Tàrrega":9788,"lents":9789,"alició":9790,"quota":9791,"empla":9792,"urb":9793,"ustria":9794,"med":9795,"tengui":9796,"jazz":9797,"polles":9798,"presentada":9799,"Anglaterra":9800,"Quatre":9801,"cuda":9802,"loga":9803,"Constru":9804,"busquen":9805,"somnis":9806,"Educat":9807,"confirmat":9808,"intensa":9809,"Tomàs":9810,"Esperem":9811,".:":9812,"BCN":9813,"SANT":9814,"UGT":9815,"back":9816,"ér":9817,"alista":9818,"reben":9819,"inno":9820,"itis":9821,"itàriament":9822,"eller":9823,"llits":9824,"tendències":9825,"supl":9826,"alitzen":9827,"correg":9828,"miner":9829,"ísica":9830,"espat":9831,"sabor":9832,"descen":9833,"contun":9834,"defensat":9835,"expressa":9836,"substàncies":9837,"reflexions":9838,"Posteriorment":9839,"plegats":9840,"delegació":9841,"infraestructura":9842,"XVII":9843,"cív":9844,"disputar":9845,"itinerari":9846,"caigut":9847,"83":9848,"DS":9849,"Eli":9850,"MU":9851,"Sev":9852,"Suï":9853,"gació":9854,"ilació":9855,"vells":9856,"Àlex":9857,"ïna":9858,"arreg":9859,"cià":9860,"olor":9861,"essent":9862,"tinent":9863,"interiors":9864,"Carta":9865,"Conser":9866,"ògica":9867,"descobreix":9868,"constat":9869,"especialistes":9870,"avança":9871,"comarcal":9872,"associats":9873,"convocar":9874,"Industri":9875,"exemplars":9876,"91":9877,"wp":9878,"Án":9879,"anot":9880,"gressos":9881,"Laia":9882,"portem":9883,"diagnos":9884,"bara":9885,"Angel":9886,"tractat":9887,"envolta":9888,"ifica":9889,"justa":9890,"arròs":9891,"favorable":9892,"carregat":9893,"Bern":9894,"fantàstic":9895,"sobir":9896,"Aula":9897,"BAL":9898,"Buen":9899,"Mora":9900,"MER":9901,"Ruiz":9902,"Ut":9903,"apas":9904,"hal":9905,"rics":9906,"tex":9907,"reina":9908,"amants":9909,"dius":9910,"comuna":9911,"igen":9912,"caldria":9913,"deixo":9914,"benvinguda":9915,"CAL":9916,"ofen":9917,"investigador":9918,"garanties":9919,"acompanyats":9920,"editor":9921,"boscos":9922,"escriptori":9923,"corredor":9924,"extraordinària":9925,"xicot":9926,"contenidors":9927,"Ricard":9928,"kespe":9929,"arrosseg":9930,"900":9931,"But":9932,"Bombers":9933,"Sara":9934,"ló":9935,"admir":9936,"diària":9937,"emàtics":9938,"acta":9939,"pagan":9940,"Enlla":9941,"dista":9942,"cionari":9943,"barb":9944,"demòcr":9945,"generat":9946,"Conver":9947,"155":9948,"rebaix":9949,"dintre":9950,"fotògraf":9951,"negar":9952,"demandes":9953,"culp":9954,"Palamós":9955,"esdevin":9956,"Recurs":9957,"llums":9958,"relacionat":9959,"Verda":9960,"efectius":9961,"judicials":9962,"fibra":9963,"rellevants":9964,"Shakespe":9965,"mallor":9966,"Mediterrani":9967,"Suïssa":9968,"Cot":9969,"MÉS":9970,"cres":9971,"cana":9972,"rals":9973,"esque":9974,"escom":9975,"encapçal":9976,"retes":9977,"ocells":9978,"parteix":9979,"ecs":9980,"suï":9981,"sentits":9982,"instant":9983,"funda":9984,"Exec":9985,"centrals":9986,"ANY":9987,"mantenint":9988,"arrels":9989,"tribut":9990,"rossa":9991,"DELS":9992,"invertir":9993,"policials":9994,"Musical":9995,"escrits":9996,"èsties":9997,"Trobada":9998,"testimonis":9999,"autèntic":10000,"expedient":10001,"plataformes":10002,"\":":10003,"CUR":10004,"Fam":10005,"Pall":10006,"rosa":10007,"uela":10008,"degust":10009,"gued":10010,"lip":10011,"ney":10012,"líquid":10013,"ENS":10014,"off":10015,"proposat":10016,"gerent":10017,"permetin":10018,"treballadora":10019,"votat":10020,"valorat":10021,"esdevé":10022,"varietats":10023,"agraï":10024,"diputada":10025,"hone":10026,"Pirineus":10027,"sensibilitat":10028,"pastis":10029,"subministrament":10030,"sorteig":10031,"Shakespeare":10032,"(\"":10033,"94":10034,"Fou":10035,"Paco":10036,"mn":10037,"ñas":10038,"útils":10039,"enviat":10040,"atem":10041,"prol":10042,"dià":10043,"astr":10044,"imitat":10045,"creant":10046,"visitat":10047,"pologia":10048,"Ang":10049,"oferint":10050,"accent":10051,"pensava":10052,"relats":10053,"Maig":10054,"treballador":10055,"funcionar":10056,"integrar":10057,"Berga":10058,"rícula":10059,"conclo":10060,"Activitat":10061,"Miró":10062,"qualificació":10063,"Observatori":10064,"Gemma":10065,"Aur":10066,"Illa":10067,"Mestre":10068,"ory":10069,"ice":10070,"interacció":10071,"calcula":10072,"Quins":10073,"ínsula":10074,"pensen":10075,"LAR":10076,"incloses":10077,"TAN":10078,"formatge":10079,"afectar":10080,"quantitats":10081,"dolç":10082,"policies":10083,"xerrades":10084,"jurídica":10085,"servidor":10086,"acostum":10087,"Habitatge":10088,"Bil":10089,"Tol":10090,"Tinc":10091,"edes":10092,"gala":10093,"mp":10094,"non":10095,"tge":10096,"defici":10097,"ampl":10098,"desaf":10099,"extensió":10100,"treu":10101,"escalada":10102,"temple":10103,"visibilitat":10104,"Quer":10105,"estrenar":10106,"Joves":10107,"vintena":10108,"mostres":10109,"defineix":10110,"contactar":10111,"tocat":10112,"confirmació":10113,"denunciat":10114,"Flor":10115,"Tour":10116,"immigració":10117,"addicional":10118,"historiador":10119,"73":10120,"Duran":10121,"ugues":10122,"ward":10123,"integrat":10124,"quez":10125,"estadi":10126,"oti":10127,"grava":10128,"teniment":10129,"hiper":10130,"audit":10131,"donació":10132,"Santi":10133,"cinquena":10134,"pasta":10135,"torni":10136,"inclosa":10137,"únics":10138,"1994":10139,"Vicente":10140,"aprofit":10141,"individus":10142,"Brasil":10143,"registrar":10144,"Continua":10145,"acredit":10146,"contemporània":10147,"butx":10148,"cartells":10149,"ARA":10150,"Eivissa":10151,"IVA":10152,"Ment":10153,"Moll":10154,"Sag":10155,"cors":10156,"getes":10157,"scar":10158,"çades":10159,"envers":10160,"reper":10161,"olla":10162,"urgència":10163,"haus":10164,"lega":10165,"provat":10166,"utube":10167,"expresident":10168,"tracions":10169,"durà":10170,"crònica":10171,"subvenció":10172,"centrar":10173,"Canadà":10174,"farmac":10175,"Palaf":10176,"alimentària":10177,"evidència":10178,"adaptat":10179,"aventures":10180,"músic":10181,"procediments":10182,"Acadèmia":10183,"Agustí":10184,"Qualsevol":10185,"Cart":10186,"Dep":10187,"Fra":10188,"eo":10189,"freg":10190,"ías":10191,"perque":10192,"ller":10193,"play":10194,"actua":10195,"agro":10196,"merca":10197,"andal":10198,"pobres":10199,"contrast":10200,"tual":10201,"centrat":10202,"obrirà":10203,"contagis":10204,"1995":10205,"acompanyada":10206,"universitari":10207,"factura":10208,"exclusió":10209,"Clara":10210,"Etique":10211,"substituir":10212,"condemna":10213,"recomanable":10214,"finançar":10215,"corriol":10216,"Aleshores":10217,"CP":10218,"Clo":10219,"Para":10220,"cro":10221,"gà":10222,"gana":10223,"quedarà":10224,"convida":10225,"paquet":10226,"passava":10227,"formal":10228,"profunda":10229,"prenen":10230,"sostre":10231,"participant":10232,"mono":10233,"Play":10234,"ronat":10235,"bàsicament":10236,"sindical":10237,"Humans":10238,"reivindicar":10239,"obligacions":10240,"Mireia":10241,"74":10242,"Ham":10243,"ID":10244,"Mn":10245,"Sín":10246,"Sistema":10247,"Ul":10248,"best":10249,"mural":10250,"úria":10251,"abon":10252,"venia":10253,"jugat":10254,"finanç":10255,"pensem":10256,"meteor":10257,"nevera":10258,"latge":10259,"novament":10260,"assegurarà":10261,"explicacions":10262,"idesa":10263,"énia":10264,"exigeix":10265,"tràmit":10266,"agraden":10267,"urbanització":10268,"separació":10269,"química":10270,"apuntar":10271,"incendis":10272,"Brava":10273,"preservar":10274,"vergonya":10275,"Ángel":10276,"fisi":10277,"jors":10278,"ptes":10279,"çò":10280,"uneix":10281,"ento":10282,"posteriors":10283,"entrevist":10284,"dicció":10285,"natur":10286,"grama":10287,"bru":10288,"cridar":10289,"escollida":10290,"tradicions":10291,"ordinadors":10292,"Trump":10293,"causar":10294,"personalment":10295,"toler":10296,"pròxima":10297,"vetlla":10298,"arquitecte":10299,"parlamentari":10300,"jurídic":10301,"Televisió":10302,"Mobilitat":10303,"llibreria":10304,"aprofundir":10305,"cinquanta":10306,"Banyoles":10307,"Hisenda":10308,"JU":10309,"Situ":10310,"Ud":10311,"Vida":10312,"tones":10313,"anista":10314,"inse":10315,"coman":10316,"examen":10317,"partides":10318,"matemàtiques":10319,"how":10320,"campió":10321,"nacionalisme":10322,"ugal":10323,"tast":10324,"estimar":10325,"Reglament":10326,"Object":10327,"rícul":10328,"fresc":10329,"concretes":10330,"Julià":10331,"tomà":10332,"extraordinari":10333,"vaixells":10334,"nocturn":10335,"samarreta":10336,"Sebastià":10337,"AU":10338,"ED":10339,"Fol":10340,"Rad":10341,"Tro":10342,"dam":10343,"né":10344,"way":10345,"xit":10346,"enderroc":10347,"reme":10348,"otip":10349,"desde":10350,"aquel":10351,"vial":10352,"eixe":10353,"naz":10354,"1980":10355,"passats":10356,"donem":10357,"Reis":10358,"organitzen":10359,"batxillerat":10360,"estaria":10361,"realitzant":10362,"seguirà":10363,"clares":10364,"negativa":10365,"Exposició":10366,"turístics":10367,"notable":10368,"interessades":10369,"Juvenil":10370,"amaga":10371,"voreix":10372,"funcionaris":10373,"366":10374,"quaranta":10375,"Camps":10376,"debats":10377,"freqüents":10378,"francesos":10379,"indiquen":10380,"navegació":10381,"implementació":10382,"capità":10383,"panorama":10384,"cervesa":10385,"Rafel":10386,"consentiment":10387,"Barberà":10388,"Passeig":10389,"dèficit":10390,"Bio":10391,"Mira":10392,"Wik":10393,"ty":10394,"lesió":10395,"conform":10396,"tesis":10397,"idura":10398,"Marató":10399,"Comitè":10400,"plaques":10401,"lliç":10402,"llac":10403,"directors":10404,"ritas":10405,"CATAL":10406,"guanyadora":10407,"iento":10408,"convertint":10409,"augmentat":10410,"arribem":10411,"mèdica":10412,"fiscals":10413,"encanta":10414,"apuntat":10415,"destinats":10416,"vegetació":10417,"retallades":10418,"rículum":10419,"?.":10420,"Big":10421,"Sig":10422,"ding":10423,"evolu":10424,"mada":10425,"vola":10426,"òb":10427,"esgot":10428,"onda":10429,"concentra":10430,"ambaix":10431,"terrat":10432,"ece":10433,"Estr":10434,"puguem":10435,"edors":10436,"cuid":10437,"Concert":10438,"Caracter":10439,"gides":10440,"supera":10441,"escolta":10442,"Calaf":10443,"pesar":10444,"pesca":10445,"musul":10446,"1991":10447,"consellers":10448,"botó":10449,"Portugal":10450,"trasllat":10451,"obligatori":10452,"--------":10453,"percepció":10454,"absten":10455,"Defensa":10456,"aforament":10457,"Arenys":10458,"Cívic":10459,"Recursos":10460,",...":10461,"Fus":10462,"Mich":10463,"Rus":10464,"Sis":10465,"Ton":10466,"cents":10467,"efic":10468,"upa":10469,"àut":10470,"encen":10471,"perceb":10472,"diada":10473,"dipòsit":10474,"emiss":10475,"imer":10476,"hay":10477,"marcada":10478,"entrevistes":10479,"Alter":10480,"rodona":10481,"durar":10482,"generalment":10483,"ERS":10484,"jardin":10485,"curi":10486,"interessat":10487,"físiques":10488,"definitiu":10489,"conclou":10490,"equiv":10491,"fruits":10492,"fulla":10493,"convidat":10494,"burges":10495,"elegant":10496,"Doctor":10497,"autèntica":10498,"fracàs":10499,"inserció":10500,"Argentina":10501,"CEST":10502,"EFE":10503,"Mentr":10504,"NS":10505,"ak":10506,"cedi":10507,"indret":10508,"adjunt":10509,"obri":10510,"obsta":10511,"desena":10512,"posava":10513,"seri":10514,"autò":10515,"Arch":10516,"instituts":10517,"campus":10518,"Guia":10519,"negociacions":10520,"Orquestra":10521,"tribunals":10522,"indicadors":10523,"PAS":10524,"fosc":10525,"entorns":10526,"aturada":10527,"detecció":10528,"bosses":10529,"pintures":10530,"sobte":10531,"Batxillerat":10532,"autodeterminació":10533,"requereixen":10534,"coincidint":10535,"Mariano":10536,"suficients":10537,"netejar":10538,"desaparegut":10539,"exclusiva":10540,"Castella":10541,"disciplina":10542,"provisional":10543,"feminista":10544,"despertar":10545,"wood":10546,"Professional":10547,"assetjament":10548,"ÈNCIA":10549,"privacitat":10550,"Mentrestant":10551,"61":10552,"DL":10553,"EI":10554,"Fla":10555,"Stan":10556,"VO":10557,"ek":10558,"mú":10559,"pè":10560,"samba":10561,"win":10562,"enlloc":10563,"alleu":10564,"cits":10565,"utx":10566,"eixa":10567,"forat":10568,"recollit":10569,"Marcel":10570,"Unes":10571,"Contra":10572,"sorprendre":10573,"cript":10574,"comentat":10575,"Segur":10576,"humanes":10577,"explicava":10578,"exigir":10579,"residències":10580,"Black":10581,"escapar":10582,"franquisme":10583,"enquesta":10584,"afavoreix":10585,"Agenda":10586,"6è":10587,"Hit":10588,"MON":10589,"VIS":10590,"XVI":10591,"rest":10592,"improvis":10593,"parat":10594,"possessió":10595,"verdures":10596,"forestal":10597,"disposat":10598,"Contr":10599,"trucar":10600,"frus":10601,"Cardona":10602,"acabi":10603,"mitjan":10604,"iene":10605,"Guin":10606,"mirall":10607,"ARI":10608,"habitualment":10609,"orgànica":10610,"Bay":10611,"curtmetr":10612,"contempl":10613,"alliberament":10614,"Willi":10615,"Republicana":10616,"Aju":10617,"Gro":10618,"Preu":10619,"Àsia":10620,"entus":10621,"concessió":10622,"caire":10623,"gros":10624,"tingués":10625,"copi":10626,"frut":10627,"llevat":10628,"senyals":10629,"complert":10630,"cirur":10631,"dolça":10632,"participaran":10633,"limitar":10634,"Plana":10635,"observació":10636,"civils":10637,"Julieta":10638,"vitam":10639,"pèrdues":10640,"braços":10641,"ADN":10642,"Holida":10643,"Agost":10644,"Oberta":10645,"Hernández":10646,"apassion":10647,"\")":10648,"71":10649,"?,":10650,"BB":10651,"Clín":10652,"Descrip":10653,"Secció":10654,"Tx":10655,"bir":10656,"bella":10657,"x366":10658,"ermita":10659,"qua":10660,"oní":10661,"indu":10662,"sives":10663,"occidental":10664,"recents":10665,"donada":10666,"cercar":10667,"possiblement":10668,"depenent":10669,"fils":10670,"filles":10671,"competir":10672,"Cerd":10673,"Portada":10674,"tràfic":10675,"executar":10676,"experimentar":10677,"Visita":10678,"Human":10679,"condemnat":10680,"etiqueta":10681,"firma":10682,"descriu":10683,"metodologia":10684,"financera":10685,"Iglesias":10686,"Sevilla":10687,"3D":10688,"Jorge":10689,"fur":10690,"iP":10691,"ients":10692,"xen":10693,"demar":10694,"ansi":10695,"inas":10696,"igó":10697,"egar":10698,"segurs":10699,"costar":10700,"publi":10701,"soldats":10702,"regions":10703,"crist":10704,"cinquè":10705,"sino":10706,"todo":10707,"cultures":10708,"llargues":10709,"ajudarà":10710,"Viat":10711,"Canet":10712,"qüestion":10713,"agafa":10714,"dutxa":10715,"implicats":10716,"patró":10717,"evidentment":10718,"emprenedors":10719,"muralla":10720,"religiosa":10721,"drome":10722,"expansió":10723,"Grups":10724,"1a":10725,"House":10726,"Lí":10727,"was":10728,"Úl":10729,"….":10730,"ciències":10731,"omè":10732,"igs":10733,"llars":10734,"recre":10735,"sencer":10736,"roqui":10737,"Integr":10738,"produccions":10739,"frases":10740,"llegenda":10741,"espectador":10742,"corporal":10743,"Jazz":10744,"indicar":10745,"Dispon":10746,"fantàstica":10747,"litres":10748,"classificat":10749,"Company":10750,"rècord":10751,"Bank":10752,"investidura":10753,"motivació":10754,"Liceu":10755,"Sota":10756,"UC":10757,"Veg":10758,"uat":10759,"çament":10760,"èric":10761,"ende":10762,"ocor":10763,"serien":10764,"persist":10765,"Anti":10766,"senyora":10767,"lectures":10768,"aprovada":10769,"bonica":10770,"alcaldia":10771,"galetes":10772,"QUES":10773,"ingress":10774,"CDC":10775,"vinculats":10776,"Sostenible":10777,"consecutiu":10778,"tropes":10779,"cementiri":10780,".).":10781,"CER":10782,"Fall":10783,"Física":10784,"PRI":10785,"my":10786,"masses":10787,"sals":10788,"uplo":10789,"elo":10790,"atrib":10791,"itiu":10792,"icció":10793,"vagin":10794,"obedi":10795,"ecològica":10796,"matrícula":10797,"coalició":10798,"rector":10799,"Salvat":10800,"Max":10801,"temporades":10802,"públicament":10803,"Exist":10804,"festivals":10805,"beques":10806,"signific":10807,"girar":10808,"característica":10809,"conservar":10810,"periodisme":10811,"vulnerabilitat":10812,"extern":10813,"App":10814,"Continu":10815,"revisar":10816,"nomenat":10817,"Respons":10818,"acudir":10819,"Politècnica":10820,"Andrés":10821,"Gavà":10822,"Descripció":10823,"Vin":10824,"tum":10825,"òloga":10826,"retard":10827,"osi":10828,"osex":10829,"adon":10830,"liquen":10831,"exposat":10832,"ferits":10833,"racó":10834,"portant":10835,"vang":10836,"pedia":10837,"interrom":10838,"autoc":10839,"generen":10840,"luència":10841,"promet":10842,"mantind":10843,"futura":10844,"currículum":10845,"ineda":10846,"preparant":10847,"estimat":10848,"respectu":10849,"específics":10850,"cabells":10851,"fotosVeure":10852,"piny":10853,"angle":10854,"with":10855,"victòries":10856,"freqüent":10857,"acumula":10858,"servidors":10859,"Alej":10860,"Persones":10861,"Ballester":10862,"Amazon":10863,"CES":10864,"Desp":10865,"Kar":10866,"PR":10867,"Pacte":10868,"afer":10869,"pobre":10870,"cites":10871,"admin":10872,"igo":10873,"voldria":10874,"ario":10875,"visit":10876,"agl":10877,"ínia":10878,"majoritàriament":10879,"assistit":10880,"serveixen":10881,"caracteritza":10882,"energies":10883,"empresarials":10884,"mecanisme":10885,"modificacions":10886,"Sergio":10887,"begudes":10888,"itxell":10889,"Holiday":10890,"Ah":10891,"Afers":10892,"City":10893,"ZA":10894,"aa":10895,"cy":10896,"sard":10897,"envia":10898,"atch":10899,"invers":10900,"amet":10901,"antes":10902,"conqu":10903,"cadell":10904,"tero":10905,"viar":10906,"viària":10907,"sera":10908,"raça":10909,"igma":10910,"poguessin":10911,"compten":10912,"March":10913,"national":10914,"lletí":10915,"econom":10916,"trobarem":10917,"Polònia":10918,"arrel":10919,"animar":10920,"aprofitat":10921,"impulsa":10922,"tramitació":10923,"començant":10924,"escriptora":10925,"vacuna":10926,"corredors":10927,"elèctrics":10928,"braç":10929,"Micros":10930,"Apartment":10931,"Càritas":10932,"gimn":10933,"curiositat":10934,"Execut":10935,"mnium":10936,"Característiques":10937,"Jon":10938,"][":10939,"apel":10940,"bibli":10941,"lis":10942,"pent":10943,"urna":10944,"hael":10945,"press":10946,"duen":10947,"matric":10948,"matèries":10949,"essencials":10950,"meses":10951,"juï":10952,"ficades":10953,"comunica":10954,"ionats":10955,"motiv":10956,"utilitzats":10957,"construct":10958,"animitat":10959,"esquí":10960,"Meritxell":10961,"Reser":10962,"Delta":10963,"Moreno":10964,"signatura":10965,"passejar":10966,"informàtica":10967,"Secret":10968,"vinculades":10969,"apostar":10970,"immobili":10971,"franquista":10972,"Norm":10973,"censura":10974,"enemic":10975,"renunciar":10976,"excusa":10977,"joguines":10978,"accidents":10979,"entusias":10980,"uploads":10981,"Lan":10982,"Scho":10983,"Tin":10984,"egui":10985,"ré":10986,"uga":10987,"inoblida":10988,"seccions":10989,"terri":10990,"lluna":10991,"peta":10992,"neum":10993,"simult":10994,"rebrà":10995,"cultiu":10996,"espero":10997,"depenen":10998,"dependent":10999,"ajudat":11000,"fàcils":11001,"negociar":11002,"TSJ":11003,"pintor":11004,"Ribes":11005,"AMPA":11006,"precip":11007,"comparteixen":11008,"automat":11009,"constantment":11010,"autònomes":11011,"Audio":11012,"enfocament":11013,"Sostenibilitat":11014,"convençut":11015,"Cruz":11016,"Álvarez":11017,"Andalusia":11018,"sobirania":11019,"Cerdanya":11020,"Aval":11021,"CL":11022,"Pra":11023,"VEN":11024,"Zar":11025,"aer":11026,"furg":11027,"gats":11028,"ware":11029,"ília":11030,"ícoles":11031,"arbit":11032,"anada":11033,"remarca":11034,"inev":11035,"dicions":11036,"divis":11037,"convoca":11038,"llin":11039,"assab":11040,"sumen":11041,"seure":11042,"edora":11043,"Anim":11044,"cuidar":11045,"Artes":11046,"Diego":11047,"programat":11048,"passatgers":11049,"acordar":11050,"acordat":11051,"servirà":11052,"Tercera":11053,"explí":11054,"confirma":11055,"informativa":11056,"fresca":11057,"Dues":11058,"laterals":11059,"progress":11060,"estalviar":11061,"saludables":11062,"secrets":11063,"Empresari":11064,"aficionats":11065,"JxCat":11066,"Regió7":11067,"eficàcia":11068,"Equip":11069,"IL":11070,"Ti":11071,"TRE":11072,"bomb":11073,"gonal":11074,"murs":11075,"uk":11076,"velles":11077,"anirem":11078,"trú":11079,"immer":11080,"acs":11081,"tea":11082,"nave":11083,"algo":11084,"metàl":11085,"salva":11086,"organitzadors":11087,"canviant":11088,"Salou":11089,"talls":11090,"culars":11091,"certamen":11092,"meua":11093,"reunit":11094,"àstiques":11095,"Muño":11096,"determinada":11097,"mèdic":11098,"allotjaments":11099,"eliminació":11100,"Oficial":11101,"accessible":11102,"autobusos":11103,"estàndard":11104,"despatx":11105,"Pallars":11106,"Muñoz":11107,"Egi":11108,"Lor":11109,"Sarri":11110,"Tre":11111,"Thom":11112,"aporten":11113,"lact":11114,"revel":11115,"tral":11116,"istas":11117,"1931":11118,"barat":11119,"Park":11120,"Valent":11121,"intentat":11122,"muy":11123,"arribant":11124,"tràlia":11125,"angles":11126,"separat":11127,"consolidar":11128,"còmoda":11129,"php":11130,"enginyeria":11131,"Austràlia":11132,"Participació":11133,"inscriure":11134,"EG":11135,"Feu":11136,"MC":11137,"Pag":11138,"Star":11139,"Vull":11140,"jes":11141,"tàct":11142,"wiki":11143,"àvia":11144,"ismo":11145,"groc":11146,"vert":11147,"voltants":11148,"tinguem":11149,"visiten":11150,"vespr":11151,"neta":11152,"fundar":11153,"renda":11154,"COR":11155,"avió":11156,"cadires":11157,"èxits":11158,"electricitat":11159,"protagonisme":11160,"combina":11161,"enviament":11162,"Seminari":11163,"profundament":11164,"amagar":11165,"Pobla":11166,"harmon":11167,"reparació":11168,"Públic":11169,"Solsona":11170,"proteïnes":11171,"Gin":11172,"Stre":11173,"escau":11174,"enz":11175,"enques":11176,"indem":11177,"undar":11178,"unanimitat":11179,"entès":11180,"olo":11181,"tries":11182,"dició":11183,"comportar":11184,"guàrdia":11185,"parcel":11186,"provin":11187,"teràpia":11188,"ferides":11189,"actituds":11190,"Alb":11191,"àndol":11192,"ellas":11193,"Conven":11194,"plega":11195,"passem":11196,"Frank":11197,"negatiu":11198,"problemàtica":11199,"entenc":11200,"ridge":11201,"acabarà":11202,"mobilització":11203,"freda":11204,"àmens":11205,"perfectes":11206,"incorporat":11207,"escenes":11208,"constitueix":11209,"Pots":11210,"XIV":11211,"imagin":11212,"estrangers":11213,"desaparèixer":11214,"justificar":11215,"republicà":11216,"Principal":11217,"autobús":11218,"artificial":11219,"detinguts":11220,"suïci":11221,"Ivan":11222,"Lit":11223,"Let":11224,"Sóc":11225,"Vo":11226,"cass":11227,"xin":11228,"ary":11229,"anèc":11230,"remat":11231,"reconeguda":11232,"indig":11233,"oto":11234,"uten":11235,"despert":11236,"previstes":11237,"hidrat":11238,"Esplu":11239,"ranc":11240,"pujant":11241,"legar":11242,"legit":11243,"editar":11244,"pensions":11245,"íntegr":11246,"activista":11247,"peticions":11248,"procedir":11249,"perif":11250,"especialitzat":11251,"participatiu":11252,"motors":11253,"ideals":11254,"obligar":11255,"moneda":11256,"cames":11257,"famosa":11258,"manifesta":11259,"1993":11260,"Benestar":11261,"Forment":11262,"Ramón":11263,"rebutjar":11264,"1989":11265,"Feder":11266,"pintar":11267,"inaugurar":11268,"droid":11269,"crítics":11270,"còmodes":11271,"sacri":11272,"emoció":11273,"Sarag":11274,"Geltrú":11275,"establerts":11276,"exerc":11277,"seixanta":11278,"Aigua":11279,"Sy":11280,"TR":11281,"Viny":11282,"fusió":11283,"lica":11284,"Òmnium":11285,"esbr":11286,"deries":11287,"ango":11288,"observ":11289,"carril":11290,"marítim":11291,"Noves":11292,"iciós":11293,"artístiques":11294,"bene":11295,"infla":11296,"180":11297,"sorpren":11298,"Casals":11299,"vestits":11300,"finalistes":11301,"formativa":11302,"investigar":11303,"mobles":11304,"universitaris":11305,"limitacions":11306,"sionista":11307,"eliminat":11308,"òptica":11309,"Occidental":11310,"insistit":11311,"protocols":11312,"Honor":11313,"vacunació":11314,"Industrial":11315,"2a":11316,"Cli":11317,"CLA":11318,"Cient":11319,"TG":11320,"hy":11321,"deta":11322,"enfor":11323,"república":11324,"incertesa":11325,"adrec":11326,"comèdia":11327,"imèdia":11328,"tax":11329,"rau":11330,"paella":11331,"tresor":11332,"tindria":11333,"ESP":11334,"guiada":11335,"estrès":11336,"plicar":11337,"Reina":11338,"curses":11339,"historia":11340,"locut":11341,"apunten":11342,"Tothom":11343,"plantar":11344,"vestir":11345,"comenta":11346,"Codi":11347,"romana":11348,"consideració":11349,"llumin":11350,"administrativa":11351,"sèries":11352,"jutges":11353,"titulat":11354,"senzilles":11355,"Esportiu":11356,"vicepresidenta":11357,"complexitat":11358,"Fonts":11359,"denúncies":11360,"subjecte":11361,"FOTO":11362,"masculí":11363,"lleugerament":11364,"Bàsquet":11365,"Literatura":11366,"mediterrani":11367,"guedà":11368,"Dam":11369,"Doc":11370,"Hav":11371,"Isa":11372,"Jur":11373,"Jut":11374,"Lou":11375,"Sur":11376,"Tran":11377,"Tren":11378,"XIII":11379,"blat":11380,"gies":11381,"lor":11382,"tors":11383,"vitat":11384,"arris":11385,"alberg":11386,"orquestra":11387,"inera":11388,"convé":11389,"imon":11390,"gravar":11391,"extin":11392,"residen":11393,"fortes":11394,"tega":11395,"creador":11396,"profit":11397,"Arran":11398,"sabates":11399,"coneixia":11400,"farmà":11401,"conducta":11402,"dotar":11403,"Pastor":11404,"lustració":11405,"Fotografia":11406,"antelació":11407,"Garriga":11408,"posicionament":11409,"Fes":11410,"Forn":11411,"Gü":11412,"Gata":11413,"Of":11414,"SAL":11415,"Word":11416,"ajorn":11417,"ians":11418,"deterior":11419,"degrad":11420,"remen":11421,"comissions":11422,"sificació":11423,"rique":11424,"llança":11425,"escut":11426,"entreteniment":11427,"niament":11428,"interns":11429,"sobreviure":11430,"afició":11431,"consella":11432,"Comerci":11433,"epid":11434,"placa":11435,"Anem":11436,"Android":11437,"optat":11438,"sincer":11439,"inesper":11440,"planteg":11441,"explicant":11442,"conside":11443,"centrada":11444,"ANA":11445,"cisme":11446,"Molina":11447,"voluntariat":11448,"Format":11449,"contractar":11450,"flix":11451,"justament":11452,"exigent":11453,"separar":11454,"Oscar":11455,"iosament":11456,"compositor":11457,"urbans":11458,"barbaco":11459,"!\"":11460,"Falla":11461,"Gri":11462,"Has":11463,"Ide":11464,"Nob":11465,"Pis":11466,"bui":11467,"restr":11468,"encon":11469,"amist":11470,"comitè":11471,"propagan":11472,"descompte":11473,"istan":11474,"presid":11475,"pressa":11476,"carboni":11477,"quès":11478,"intervenir":11479,"editat":11480,"Quines":11481,"merg":11482,"tornem":11483,"jardins":11484,"rebel":11485,"ajudant":11486,"Viol":11487,"recorden":11488,"romà":11489,"1990":11490,"recomanem":11491,"quadres":11492,"allargar":11493,"pluges":11494,"fixar":11495,"Sovint":11496,"manifestants":11497,"estratègic":11498,"etiquetes":11499,"elevada":11500,"Michael":11501,"crèdits":11502,"Bisbal":11503,"fumadors":11504,"exemplar":11505,"Xàtiva":11506,"llibertats":11507,"5è":11508,"FS":11509,"Fit":11510,"Natura":11511,"lon":11512,"ned":11513,"ss":11514,"tis":11515,"uc":11516,"érem":11517,"revela":11518,"icà":11519,"olina":11520,"advocats":11521,"onso":11522,"istemes":11523,"igh":11524,"intèr":11525,"sospit":11526,"travess":11527,"geni":11528,"contents":11529,"oficialment":11530,"lasco":11531,"satèl":11532,"Berguedà":11533,"tecnològic":11534,"pagaments":11535,"semblants":11536,"candidatures":11537,"Algú":11538,"Treballa":11539,"encarregada":11540,"Democrà":11541,"barcelona":11542,"maquinària":11543,"fragment":11544,"britànic":11545,"mascareta":11546,"Pompeu":11547,"rellotge":11548,"BRE":11549,"Iber":11550,"JEC":11551,"ai":11552,"fixa":11553,"pàr":11554,"rurals":11555,"use":11556,"vents":11557,"òbia":11558,"escons":11559,"deien":11560,"enfons":11561,"inva":11562,"initat":11563,"trens":11564,"uth":11565,"desapareix":11566,"vide":11567,"prec":11568,"molèsties":11569,"Espero":11570,"captar":11571,"presentacions":11572,"autog":11573,"pion":11574,"Conn":11575,"Defin":11576,"trucades":11577,"simpat":11578,"continuat":11579,"supervivència":11580,"formatius":11581,"Manlleu":11582,"operatiu":11583,"ONU":11584,"reuneix":11585,"voluntària":11586,"administratiu":11587,"exigències":11588,"atraccions":11589,"previstos":11590,"Aragonès":11591,"Domèn":11592,"indispens":11593,"Guardi":11594,"medicaments":11595,"higiene":11596,"Febrer":11597,"Disponible":11598,"Saragossa":11599,"Bèl":11600,"CRE":11601,"Log":11602,"PRES":11603,"Rio":11604,"èpoques":11605,"uno":11606,"unit":11607,"perjudic":11608,"icats":11609,"havent":11610,"haguessin":11611,"result":11612,"absur":11613,"ace":11614,"vez":11615,"llim":11616,"tingueu":11617,"Estrat":11618,"creen":11619,"calma":11620,"Infer":11621,"pue":11622,"legalitat":11623,"trobaràs":11624,"ings":11625,"fren":11626,"històriques":11627,"transfer":11628,"protect":11629,"CION":11630,"fotograf":11631,"evo":11632,"votants":11633,"Mollet":11634,"esdevingut":11635,"Registre":11636,"nucle":11637,"quedava":11638,"pecu":11639,"deriva":11640,"amenaces":11641,"madril":11642,"pastís":11643,"destrucció":11644,"aclarir":11645,"FORMA":11646,"periòdic":11647,"agraïment":11648,"DC":11649,"Dels":11650,"Jar":11651,"],":11652,"açò":11653,"fina":11654,"pp":11655,"envell":11656,"príncep":11657,"emot":11658,"emprendre":11659,"conge":11660,"utilitat":11661,"ford":11662,"llistat":11663,"recop":11664,"Entrada":11665,"creatiu":11666,"corda":11667,"ràbia":11668,"patates":11669,"llatí":11670,"laborat":11671,"comencem":11672,"comunitària":11673,"lleug":11674,"acce":11675,"subven":11676,"COL":11677,"Saló":11678,"turó":11679,"aconseguint":11680,"Monestir":11681,"facturació":11682,"plantejat":11683,"Deleg":11684,"1977":11685,"agraït":11686,"radical":11687,"liderat":11688,"cohesió":11689,"enquestes":11690,"Edicions":11691,"divulgació":11692,"Cornellà":11693,"Entitats":11694,"intèrpre":11695,"112":11696,"Ning":11697,"Oper":11698,"Pant":11699,"Sens":11700,"años":11701,"get":11702,"mestra":11703,"pest":11704,"ares":11705,"involu":11706,"trant":11707,"antigu":11708,"conec":11709,"conéixer":11710,"caut":11711,"assess":11712,"ager":11713,"...\"":11714,"motos":11715,"cebre":11716,"Excur":11717,"independents":11718,"competicions":11719,"afectada":11720,"celebrada":11721,"voluntari":11722,"alimentari":11723,"1984":11724,"1987":11725,"impact":11726,"1978":11727,"Pier":11728,"informatiu":11729,"emocionant":11730,"multitud":11731,"amagat":11732,"hostal":11733,"episodis":11734,"compatible":11735,"Global":11736,"sensibilització":11737,"contundent":11738,"Microsoft":11739,"Air":11740,"EF":11741,"LGT":11742,"Mònica":11743,"Rome":11744,"nats":11745,"ander":11746,"comenci":11747,"liquid":11748,"excés":11749,"vivia":11750,"captur":11751,"finalitzat":11752,"regles":11753,"valu":11754,"actualitzar":11755,"ificacions":11756,"ubicat":11757,"mots":11758,"negat":11759,"Macià":11760,"Segurament":11761,"positives":11762,"llargs":11763,"Precisament":11764,"Garraf":11765,"independentment":11766,"electrònics":11767,"Ross":11768,"protegit":11769,"secretària":11770,"substitució":11771,"Felici":11772,"component":11773,"cavalls":11774,"peixos":11775,"Personal":11776,"nadó":11777,"Netflix":11778,"audiència":11779,"contemplar":11780,"AA":11781,"Raquel":11782,"Vit":11783,"Vost":11784,"nob":11785,"rab":11786,"tèx":11787,"xols":11788,"inè":11789,"imput":11790,"taques":11791,"descripció":11792,"plur":11793,"casol":11794,"Int":11795,"barreres":11796,"modal":11797,"inger":11798,"pensaments":11799,"geria":11800,"construccions":11801,"representat":11802,"demanant":11803,"terminis":11804,"mediació":11805,"llegat":11806,"preparats":11807,"avançada":11808,"Llibres":11809,"Patronat":11810,"pertori":11811,"demanava":11812,"Tract":11813,"adolescent":11814,"compleixen":11815,"Apple":11816,"implementar":11817,"Investigació":11818,"expressament":11819,"clínica":11820,"anarquista":11821,"atmosfera":11822,"vesprada":11823,"Bèlgica":11824,"360":11825,"Ari":11826,"Greg":11827,"GEN":11828,"Prà":11829,"SU":11830,"bien":11831,"lant":11832,"ritu":11833,"ºC":11834,"àudio":11835,"remun":11836,"remarcat":11837,"prestacions":11838,"digui":11839,"emet":11840,"ocult":11841,"eixes":11842,"very":11843,"racons":11844,"Peri":11845,"ped":11846,"mines":11847,"presentades":11848,"Quir":11849,"agressions":11850,"agrícola":11851,"àrab":11852,"aparells":11853,"finalitats":11854,"Experi":11855,"Montcada":11856,"veïnat":11857,"masia":11858,"instrucció":11859,"carreteres":11860,"tomeu":11861,"cansat":11862,"procedent":11863,"estendre":11864,"annex":11865,"Urbanisme":11866,"atemptat":11867,"Pràct":11868,"Apar":11869,"Bau":11870,"Càn":11871,"Deb":11872,"Iv":11873,"Jord":11874,"Rich":11875,"Tria":11876,"iA":11877,"kin":11878,"pòsits":11879,"esqui":11880,"esmen":11881,"aline":11882,"andre":11883,"emi":11884,"plural":11885,"duu":11886,"coure":11887,"cerim":11888,"tractava":11889,"frenar":11890,"varem":11891,"ògic":11892,"University":11893,"Mateu":11894,"Solidaritat":11895,"humitat":11896,"Turquia":11897,"parlava":11898,"coincidir":11899,"rastre":11900,"Borràs":11901,"relativament":11902,"fruites":11903,"ceba":11904,"Mitjans":11905,"gegants":11906,"seleccionades":11907,"capítols":11908,"Gaudí":11909,"PDF":11910,"Alcalde":11911,"Eixample":11912,"Jiménez":11913,"Bella":11914,"Raval":11915,"hect":11916,"sú":11917,"udes":11918,"ítol":11919,"€.":11920,"demo":11921,"inos":11922,"ingrés":11923,"queixa":11924,"perdu":11925,"ciós":11926,"contenen":11927,"serra":11928,"verit":11929,"verds":11930,"partaments":11931,"trepit":11932,"calent":11933,"agre":11934,"dosis":11935,"lucre":11936,"ionals":11937,"donaran":11938,"bressol":11939,"curts":11940,"positivament":11941,"franja":11942,"propici":11943,"cretament":11944,"investigacions":11945,"trenca":11946,"quilos":11947,"mobiliari":11948,"IST":11949,"quarantena":11950,"elèctriques":11951,"cristians":11952,"Respecte":11953,"gravetat":11954,"fugir":11955,"dirigent":11956,"Enginyeria":11957,"automàticament":11958,"Tirant":11959,"obediència":11960,"indemn":11961,"PIB":11962,"mó":11963,"moc":11964,"many":11965,"queria":11966,"prové":11967,"eracions":11968,"teore":11969,"roig":11970,"roja":11971,"mengol":11972,"Comença":11973,"mies":11974,"ellat":11975,"necessàriament":11976,"febre":11977,"controls":11978,"realitzats":11979,"típic":11980,"apropi":11981,"futures":11982,"pràctic":11983,"narra":11984,"Neus":11985,"concretar":11986,"magnífic":11987,"variable":11988,"castells":11989,"bicicletes":11990,"beguda":11991,"Memòria":11992,"paràmetres":11993,"monarquia":11994,"BARCEL":11995,"farmacèut":11996,"Hitler":11997,"Amor":11998,"Grat":11999,"Opin":12000,"Rural":12001,"fita":12002,"gmail":12003,"iat":12004,"nul":12005,"esposa":12006,"encer":12007,"repertori":12008,"amant":12009,"amable":12010,"estro":12011,"emetre":12012,"prove":12013,"etari":12014,"grí":12015,"Ells":12016,"abaix":12017,"casal":12018,"finalitz":12019,"cuit":12020,"paciència":12021,"formatiu":12022,"caminada":12023,"Roy":12024,"redueix":12025,"Pascual":12026,"Obra":12027,"derivats":12028,"URV":12029,"emprenedoria":12030,"atorga":12031,"centenari":12032,"columna":12033,"autòct":12034,"!.":12035,"Banda":12036,"JOR":12037,"PN":12038,"Sci":12039,"Sra":12040,"Vols":12041,"cess":12042,"ceta":12043,"fàr":12044,"gili":12045,"nada":12046,"pès":12047,"tons":12048,"ñola":12049,"encarrega":12050,"eras":12051,"aneu":12052,"icades":12053,"guet":12054,"taul":12055,"desprès":12056,"gris":12057,"abusos":12058,"acar":12059,"insp":12060,"tela":12061,"targetes":12062,"cercle":12063,"estatals":12064,"crita":12065,"sentim":12066,"Llic":12067,"digne":12068,"Ortega":12069,"reduïda":12070,"Benet":12071,"graci":12072,"blava":12073,"entrenaments":12074,"pròximes":12075,"litoral":12076,"estratègica":12077,"trajecte":12078,"titularitat":12079,"reivindicació":12080,"contemporani":12081,"emmagatzematge":12082,"capçalera":12083,"subratllat":12084,"impressionant":12085,"dinàmiques":12086,"acostuma":12087,"Egipte":12088,"!,":12089,"\";":12090,"%),":12091,"130":12092,"Mesa":12093,"Mach":12094,"One":12095,"Pav":12096,"PLA":12097,"POS":12098,"pist":12099,"encàrrec":12100,"tracció":12101,"desesper":12102,"exposa":12103,"capes":12104,"Alonso":12105,"àntica":12106,"deixin":12107,"localitzar":12108,"especialitzats":12109,"sofr":12110,"futurs":12111,"Tras":12112,"Montjuï":12113,"recordem":12114,"Corona":12115,"funcionari":12116,"Garant":12117,"Presidència":12118,"guerres":12119,"1986":12120,"traslladat":12121,"9788":12122,"ordenar":12123,"autonòmic":12124,"ingüística":12125,"esmentat":12126,"Àngels":12127,"religiós":12128,"admeten":12129,"comissari":12130,"Coordinadora":12131,"suplements":12132,"Alternat":12133,"Alejandro":12134,"inoblidable":12135,"barbacoa":12136,"BER":12137,"Holl":12138,"Tècn":12139,"Vilar":12140,"gor":12141,"ión":12142,"çats":12143,"úniques":12144,"deure":12145,"onalment":12146,"retar":12147,"reial":12148,"prost":12149,"segr":12150,"éssim":12151,"diplom":12152,"Elis":12153,"tebr":12154,"cionalització":12155,"ibil":12156,"tarrag":12157,"juguen":12158,"room":12159,"pula":12160,"Quint":12161,"deixarà":12162,"treballem":12163,"files":12164,"canta":12165,"proposem":12166,"genial":12167,"socia":12168,"Llum":12169,"noticia":12170,"limita":12171,"frau":12172,"Creat":12173,"Creus":12174,"comparar":12175,"comparteix":12176,"ogràfiques":12177,"obligatòria":12178,"prohibit":12179,"acadèmica":12180,"competitivitat":12181,"hipò":12182,"metropolitana":12183,"demarcació":12184,"Ningú":12185,"Montjuïc":12186,"Bill":12187,"call":12188,"datge":12189,"pneum":12190,"uma":12191,"xid":12192,"òmics":12193,"enve":12194,"sea":12195,"desconegut":12196,"exten":12197,"ulla":12198,"sumat":12199,"denes":12200,"esco":12201,"Alum":12202,"ebra":12203,"Inform":12204,"Bartomeu":12205,"àndia":12206,"regals":12207,"crisis":12208,"funer":12209,"Paral":12210,"missa":12211,"continuada":12212,"Assist":12213,"postura":12214,"extens":12215,"Canvi":12216,"farina":12217,"INTER":12218,"Colla":12219,"reguts":12220,"recupera":12221,"trastorn":12222,"MAS":12223,"èmics":12224,"Lliure":12225,"Mercad":12226,"associat":12227,"Book":12228,"1988":12229,"adequades":12230,"EUR":12231,"EUiA":12232,"físics":12233,"mínims":12234,"urgències":12235,"desitja":12236,"contribució":12237,"acabada":12238,"celebracions":12239,"qualificat":12240,"Escoles":12241,"Hostal":12242,"plasma":12243,"renovables":12244,"prudència":12245,"Alimentació":12246,"ansietat":12247,"restring":12248,"Coc":12249,"Dic":12250,"Mala":12251,"PDe":12252,"cobert":12253,"host":12254,"link":12255,"nec":12256,"sona":12257,"tún":12258,"òtics":12259,"—,":12260,"elit":12261,"itenci":12262,"convent":12263,"ixen":12264,"gulars":12265,"provo":12266,"ulen":12267,"ferma":12268,"abo":12269,"plàn":12270,"roga":12271,"espant":12272,"juntes":12273,"cuinar":12274,"cines":12275,"brossa":12276,"CAS":12277,"educ":12278,"Cala":12279,"Model":12280,"consumidor":12281,"beure":12282,"comerciants":12283,"estreta":12284,"creuar":12285,"Roser":12286,"futbolista":12287,"disposats":12288,"anglesa":12289,"equitat":12290,"reivindicacions":12291,"cooperatives":12292,"liberal":12293,"concrets":12294,"provincial":12295,"embaràs":12296,"estrictament":12297,"sacer":12298,"audiovisuals":12299,"registres":12300,"roquial":12301,"BARCELONA":12302,"'),":12303,"3a":12304,"Gall":12305,"Jac":12306,"gera":12307,"sada":12308,"sing":12309,"detenció":12310,"analitza":12311,"index":12312,"itiva":12313,"aman":12314,"taxes":12315,"desnivell":12316,"davall":12317,"acúst":12318,"creus":12319,"coca":12320,"pujat":12321,"puguis":12322,"regalar":12323,"sentia":12324,"salu":12325,"Contempor":12326,"Confederació":12327,"TATS":12328,"altats":12329,"Emili":12330,"constància":12331,"Corre":12332,"gasos":12333,"compromès":12334,"Tercer":12335,"lleial":12336,"adreçat":12337,"debatre":12338,"alemanya":12339,"prohibició":12340,"perspectives":12341,"logo":12342,"Centres":12343,"intencions":12344,"suspendre":12345,"folk":12346,"Districte":12347,"Formentera":12348,"Burg":12349,"Eco":12350,"FIN":12351,"Sob":12352,"Vel":12353,"apre":12354,"déu":12355,"Àustria":12356,"onga":12357,"iners":12358,"perdent":12359,"setanta":12360,"ote":12361,"obe":12362,"obse":12363,"Elx":12364,"Elena":12365,"exam":12366,"plà":12367,"volut":12368,"disfrut":12369,"tino":12370,"visibles":12371,"unyol":12372,"Independència":12373,"avor":12374,"viabilitat":12375,"Condicions":12376,"polígon":12377,"directiva":12378,"moto":12379,"motx":12380,"check":12381,"Vilas":12382,"Associa":12383,"International":12384,"Llull":12385,"curiós":12386,"refre":12387,"notar":12388,"desenvolupant":12389,"Orden":12390,"considerada":12391,"funcionen":12392,"trastorns":12393,"Materi":12394,"expressat":12395,"horab":12396,"regidoria":12397,"Instal":12398,"Actualitzada":12399,"Blanc":12400,"precisió":12401,"renovar":12402,"conveniència":12403,"ençà":12404,"convidar":12405,"processament":12406,"cristiana":12407,"costums":12408,"salvatge":12409,"reportatge":12410,"cívica":12411,"PDeCAT":12412,"Bre":12413,"DOR":12414,"God":12415,"Om":12416,"Pineda":12417,"Sall":12418,"Vell":12419,"XA":12420,"aigu":12421,"beca":12422,"jeccions":12423,"landa":12424,"mia":12425,"orem":12426,"pins":12427,"roses":12428,"revés":12429,"entena":12430,"divor":12431,"ambul":12432,"tag":12433,"usk":12434,"day":12435,"liques":12436,"oces":12437,"ocat":12438,"rivals":12439,"petr":12440,"capella":12441,"Intel":12442,"colònies":12443,"passad":12444,"solars":12445,"estral":12446,"actives":12447,"fidels":12448,"nega":12449,"uïlla":12450,"caminant":12451,"rugell":12452,"càrregues":12453,"afegim":12454,"vore":12455,"Suport":12456,"aconsegueixen":12457,"integrants":12458,"espectaculars":12459,"robatori":12460,"flot":12461,"Entrevista":12462,"necessiteu":12463,"Saint":12464,"adapta":12465,"distribu":12466,"GABA":12467,"telèfons":12468,"múscul":12469,"Glòria":12470,"Petit":12471,"enriquir":12472,"guardó":12473,"Tecnologia":12474,"Zapat":12475,"Modern":12476,"')":12477,"Durada":12478,"UIB":12479,"XII":12480,"bs":12481,"basc":12482,"óra":12483,"​​":12484,"omar":12485,"icant":12486,"desenes":12487,"acho":12488,"pagat":12489,"pou":12490,"eccion":12491,"anses":12492,"tien":12493,"clà":12494,"passades":12495,"Marg":12496,"Marroc":12497,"ràtic":12498,"incidències":12499,"natació":12500,"uresa":12501,"Conta":12502,"low":12503,"mundi":12504,"from":12505,"instància":12506,"agressi":12507,"Casas":12508,"Castel":12509,"equipatge":12510,"dormit":12511,"guanyant":12512,"celebren":12513,"gestiona":12514,"valencianes":12515,"èlix":12516,"teixits":12517,"amarca":12518,"acusacions":12519,"galeria":12520,"excelent":12521,"fascin":12522,"vegetals":12523,"lectuals":12524,"estudia":12525,"transversal":12526,"longitud":12527,"Electr":12528,"Sarrià":12529,"Vostè":12530,"fàrmac":12531,"sacerdot":12532,"CT":12533,"Gala":12534,"Sindic":12535,"TRES":12536,"gada":12537,"puny":12538,"endes":12539,"atorg":12540,"sets":12541,"adult":12542,"anticip":12543,"emissió":12544,"parer":12545,"resseny":12546,"nacionalitat":12547,"entregar":12548,"venils":12549,"itudin":12550,"calenta":12551,"puga":12552,"activament":12553,"italiana":12554,"Divers":12555,"presidents":12556,"referir":12557,"descoberta":12558,"Extra":12559,"culte":12560,"conversió":12561,"Universitari":12562,"TICA":12563,"ocupat":12564,"realitats":12565,"interpretat":12566,"assolit":12567,"permetran":12568,"vermella":12569,"publici":12570,"Ernest":12571,"Femen":12572,"feminisme":12573,"desplaçaments":12574,"views":12575,"sobiranista":12576,"Verdaguer":12577,"Michel":12578,"Ef":12579,"bec":12580,"gna":12581,"him":12582,"pura":12583,"tals":12584,"íeu":12585,"estals":12586,"oler":12587,"illament":12588,"hidr":12589,"jap":12590,"marquen":12591,"clos":12592,"creadors":12593,"coher":12594,"minor":12595,"puguen":12596,"lligat":12597,"Quí":12598,"ESTI":12599,"deixava":12600,"ington":12601,"Revolució":12602,"salaris":12603,"Conèixer":12604,"onald":12605,"iliars":12606,"directius":12607,"vincles":12608,"governar":12609,"lamentat":12610,"buits":12611,"biografia":12612,"afectació":12613,"dominant":12614,"Moore":12615,"UNYA":12616,"Llibertat":12617,"constituir":12618,"identificat":12619,"juris":12620,"ensenya":12621,"lustr":12622,"reclamat":12623,"Pepe":12624,"migració":12625,"externa":12626,"Circ":12627,"armari":12628,"haureu":12629,"contrasenya":12630,"monitors":12631,"descobriment":12632,"pollastre":12633,"Ciudad":12634,"aïllament":12635,"reciclatge":12636,"persecució":12637,"conformitat":12638,"Calafell":12639,"involucr":12640,"350":12641,"ETA":12642,"My":12643,"Nota":12644,"TEL":12645,"Trem":12646,"aconsella":12647,"cobreix":12648,"fili":12649,"sobres":12650,"deter":12651,"deures":12652,"alo":12653,"remarcar":12654,"incesa":12655,"entesa":12656,"itades":12657,"está":12658,"conjunts":12659,"ete":12660,"aqui":12661,"exteriors":12662,"ultra":12663,"assent":12664,"ged":12665,"calen":12666,"autop":12667,"estranya":12668,"trucada":12669,"homosex":12670,"Prob":12671,"destinada":12672,"ventall":12673,"militant":12674,"digna":12675,"Org":12676,"integrada":12677,"massiva":12678,"aprofita":12679,"Berlín":12680,"còmic":12681,"conductes":12682,"anuncis":12683,"vuitanta":12684,"lustracions":12685,"melo":12686,"inspiració":12687,"residu":12688,"cobrar":12689,"Montseny":12690,"otips":12691,"CATALUNYA":12692,"Cob":12693,"Dansa":12694,"Fisi":12695,"Pit":12696,"Wal":12697,"drien":12698,"fans":12699,"gant":12700,"jarà":12701,"pam":12702,"encapç":12703,"eles":12704,"isca":12705,"estret":12706,"tristes":12707,"iler":12708,"desfer":12709,"verna":12710,"pression":12711,"plàstics":12712,".....":12713,"Enrique":12714,"intenten":12715,"Introdu":12716,"DEN":12717,"errada":12718,"toris":12719,"documentals":12720,"Corpor":12721,"localitats":12722,"compromisos":12723,"Granada":12724,"robatoris":12725,"letisme":12726,"Amposta":12727,"combinar":12728,"1982":12729,"pantal":12730,"abandonat":12731,"Esportiva":12732,"activació":12733,"abraçada":12734,"imprescindibles":12735,"cloenda":12736,"destruir":12737,"rellevància":12738,"Charles":12739,"desplegament":12740,"sàp":12741,"consumir":12742,"DVD":12743,"Palafrugell":12744,"TSJC":12745,"esbrinar":12746,"!)":12747,"').":12748,"Avan":12749,"Cro":12750,"Ecol":12751,"Gor":12752,"Obert":12753,"SEN":12754,"TN":12755,"Tam":12756,"balla":12757,"ey":12758,"gés":12759,"rades":12760,"you":12761,"àpies":12762,"árez":12763,"decre":12764,"arrela":12765,"icona":12766,"caixes":12767,"desert":12768,"lie":12769,"terap":12770,"veres":12771,"fortal":12772,"precari":12773,"mau":12774,"venut":12775,"cremar":12776,"cereb":12777,"Quader":12778,"viable":12779,"Relacions":12780,"llavis":12781,"broma":12782,"bronze":12783,"agressió":12784,"pastor":12785,"simp":12786,"virtut":12787,"140":12788,"proposen":12789,"ideologia":12790,"trients":12791,"lamenta":12792,"cepció":12793,"ciutadanes":12794,"Papa":12795,"jugada":12796,"Solé":12797,"convencional":12798,"relacionar":12799,"factures":12800,"dotació":12801,"corresponen":12802,"ike":12803,"Creació":12804,"prioritats":12805,"desaparició":12806,"Rock":12807,"disminució":12808,"Ciuta":12809,"horitzó":12810,"vertical":12811,"crescut":12812,"despertador":12813,"Nobel":12814,"110":12815,"CGT":12816,"Dan":12817,"Dir":12818,"DER":12819,"GAR":12820,"Jul":12821,"Next":12822,"Tit":12823,"VOL":12824,"zen":12825,"degu":12826,"anima":12827,"citar":12828,"orze":12829,"trof":12830,"otera":12831,"obté":12832,"lelament":12833,"versi":12834,"llop":12835,"carnet":12836,"dencia":12837,"tedra":12838,"portiu":12839,"clars":12840,"1940":12841,"quies":12842,"Marxa":12843,"Aquell":12844,"regional":12845,"encialment":12846,"Estiu":12847,"tanmateix":12848,"comunitari":12849,"sortint":12850,"rebran":12851,"Jose":12852,"sancions":12853,"recordant":12854,"ponents":12855,"dolent":12856,"considerable":12857,"UNT":12858,"científiques":12859,"Volunt":12860,"acabava":12861,"NOU":12862,"atacar":12863,"Beat":12864,"plenes":12865,"detectat":12866,"radic":12867,"Vídeo":12868,"Territorial":12869,"Navarra":12870,"comandament":12871,"escultura":12872,"contínua":12873,"narrativa":12874,"pagesos":12875,"stein":12876,"butxaca":12877,"remei":12878,"adreces":12879,"pàrquing":12880,"Aro":12881,"Basc":12882,"Bret":12883,"Fru":12884,"Hid":12885,"Veu":12886,"aC":12887,"apla":12888,"fasi":12889,"màn":12890,"peg":12891,"ptic":12892,"òpia":12893,"lador":12894,"pere":12895,"issin":12896,"adopció":12897,"convèncer":12898,"taxi":12899,"icional":12900,"presum":12901,"media":12902,"suports":12903,"venç":12904,"corat":12905,"gespa":12906,"125":12907,"vinya":12908,"Core":12909,"mussaf":12910,"núvols":12911,"destacades":12912,"humil":12913,"UPF":12914,"Diagonal":12915,"gèneres":12916,"1975":12917,"identifica":12918,"capitalisme":12919,"urgents":12920,"assumpte":12921,"criminal":12922,"compartida":12923,"Econòmica":12924,"icultors":12925,"autònoma":12926,"significatiu":12927,"escalf":12928,"configurar":12929,"facultat":12930,"lògic":12931,"àcid":12932,"culler":12933,"Utilitz":12934,"mercaderies":12935,"modalitats":12936,"Vilassar":12937,"Ciutadella":12938,"Brossa":12939,"Isi":12940,"Lis":12941,"Llí":12942,"UOC":12943,"Vide":12944,"Xile":12945,"dren":12946,"mats":12947,"dedu":12948,"enfil":12949,"amfit":12950,"sect":12951,"taca":12952,"postres":12953,"2030":12954,"traves":12955,"arida":12956,"creativa":12957,"rano":12958,"Alhora":12959,"juvenils":12960,"cala":12961,"joia":12962,"dico":12963,"savi":12964,"Joana":12965,"vingui":12966,"CACIÓ":12967,"vocal":12968,"donacions":12969,"famosos":12970,"ING":12971,"lluitant":12972,"here":12973,"demostració":12974,"limitació":12975,"Final":12976,"variant":12977,"gustos":12978,"beneficiar":12979,"plantejament":12980,"satisfact":12981,"acusació":12982,"encaden":12983,"acosta":12984,"acumulat":12985,"Indústria":12986,"branques":12987,"Virgili":12988,"ligents":12989,"promocionar":12990,"Cooperativa":12991,"manipulació":12992,"glucosa":12993,"aguantar":12994,"Front":12995,"Convergència":12996,"escombr":12997,"Thomas":12998,"peculiar":12999,"%).":13000,"HC":13001,"Junt":13002,"MÀ":13003,"Ris":13004,"cures":13005,"jam":13006,"mg":13007,"deus":13008,"departaments":13009,"aleg":13010,"onista":13011,"repres":13012,"omat":13013,"obtenció":13014,"parci":13015,"vident":13016,"veur":13017,"poetes":13018,"trag":13019,"recur":13020,"Enten":13021,"dissen":13022,"urem":13023,"cou":13024,"espon":13025,"cros":13026,"pene":13027,"necessitar":13028,"necessites":13029,"llets":13030,"rene":13031,"inicials":13032,"ubi":13033,"plicacions":13034,"complexa":13035,"noticies":13036,"desenvolupen":13037,"limitada":13038,"Sanz":13039,"seleccionar":13040,"Cated":13041,"adequats":13042,"ministres":13043,"sostenibles":13044,"Pedra":13045,"Oliva":13046,"alemanys":13047,"ònims":13048,"vinculada":13049,"enfrontament":13050,"blancs":13051,"bombol":13052,"consolidació":13053,"específicament":13054,"monitor":13055,"Descobreix":13056,"síndrome":13057,"espiritual":13058,"Cau":13059,"Narc":13060,"PF":13061,"Paris":13062,"Stat":13063,"SOL":13064,"hur":13065,"pus":13066,"sana":13067,"reis":13068,"delin":13069,"trics":13070,"ctura":13071,"conformen":13072,"urats":13073,"haja":13074,"now":13075,"exàmens":13076,"ulo":13077,"ferit":13078,"abat":13079,"nacions":13080,"jueus":13081,"heimer":13082,"mite":13083,"activistes":13084,"Concretament":13085,"Deci":13086,"agrupa":13087,"proced":13088,"missions":13089,"CO2":13090,"construïda":13091,"Cooperació":13092,"demanem":13093,"illas":13094,"culo":13095,"gaudit":13096,"Prevenció":13097,"assistent":13098,"recuperat":13099,"sisena":13100,"jutjats":13101,"Cuina":13102,"increïble":13103,"1979":13104,"vénen":13105,"1968":13106,"dibuixar":13107,"relatiu":13108,"climàtica":13109,"connexions":13110,"disciplines":13111,"inventar":13112,"acolli":13113,"This":13114,"cognom":13115,"símbols":13116,"seminari":13117,"estadístiques":13118,"Irlanda":13119,"partícules":13120,"insectes":13121,"significativa":13122,"antiguitat":13123,"Narcís":13124,"Agrup":13125,"Deu":13126,"Ko":13127,"Rull":13128,"[[":13129,"cn":13130,"eja":13131,"ebre":13132,"hat":13133,"mama":13134,"xut":13135,"zón":13136,"endo":13137,"oms":13138,"diem":13139,"ily":13140,"tapa":13141,"fert":13142,"abús":13143,"eco":13144,"enciada":13145,"estris":13146,"ilip":13147,"Carnaval":13148,"protestes":13149,"tovall":13150,"mitjanes":13151,"CIES":13152,"german":13153,"signa":13154,"event":13155,"representacions":13156,"sous":13157,"extensa":13158,"investigadora":13159,"trencat":13160,"àstima":13161,"territorials":13162,"Vict":13163,"repàs":13164,"drama":13165,"afirmen":13166,"robar":13167,"grapat":13168,"Pasqua":13169,"hasta":13170,"1970":13171,"vivències":13172,"Menys":13173,"acusats":13174,"Piqué":13175,"disposem":13176,"implicar":13177,"acabant":13178,"sensible":13179,"jeje":13180,"transparent":13181,"mediterrània":13182,"Apartments":13183,"felicitar":13184,"mostrant":13185,"Ponent":13186,"Christ":13187,"vinculat":13188,"corregir":13189,"indispensable":13190,"1000":13191,"Bach":13192,"BLE":13193,"Blasco":13194,"Caf":13195,"Joc":13196,"Penya":13197,"Ull":13198,"aur":13199,"ave":13200,"psi":13201,"restant":13202,"¡¡":13203,"ese":13204,"quotes":13205,"remode":13206,"isses":13207,"oliva":13208,"seta":13209,"diàriament":13210,"emportar":13211,"vei":13212,"pautes":13213,"predic":13214,"discursos":13215,"maris":13216,"cortes":13217,"legalment":13218,"penjat":13219,"península":13220,"mides":13221,"transforma":13222,"coneixer":13223,"gràfiques":13224,"CIU":13225,"inclús":13226,"altament":13227,"úncia":13228,"publicats":13229,"Empreses":13230,"mediambiental":13231,"llençar":13232,"Lletres":13233,"Judit":13234,"PSPV":13235,"ocupen":13236,"titulars":13237,"expressions":13238,"tecnològica":13239,"demostren":13240,"Pasqual":13241,"1985":13242,"exigents":13243,"QUI":13244,"patrons":13245,"químics":13246,"George":13247,"mensual":13248,"disminu":13249,"innovador":13250,"branca":13251,"________":13252,"raonable":13253,"Besòs":13254,"Arriba":13255,"Energia":13256,"concloure":13257,"provinents":13258,"divorci":13259,"dissenys":13260,"IMP":13261,"MIN":13262,"Pint":13263,"Sou":13264,"Sard":13265,"Tara":13266,"Tube":13267,"Vista":13268,"VII":13269,"càst":13270,"ejat":13271,"çol":13272,"él":13273,"altar":13274,"inaris":13275,"amiento":13276,"immens":13277,"pors":13278,"llogar":13279,"jaja":13280,"temàtiques":13281,"creacions":13282,"roques":13283,"solem":13284,"dards":13285,"Armengol":13286,"males":13287,"transform":13288,"Parelles":13289,"rebuda":13290,"relativa":13291,"triple":13292,"RAT":13293,"sovi":13294,"book":13295,"camió":13296,"gaudint":13297,"260":13298,"núvol":13299,"Sueca":13300,"mules":13301,"Leo":13302,"1983":13303,"adequació":13304,"pantalles":13305,"agradi":13306,"pilars":13307,"secundar":13308,"inferiors":13309,"encarregar":13310,"Demà":13311,"alliberar":13312,"bloqueig":13313,"Hospi":13314,"Whats":13315,"exhibició":13316,"cirurgia":13317,"presidit":13318,"envelliment":13319,"tèxtil":13320,"Ani":13321,"CSI":13322,"Edat":13323,"Gis":13324,"Nas":13325,"SAR":13326,"còn":13327,"dog":13328,"ian":13329,"pad":13330,"ràn":13331,"áñez":13332,"anis":13333,"perdó":13334,"estany":13335,"trentena":13336,"imper":13337,"impartir":13338,"riera":13339,"duel":13340,"caram":13341,"volar":13342,"fauna":13343,"mesurar":13344,"fice":13345,"presentats":13346,"Noguera":13347,"tico":13348,"estàvem":13349,"profes":13350,"enciació":13351,"vincle":13352,"mantega":13353,"ulleres":13354,"centí":13355,"Salt":13356,"ordinari":13357,"òsof":13358,"personalitats":13359,"sonora":13360,"universitària":13361,"èmfasi":13362,"infantesa":13363,"Avís":13364,"agafat":13365,"anomenats":13366,"fitxa":13367,"períodes":13368,"Auton":13369,"Galícia":13370,"Clau":13371,"planificar":13372,"innovadores":13373,"Labor":13374,"enemics":13375,"desplaçament":13376,"dirigides":13377,"Manten":13378,"CURS":13379,"Control":13380,"terapèut":13381,"BL":13382,"Bed":13383,"Bou":13384,"BTT":13385,"Dor":13386,"EMP":13387,"Júlia":13388,"MOL":13389,"PEN":13390,"POL":13391,"Rober":13392,"Sandra":13393,"tle":13394,"xamp":13395,"àniament":13396,"engr":13397,"erto":13398,"trom":13399,"imposa":13400,"descomptes":13401,"mentida":13402,"allo":13403,"traï":13404,"complicitat":13405,"creences":13406,"inava":13407,"primàries":13408,"Almussaf":13409,"Info":13410,"correcció":13411,"corrents":13412,"Barris":13413,"presentant":13414,"Qualitat":13415,"íntim":13416,"Estació":13417,"cint":13418,"agrícoles":13419,"situats":13420,"viny":13421,"destinar":13422,"simbol":13423,"dependències":13424,"tira":13425,"refereix":13426,"turístiques":13427,"àlisis":13428,"Vilade":13429,"nutrients":13430,"conducció":13431,"Iniciativa":13432,"extrems":13433,"reclamen":13434,"compareixen":13435,"acusa":13436,"informàtic":13437,"volums":13438,"Instru":13439,"religioses":13440,"consolidat":13441,"Ripollès":13442,"Metropolit":13443,"lliçó":13444,"AF":13445,"Der":13446,"Got":13447,"Gut":13448,"Gèn":13449,"Ima":13450,"beb":13451,"ificat":13452,"sag":13453,"òbil":13454,"devia":13455,"alli":13456,"reconeguts":13457,"prestat":13458,"estades":13459,"desgas":13460,"ulli":13461,"forestals":13462,"accion":13463,"disme":13464,"calaix":13465,"puig":13466,"cere":13467,"bén":13468,"màgica":13469,"accessos":13470,"rebuts":13471,"utilitzades":13472,"temporals":13473,"right":13474,"huana":13475,"essoris":13476,"arribava":13477,"Seguim":13478,"Històric":13479,"migrants":13480,"Mario":13481,"vegetal":13482,"atorgar":13483,"bomba":13484,"masculina":13485,"escapada":13486,"narració":13487,"Alfonso":13488,"Assessor":13489,"contínu":13490,"Provincial":13491,"Executiu":13492,"Street":13493,"Adol":13494,"CPU":13495,"Dalt":13496,"GP":13497,"King":13498,"LLA":13499,"apoder":13500,"bola":13501,"caments":13502,"ei":13503,"fps":13504,"otros":13505,"pals":13506,"palla":13507,"alet":13508,"reve":13509,"retaria":13510,"under":13511,"queixes":13512,"amigues":13513,"prestar":13514,"advers":13515,"dipos":13516,"confer":13517,"tabac":13518,"ussa":13519,"cafet":13520,"abol":13521,"ecològic":13522,"duent":13523,"assada":13524,"carbó":13525,"clis":13526,"barrera":13527,"coron":13528,"menuts":13529,"agreu":13530,"igualtats":13531,"rero":13532,"regla":13533,"grand":13534,"vante":13535,"Carla":13536,"Carre":13537,"Consult":13538,"films":13539,"Guany":13540,"gencat":13541,"publicades":13542,"Mapa":13543,"box":13544,"assegurança":13545,"dividir":13546,"palau":13547,"Inicio":13548,"Patri":13549,"titulada":13550,"News":13551,"crimin":13552,"gressió":13553,"August":13554,"Companys":13555,"insisteix":13556,"Castells":13557,"fragments":13558,"previsions":13559,"Recordeu":13560,"porteria":13561,"gironines":13562,"acomiadar":13563,"marihuana":13564,"Arquitectura":13565,"dediquen":13566,"School":13567,"Empresarial":13568,"propaganda":13569,"Roberto":13570,"Apartament":13571,"Bit":13572,"Bola":13573,"Band":13574,"CCIÓ":13575,"Fill":13576,"Freix":13577,"Hora":13578,"Rel":13579,"Reix":13580,"Rector":13581,"Sé":13582,"Teix":13583,"Viv":13584,"afortun":13585,"fec":13586,"ién":13587,"mont":13588,"nals":13589,"zer":13590,"èt":13591,"úni":13592,"angular":13593,"oso":13594,"oltes":13595,"comicis":13596,"desfi":13597,"traçat":13598,"escoll":13599,"dispar":13600,"19h":13601,"colles":13602,"socialment":13603,"mbia":13604,"qualitats":13605,"incident":13606,"grams":13607,"Prats":13608,"mossos":13609,"realitzaran":13610,"CIE":13611,"germanes":13612,"TACIÓ":13613,"apropa":13614,"memor":13615,"ològicament":13616,"distàncies":13617,"comprometre":13618,"Verge":13619,"TVE":13620,"gratuïtes":13621,"1974":13622,"criticar":13623,"assumeix":13624,"desitjos":13625,"docència":13626,"ordenació":13627,"preferències":13628,"madura":13629,"coincideix":13630,"Biologia":13631,"parlamentària":13632,"fiscalia":13633,"arquitectònic":13634,"elegit":13635,"externes":13636,"disminuir":13637,"soft":13638,"Oriental":13639,"financers":13640,"equivalent":13641,"densitat":13642,"Tallers":13643,"Richard":13644,"Almussafes":13645,"Aigu":13646,"Fos":13647,"Gui":13648,"Hand":13649,"Kat":13650,"Sac":13651,"Tens":13652,"ifi":13653,"mell":13654,"mosa":13655,"mescla":13656,"pg":13657,"tomb":13658,"ànies":13659,"anant":13660,"permis":13661,"abas":13662,"icias":13663,"veieu":13664,"poètica":13665,"interro":13666,"1930":13667,"Altea":13668,"Mary":13669,"jovent":13670,"Anar":13671,"piques":13672,"Conca":13673,"millorant":13674,"mercant":13675,"todos":13676,"organitzats":13677,"Parlem":13678,"portacions":13679,"educar":13680,"enyes":13681,"webs":13682,"cepti":13683,"fang":13684,"Manif":13685,"miler":13686,"causat":13687,"ugh":13688,"aplicat":13689,"afegint":13690,"lluites":13691,"Suárez":13692,"integritat":13693,"perfecció":13694,"pagès":13695,"alimentaris":13696,"dotzena":13697,"criticat":13698,"Imperi":13699,"signatures":13700,"ogràfics":13701,"avisar":13702,"complicada":13703,"variables":13704,"Arxivat":13705,"Secretaria":13706,"Blau":13707,"Mitjà":13708,"extremadament":13709,"commemor":13710,"terrorisme":13711,"microones":13712,"excursions":13713,"Sortida":13714,"itineraris":13715,"biodiversitat":13716,"columnes":13717,"rutina":13718,"horitzont":13719,"patriar":13720,"mòduls":13721,"converteixen":13722,"íntegrament":13723,"Transició":13724,"extinció":13725,"hectàrees":13726,"</":13727,"Ast":13728,"Aires":13729,"Aigües":13730,"Che":13731,"Dénia":13732,"ITAT":13733,"Top":13734,"War":13735,"dri":13736,"jun":13737,"ng":13738,"natal":13739,"pció":13740,"zu":13741,"ense":13742,"ciber":13743,"inda":13744,"vast":13745,"parent":13746,"porc":13747,"vertebr":13748,"interlocut":13749,"finalització":13750,"deixeu":13751,"simpli":13752,"ología":13753,"COS":13754,"travessa":13755,"permetia":13756,"cadu":13757,"jugarà":13758,"nuclis":13759,"Cervera":13760,"terrasses":13761,"Tenen":13762,"econòmicament":13763,"satisfet":13764,"multina":13765,"derivades":13766,"autonom":13767,"impecable":13768,"bitllets":13769,"automàtica":13770,"certificació":13771,"multimèdia":13772,"Domingo":13773,"Projectes":13774,"Center":13775,"videojocs":13776,"feixista":13777,"descriure":13778,"falses":13779,"olím":13780,"barceloní":13781,"enganx":13782,"amplada":13783,"llibreries":13784,"progressiva":13785,"Arquebisbe":13786,"setmanal":13787,"Categories":13788,"Hilbert":13789,"Americ":13790,"portàtil":13791,"Buenos":13792,"considerem":13793,"Connect":13794,"Opinió":13795,"Zapatero":13796,"450":13797,"Biblioteques":13798,"Celler":13799,"Evident":13800,"FF":13801,"Fant":13802,"FRAN":13803,"Fèlix":13804,"GL":13805,"JUN":13806,"Lingüística":13807,"Ox":13808,"Tab":13809,"bou":13810,"gom":13811,"iquen":13812,"ji":13813,"nº":13814,"nò":13815,"pseu":13816,"xu":13817,"ardo":13818,"atòria":13819,"represa":13820,"incompliment":13821,"ampolla":13822,"adient":13823,"conces":13824,"conreu":13825,"posici":13826,"poseu":13827,"Person":13828,"clari":13829,"coherència":13830,"tesa":13831,"1960":13832,"menció":13833,"Comple":13834,"diré":13835,"presentem":13836,"ceràmica":13837,"ogen":13838,"peny":13839,"ellada":13840,"tractats":13841,"Estany":13842,"Estadi":13843,"agrup":13844,"Consist":13845,"utilitzada":13846,"filòsof":13847,"baixant":13848,"pesa":13849,"Segre":13850,"pròr":13851,"familia":13852,"Lleó":13853,"Torna":13854,"personalitzat":13855,"dedicats":13856,"comercialització":13857,"confiar":13858,"entrenar":13859,"començava":13860,"precisa":13861,"habilitar":13862,"ENTRE":13863,"aportant":13864,"impedeix":13865,"propietària":13866,"neutr":13867,"insistir":13868,"Declar":13869,"externs":13870,"cloa":13871,"Escolar":13872,"atractiva":13873,"ascensor":13874,"assignatures":13875,"Felipe":13876,"sorgeix":13877,"Carreras":13878,"detallat":13879,"icisme":13880,"precedents":13881,"legacions":13882,"horabona":13883,"Margarida":13884,"=\"":13885,"FL":13886,"Gom":13887,"Irene":13888,"Lectura":13889,"Pil":13890,"Sàn":13891,"SAN":13892,"Sagrada":13893,"Tim":13894,"git":13895,"heter":13896,"só":13897,"òmens":13898,"pern":13899,"perador":13900,"sep":13901,"trius":13902,"emmarca":13903,"desigualtats":13904,"amental":13905,"ressò":13906,"raïm":13907,"orsa":13908,"venien":13909,"intents":13910,"Inn":13911,"auditori":13912,"cerc":13913,"Nous":13914,"regener":13915,"penes":13916,"valles":13917,"opat":13918,"neol":13919,"loqui":13920,"ciliació":13921,"Prima":13922,"nacionalistes":13923,"mirador":13924,"Assum":13925,"Caldes":13926,"Exper":13927,"refres":13928,"contestar":13929,"fama":13930,"Roda":13931,"Paeria":13932,"entenem":13933,"romans":13934,"estimada":13935,"òlics":13936,"ibliotec":13937,"recomano":13938,"mèrit":13939,"efectuar":13940,"coordinadora":13941,"Llagos":13942,"Olga":13943,"Bonet":13944,"Simon":13945,"parlamentaris":13946,"oxigen":13947,"aproximació":13948,"liderar":13949,"adoptat":13950,"Articles":13951,"advertit":13952,"Aleix":13953,"Mitjançant":13954,"emprar":13955,"succeir":13956,"nadons":13957,"engegar":13958,"obtinguts":13959,"Dinamarca":13960,"ystem":13961,"Álvaro":13962,"Tags":13963,"aprofitament":13964,"emissora":13965,"túnel":13966,"amfitri":13967,"escombraries":13968,"Amat":13969,"Crida":13970,"Eusk":13971,"Idi":13972,"Mini":13973,"cany":13974,"fast":13975,"mex":13976,"tú":13977,"anza":13978,"inde":13979,"vapor":13980,"impl":13981,"descarta":13982,"desastre":13983,"assim":13984,"discos":13985,"gela":13986,"margin":13987,"afili":13988,"penitenci":13989,"actuen":13990,"recta":13991,"onto":13992,"107":13993,"mith":13994,"mites":13995,"brasil":13996,"lleidat":13997,"vinyes":13998,"organitzades":13999,"promesa":14000,"simula":14001,"cantonada":14002,"diner":14003,"claredat":14004,"Franques":14005,"productiva":14006,"gestions":14007,"èrics":14008,"preparada":14009,"fosca":14010,"girona":14011,"mecànica":14012,"Tenia":14013,"recollides":14014,"Paula":14015,"Impul":14016,"Climent":14017,"perillós":14018,"ruptura":14019,"1969":14020,"Natació":14021,"resistent":14022,"Rubén":14023,"651":14024,"Down":14025,"Peter":14026,"facebook":14027,"commemoració":14028,"subjectes":14029,"seleccionats":14030,"cognoms":14031,"reaccionar":14032,"Atlètic":14033,"Records":14034,"acostumats":14035,"William":14036,"Avaluació":14037,"Pierre":14038,"LGTBI":14039,"petroli":14040,"precarietat":14041,"Evidentment":14042,"Chan":14043,"Ev":14044,"FON":14045,"Java":14046,"Obres":14047,"Sw":14048,"Tos":14049,"Up":14050,"aconsell":14051,"bera":14052,"día":14053,"nistia":14054,"tà":14055,"àniques":14056,"ïns":14057,"€,":14058,"iccions":14059,"emos":14060,"contenir":14061,"urarà":14062,"comunes":14063,"ocol":14064,"20h":14065,"acla":14066,"cardio":14067,"cardí":14068,"coix":14069,"hola":14070,"finalitza":14071,"Coma":14072,"epi":14073,"agor":14074,"regne":14075,"Arrim":14076,"Reunió":14077,"sabtes":14078,"catalunya":14079,"davanter":14080,"sorpreses":14081,"àrbit":14082,"rebent":14083,"telemàtica":14084,"escoltat":14085,"noranta":14086,"regulars":14087,"aplicada":14088,"entenen":14089,"Moncloa":14090,"lliurement":14091,"Lee":14092,"surti":14093,"ajudaran":14094,"fronter":14095,"Senat":14096,"aliats":14097,"derivar":14098,"Ciutadana":14099,"experimentat":14100,"urbanes":14101,"informàtics":14102,"classificar":14103,"debò":14104,"climat":14105,"Music":14106,"impulsada":14107,"imedia":14108,"convocada":14109,"commemorar":14110,"paradís":14111,"seminaris":14112,"presumpte":14113,"preventiva":14114,"immensa":14115,"explosió":14116,"desafi":14117,"xinès":14118,"rànquing":14119,"?)":14120,"Iceta":14121,"Way":14122,"fires":14123,"jas":14124,"jac":14125,"tiu":14126,"ywood":14127,"òces":14128,"anés":14129,"admetre":14130,"diment":14131,"dimit":14132,"conceb":14133,"imposat":14134,"uso":14135,"cadenes":14136,"desem":14137,"desemb":14138,"desobediència":14139,"ultar":14140,"eixir":14141,"verdes":14142,"ivos":14143,"aixo":14144,"naus":14145,"visib":14146,"tatge":14147,"idònia":14148,"seguits":14149,"Informe":14150,"passes":14151,"Catalanes":14152,"democ":14153,"clave":14154,"companyes":14155,"negatius":14156,"formatives":14157,"treballava":14158,"Manacor":14159,"autoritzat":14160,"òrdia":14161,"Colum":14162,"aplicant":14163,"assistencial":14164,"Podemos":14165,"sonor":14166,"Coral":14167,"Recep":14168,"integren":14169,"associada":14170,"aturats":14171,"frontal":14172,"recomanar":14173,"tornava":14174,"Ports":14175,"successi":14176,"Accep":14177,"apartaments":14178,"suposen":14179,"suposadament":14180,"modernista":14181,"acadèmics":14182,"Directiva":14183,"esquerre":14184,"flexibilitat":14185,"bombar":14186,"Andrea":14187,"></":14188,"Dalmau":14189,"diagnostic":14190,"burgesia":14191,"Química":14192,"CRI":14193,"Donald":14194,"Fron":14195,"LC":14196,"Nis":14197,"TEN":14198,"Zones":14199,"apartament":14200,"jal":14201,"kit":14202,"nin":14203,"over":14204,"run":14205,"sir":14206,"çant":14207,"òf":14208,"atletes":14209,"reprendre":14210,"dimissió":14211,"liga":14212,"acollit":14213,"preinscripció":14214,"caris":14215,"recal":14216,"afany":14217,"afecte":14218,"corrup":14219,"Marco":14220,"Margar":14221,"donin":14222,"donats":14223,"catorze":14224,"ogat":14225,"trobi":14226,"produïda":14227,"Rey":14228,"Recom":14229,"sabent":14230,"púries":14231,"edil":14232,"Castro":14233,"Casado":14234,"aparença":14235,"170":14236,"cedeix":14237,"baixat":14238,"Segarra":14239,"Lluna":14240,"faré":14241,"militants":14242,"llegeix":14243,"existir":14244,"corporació":14245,"nervis":14246,"realista":14247,"associades":14248,"Cercle":14249,"critica":14250,"exclo":14251,"Obama":14252,"americanes":14253,"dalena":14254,"comparable":14255,"Beach":14256,"oriental":14257,"psicològic":14258,"òptim":14259,"virtuals":14260,"hostes":14261,"feliços":14262,"pedagogia":14263,"avançant":14264,"YouTube":14265,"esborr":14266,"catedral":14267,"catedràtic":14268,"irregularitats":14269,"apreciar":14270,"Helena":14271,"Síndic":14272,"inevitable":14273,"tragèdia":14274,"cortesia":14275,"compareixença":14276,"Sànchez":14277,"Aga":14278,"Acord":14279,"Dí":14280,"DIS":14281,"Eul":14282,"Fen":14283,"Gib":14284,"Hum":14285,"Heb":14286,"Mig":14287,"Pia":14288,"REN":14289,"Tip":14290,"bale":14291,"dd":14292,"lular":14293,"mona":14294,"ruï":14295,"enf":14296,"cios":14297,"omple":14298,"ombres":14299,"icon":14300,"adqui":14301,"convic":14302,"contenció":14303,"desigualtat":14304,"exhaus":14305,"vià":14306,"suple":14307,"mata":14308,"Espar":14309,"Escrit":14310,"Estava":14311,"clí":14312,"intoler":14313,"guiades":14314,"metà":14315,"patiment":14316,"ERO":14317,"plec":14318,"vincul":14319,"aparegut":14320,"puntu":14321,"evitant":14322,"Empúries":14323,"constants":14324,"interessar":14325,"licita":14326,"complements":14327,"ridí":14328,"festius":14329,"Capital":14330,"acteris":14331,"Pressupost":14332,"Levante":14333,"premta":14334,"Ramos":14335,"llàgr":14336,"conductors":14337,"allotjar":14338,"1976":14339,"aliança":14340,"infern":14341,"Cabrera":14342,"cívic":14343,"estableixen":14344,"Tempor":14345,"xiquetes":14346,"Cursos":14347,"blanques":14348,"Alzheimer":14349,"Bosc":14350,"respiració":14351,"reflecteix":14352,"Recordem":14353,"Drac":14354,"heroi":14355,"recaptar":14356,"pactar":14357,"proteïna":14358,"ecosistema":14359,"minerals":14360,"arreglar":14361,"Infermeria":14362,"(...)":14363,"Ak":14364,"Bab":14365,"DD":14366,"Dur":14367,"Dist":14368,"EE":14369,"FM":14370,"Lola":14371,"Tossa":14372,"bí":14373,"dota":14374,"iblement":14375,"juni":14376,"rons":14377,"tam":14378,"tub":14379,"Òscar":14380,"ïs":14381,"eron":14382,"arre":14383,"arte":14384,"retrib":14385,"reaccions":14386,"inista":14387,"perfor":14388,"estès":14389,"trit":14390,"antif":14391,"conquer":14392,"concedir":14393,"cometre":14394,"illatge":14395,"obvi":14396,"caça":14397,"grip":14398,"vivien":14399,"racional":14400,"papa":14401,"preval":14402,"preocupar":14403,"inson":14404,"portació":14405,"japon":14406,"tion":14407,"dretes":14408,"pedal":14409,"ids":14410,"calcular":14411,"rodatge":14412,"quier":14413,"entry":14414,"plicat":14415,"truc":14416,"localitzacions":14417,"erry":14418,"Calvo":14419,"defels":14420,"camions":14421,"positors":14422,"llibret":14423,"definida":14424,"reguen":14425,"favorables":14426,"gastar":14427,"textura":14428,"fortuna":14429,"alimentar":14430,"editorials":14431,"acceptat":14432,"365":14433,"falles":14434,"suscepti":14435,"extreure":14436,"tradicionalment":14437,"autoestima":14438,"obligada":14439,"obligats":14440,"inaugura":14441,"fugi":14442,"Romero":14443,"Circuit":14444,"arrencar":14445,"Cursa":14446,"suggeriments":14447,"secretaria":14448,"tarifa":14449,"catalanisme":14450,"view":14451,"pessetes":14452,"jubilació":14453,"Pregunt":14454,"Restaurant":14455,"gravació":14456,"Reserva":14457,"Normalment":14458,"cerimònia":14459,"fàrmacs":14460,"degudament":14461,"Victòria":14462,"651x366":14463,"Arrimadas":14464,"?\",":14465,"Crit":14466,"Equ":14467,"IU":14468,"PAL":14469,"Rot":14470,"Sindicat":14471,"VES":14472,"Wo":14473,"banys":14474,"fòs":14475,"lèr":14476,"our":14477,"pess":14478,"sats":14479,"sobr":14480,"uds":14481,"enunci":14482,"alz":14483,"aming":14484,"sedu":14485,"trí":14486,"tràg":14487,"emès":14488,"confort":14489,"usat":14490,"grap":14491,"veurà":14492,"Endesa":14493,"disco":14494,"dero":14495,"idos":14496,"edad":14497,"saga":14498,"malestar":14499,"vegi":14500,"criatura":14501,"criatures":14502,"ody":14503,"superfici":14504,"rich":14505,"signe":14506,"alumini":14507,"ventura":14508,"INE":14509,"començaran":14510,"Montblanc":14511,"Previ":14512,"jugadores":14513,"acompanyen":14514,"sionistes":14515,"encet":14516,"1981":14517,"golf":14518,"Espais":14519,"Tenir":14520,"quirúr":14521,"pinta":14522,"conclòs":14523,"Igualment":14524,"suposarà":14525,"Biel":14526,"particularment":14527,"collita":14528,"adolescència":14529,"inspirat":14530,"logística":14531,"façanes":14532,"gastronòmica":14533,"Edifici":14534,"fórmules":14535,"Ibáñez":14536,"discutir":14537,"Psicologia":14538,"enllumen":14539,"Fuster":14540,"lleugera":14541,"Sallent":14542,"determina":14543,"delinqü":14544,"Declaració":14545,"FUN":14546,"Gat":14547,"Mª":14548,"Mata":14549,"Nàstic":14550,"Pren":14551,"Smith":14552,"falt":14553,"uu":14554,"xics":14555,"òmbia":14556,"detenir":14557,"alia":14558,"aner":14559,"anualment":14560,"laga":14561,"quilla":14562,"elog":14563,"inta":14564,"insuficient":14565,"estere":14566,"antí":14567,"vag":14568,"vaca":14569,"ims":14570,"imat":14571,"oblit":14572,"siguen":14573,"raeli":14574,"ploma":14575,"asso":14576,"tendres":14577,"tingué":14578,"Barceló":14579,"tracten":14580,"banca":14581,"millorat":14582,"tornaran":14583,"singulars":14584,"dites":14585,"canvien":14586,"Pub":14587,"continuem":14588,"dependents":14589,"160":14590,"puntual":14591,"productiu":14592,"genètica":14593,"Maó":14594,"Segon":14595,"Gironès":14596,"investiga":14597,"estructural":14598,"peuta":14599,"convenis":14600,"Castelldefels":14601,"diumenges":14602,"trobaven":14603,"glésies":14604,"assumptes":14605,"youtube":14606,"recullen":14607,"flux":14608,"Busquets":14609,"PCR":14610,"úrgia":14611,"Poblet":14612,"sorgit":14613,"feixisme":14614,"groga":14615,"Priorat":14616,"britànica":14617,"tarifes":14618,"seqüència":14619,"establertes":14620,"nerviós":14621,"blogspot":14622,"Olímpics":14623,"mantindrà":14624,"terrible":14625,"Audiovisual":14626,"explícit":14627,"harmonia":14628,"perifèria":14629,"enfortir":14630,"Guardiola":14631,"esmenes":14632,"Associacions":14633,"pantalons":14634,"Viladecans":14635,"BE":14636,"Carri":14637,"DNI":14638,"Ets":14639,"PM":14640,"Sau":14641,"Sep":14642,"TM":14643,"TUR":14644,"Vinar":14645,"Work":14646,"glos":14647,"hà":14648,"ners":14649,"àrem":14650,"ço":14651,"lag":14652,"atent":14653,"retro":14654,"reconstrucció":14655,"quei":14656,"amort":14657,"old":14658,"posted":14659,"igü":14660,"paviment":14661,"dissol":14662,"Escu":14663,"cova":14664,"1945":14665,"Comenc":14666,"Anàlisi":14667,"olas":14668,"actuat":14669,"produint":14670,"màgic":14671,"Carras":14672,"vindrà":14673,"especialitat":14674,"seguiran":14675,"supermercat":14676,"nacionalista":14677,"RADA":14678,"copal":14679,"Exèrcit":14680,"defenses":14681,"defensen":14682,"Colòmbia":14683,"arry":14684,"cadà":14685,"trencament":14686,"Vicens":14687,"PPC":14688,"afirmació":14689,"aturat":14690,"Capel":14691,"seleccionat":14692,"preguntat":14693,"gratuïts":14694,"constitueixen":14695,"respectant":14696,"enviant":14697,"proporció":14698,"pliament":14699,"imaginari":14700,"convocatòries":14701,"preferit":14702,"suposo":14703,"acabem":14704,"avenços":14705,"contribueix":14706,"processó":14707,"Arxius":14708,"CaixaBank":14709,"enginyer":14710,"flexible":14711,"emmagatzemar":14712,"Motor":14713,"laboracions":14714,"vergony":14715,"visualització":14716,"distinció":14717,"Linux":14718,"Christi":14719,"Negoci":14720,"estímul":14721,"tolerància":14722,"UdG":14723,"entusiasme":14724,"Trias":14725,"Primavera":14726,
[...]
